<pad>	0
<unk>	0
<s>	0
</s>	0
்க	-0
்த	-1
ன்	-2
ம்	-3
▁ப	-4
ல்	-5
▁க	-6
▁அ	-7
க்க	-8
்ட	-9
▁வ	-10
ரு	-11
ப்	-12
▁ம	-13
ும்	-14
த்த	-15
ந்த	-16
▁இ	-17
து	-18
ள்	-19
▁ச	-20
ர்	-21
ிய	-22
▁த	-23
▁ந	-24
▁எ	-25
ப்ப	-26
ட்ட	-27
ைய	-28
ில்	-29
ன்ற	-30
ிற	-31
ங்க	-32
ண்ட	-33
▁உ	-34
ற்	-35
ாக	-36
ர்க	-37
க்	-38
டு	-39
க்கு	-40
▁அவ	-41
ற்ற	-42
▁ஆ	-43
ில	-44
ிரு	-45
ச்	-46
▁ஒ	-47
ான்	-48
ின்	-49
டி	-50
ல்ல	-51
ிர	-52
ார்	-53
▁மு	-54
ன்று	-55
▁செ	-56
ான	-57
த்து	-58
ால்	-59
ள்ள	-60
ந்து	-61
ிக	-62
▁கொ	-63
ார	-64
▁வி	-65
த்	-66
ின	-67
ர்கள்	-68
லை	-69
ன்ன	-70
ய்	-71
▁இரு	-72
வி	-73
று	-74
▁கு	-75
ளை	-76
▁பெ	-77
ண்	-78
▁போ	-79
▁கா	-80
▁ஒரு	-81
ட்டு	-82
வு	-83
▁வே	-84
ம்ப	-85
ண்டு	-86
ன்ப	-87
ழு	-88
▁நா	-89
▁என்று	-90
ாத	-91
▁அத	-92
ச்ச	-93
ரி	-94
கிற	-95
▁வா	-96
மை	-97
்கு	-98
ாம்	-99
டை	-100
ுக்கு	-101
▁பு	-102
ிக்க	-103
▁கூ	-104
னை	-105
டைய	-106
டிய	-107
்ச	-108
▁பா	-109
றி	-110
ர்கள	-111
▁ஏ	-112
ரிய	-113
ின்ற	-114
தி	-115
ாம	-116
க்கும்	-117
ங்கள்	-118
ையும்	-119
த்தில்	-120
▁இந்த	-121
க்கிற	-122
ழ்	-123
த்தை	-124
வே	-125
▁பொ	-126
ால	-127
▁செய	-128
கு	-129
ண்ண	-130
ாவ	-131
ங்கள	-132
▁சொ	-133
ப்பு	-134
▁என்ற	-135
ாய	-136
▁வெ	-137
கள	-138
னி	-139
ார்கள்	-140
்த்த	-141
மாக	-142
வர்	-143
▁தொ	-144
ரை	-145
வத	-146
கள்	-147
ில்லை	-148
ப்பட்ட	-149
ாள்	-150
▁மா	-151
றை	-152
ையில்	-153
▁ய	-154
னர்	-155
ிருந்த	-156
▁தெ	-157
ிட	-158
▁என்ன	-159
வை	-160
▁நீ	-161
மான	-162
மா	-163
ேன்	-164
ங்கு	-165
▁சு	-166
▁வேண்ட	-167
ரும்	-168
தை	-169
▁கோ	-170
▁அந்த	-171
வா	-172
▁உள்ள	-173
வும்	-174
▁கொண்ட	-175
▁என	-176
▁பே	-177
▁து	-178
▁என்ப	-179
▁மற்ற	-180
ஸ்	-181
மு	-182
▁செய்	-183
திய	-184
ற்க	-185
ற்ப	-186
னால்	-187
▁செய்த	-188
கிறது	-189
ளி	-190
▁இருந்த	-191
ையை	-192
ழி	-193
ாது	-194
ற்று	-195
▁இவ	-196
▁திரு	-197
▁அவர்	-198
▁சிற	-199
▁ர	-200
▁இர	-201
ற்கு	-202
ஞ்ச	-203
▁மே	-204
▁பய	-205
டுத்த	-206
▁வீ	-207
▁கே	-208
▁பல	-209
▁பிர	-210
மி	-211
▁இல்ல	-212
ட்	-213
▁வந்த	-214
▁தே	-215
ிலே	-216
டும்	-217
▁மூ	-218
▁பிற	-219
▁இது	-220
▁தோ	-221
ிக்	-222
▁அவன்	-223
போ	-224
▁எல்ல	-225
ாய்	-226
ிருக்கிற	-227
ழை	-228
▁பி	-229
்கிற	-230
▁நான்	-231
டன்	-232
மைய	-233
▁கி	-234
மே	-235
▁வாழ	-236
▁அது	-237
▁சே	-238
னு	-239
▁ஆக	-240
ணி	-241
▁வரு	-242
ட்ச	-243
▁முத	-244
கின்ற	-245
▁ஓ	-246
வன்	-247
ிலும்	-248
▁நிற	-249
ப்போ	-250
▁நில	-251
▁வேண்டும்	-252
▁செய்ய	-253
▁எழு	-254
வது	-255
▁பார	-256
வில்லை	-257
▁வை	-258
▁சி	-259
ாள	-260
ப்படு	-261
ற்றி	-262
ர்க்க	-263
களை	-264
விட்ட	-265
ியை	-266
பு	-267
▁சொல்ல	-268
வர	-269
▁பொரு	-270
லாம்	-271
▁அறி	-272
▁கரு	-273
▁மிக	-274
ிகள	-275
▁உய	-276
▁அர	-277
▁நட	-278
லி	-279
்வ	-280
▁வழ	-281
▁உட	-282
▁இத	-283
▁கட	-284
ிகள்	-285
ிற்கு	-286
▁வர	-287
▁மற்றும்	-288
சு	-289
டக	-290
▁பெரு	-291
▁முடிய	-292
▁விள	-293
ர்ந்த	-294
ினை	-295
தும்	-296
▁கால	-297
ிருந்து	-298
ாலும்	-299
ாமல்	-300
்கள்	-301
்கள	-302
▁ஊ	-303
▁அமை	-304
வன	-305
▁ஆனால்	-306
டுத்து	-307
▁சில	-308
தான்	-309
லக	-310
வர்கள்	-311
த்தின்	-312
ப்படி	-313
▁இய	-314
▁கொண்டு	-315
சி	-316
▁தீ	-317
▁தொட	-318
▁இட	-319
ோடு	-320
ருக்கு	-321
ோம்	-322
ட்டி	-323
மும்	-324
▁அவர்கள்	-325
▁ஜ	-326
▁நே	-327
ெல்ல	-328
த்திர	-329
▁ஐ	-330
றிய	-331
ைப்	-332
▁பூ	-333
ொரு	-334
ிரி	-335
னித	-336
ரம்	-337
▁கார	-338
ைக்	-339
ியில்	-340
லா	-341
ணம்	-342
ங்களை	-343
▁அரு	-344
▁இல்லை	-345
க்கிய	-346
கை	-347
▁உண	-348
க்கி	-349
்க்க	-350
▁தமி	-351
▁பின்	-352
▁நி	-353
▁நாடக	-354
வில்	-355
தாக	-356
▁மன	-357
▁பார்த்த	-358
▁மக்க	-359
▁வள	-360
▁மனித	-361
சை	-362
▁வந்து	-363
▁பெய	-364
ரா	-365
▁சம	-366
▁என்பது	-367
..	-368
ண்ப	-369
விய	-370
கி	-371
▁அவள்	-372
சிய	-373
▁சா	-374
▁முடி	-375
▁அல்ல	-376
லைய	-377
வாக	-378
▁தலை	-379
▁தன்	-380
▁கொள்ள	-381
ாடு	-382
ப்பி	-383
▁அடி	-384
▁மீ	-385
த்திற்கு	-386
க்கம்	-387
ளிய	-388
▁விட்ட	-389
ிற்	-390
▁இருக்கிற	-391
▁ல	-392
▁இருக்க	-393
ாவது	-394
விட	-395
ுள்ள	-396
ிலிருந்து	-397
▁பழ	-398
▁என்	-399
ங்கி	-400
த்துக்	-401
▁பெற்ற	-402
ணை	-403
▁கூற	-404
ர்ந்து	-405
▁நெ	-406
▁ட	-407
ெல்லாம்	-408
▁தான்	-409
தே	-410
வர்கள	-411
▁எண்ண	-412
▁வாழ்க்க	-413
ாட்ட	-414
ர்த்த	-415
க்கொ	-416
ங்கே	-417
▁வாழ்	-418
▁போல	-419
த்தான்	-420
லிய	-421
ம்பு	-422
▁உலக	-423
▁அவர்கள	-424
ச்சி	-425
▁"	-426
▁அதிக	-427
▁நல்ல	-428
▁ஆர	-429
▁நோ	-430
▁பெரிய	-431
லு	-432
ர்களை	-433
▁அப்ப	-434
▁உத	-435
லில்	-436
ப்பட்டது	-437
▁இரண்டு	-438
ளவு	-439
▁தூ	-440
▁நினை	-441
▁ஏற்ப	-442
மெ	-443
யே	-444
னுக்கு	-445
ுடைய	-446
்தான்	-447
▁ஆய	-448
▁தா	-449
▁தி	-450
ந்தை	-451
▁உரு	-452
▁பகு	-453
ந்தது	-454
▁ஹ	-455
லும்	-456
ையே	-457
ினார்	-458
▁குறி	-459
▁தவ	-460
▁கட்ட	-461
▁குழ	-462
கின்றன	-463
னிய	-464
▁காண	-465
ஸ்ட	-466
▁விரு	-467
▁தெரிய	-468
ழுது	-469
ிருக்க	-470
▁அழ	-471
▁சீ	-472
ந்	-473
ரே	-474
டம்	-475
▁ஒன்ற	-476
ண்டும்	-477
ப்பத	-478
கம்	-479
ையாக	-480
ப்பட்டு	-481
த்தி	-482
▁பர	-483
லம்	-484
ப்பது	-485
▁செய்து	-486
▁சூ	-487
யில	-488
தல்	-489
ட்டும்	-490
▁சோ	-491
த்திய	-492
டித்த	-493
▁எனக்கு	-494
▁கண்ட	-495
▁பத	-496
▁நக	-497
ிடம்	-498
▁கூட	-499
ப்போது	-500
▁நூ	-501
▁ஒன்று	-502
▁கை	-503
யில்	-504
வ்வ	-505
▁முன்ன	-506
▁மிகவும்	-507
ங்களில்	-508
▁கண	-509
ையின்	-510
வம்	-511
டுக்க	-512
ிரிய	-513
பெ	-514
களில்	-515
▁சந்த	-516
பி	-517
னும்	-518
▁எல்லாம்	-519
▁அனு	-520
ியது	-521
னே	-522
ம்ம	-523
டிக்க	-524
▁விடு	-525
ையா	-526
▁மர	-527
▁அதை	-528
ம்பி	-529
றும்	-530
▁கண்ண	-531
▁பிறகு	-532
▁இருக்கும்	-533
▁வெளிய	-534
▁அதன்	-535
ங்	-536
▁அவர	-537
ின்றன	-538
▁பேச	-539
▁இன்ன	-540
▁சென்ற	-541
ிர்	-542
▁அழை	-543
▁மொ	-544
▁எத	-545
▁கேட்ட	-546
ப்பட	-547
ினர்	-548
▁வேறு	-549
ியாக	-550
ட்சி	-551
போது	-552
▁கல	-553
▁உண்	-554
ியும்	-555
▁இதை	-556
நில	-557
்களை	-558
க்குப்	-559
வரும்	-560
▁கிடை	-561
▁தோன்ற	-562
▁இருந்தது	-563
ராக	-564
▁நான	-565
▁பயன்ப	-566
ஸ்த	-567
▁அரச	-568
▁தெரி	-569
▁-	-570
▁ஈ	-571
▁நாம்	-572
தா	-573
▁மெ	-574
▁எடுத்து	-575
ுடன்	-576
▁தன	-577
▁செல்	-578
▁மறு	-579
ட்ப	-580
ங்களுக்கு	-581
ிகளை	-582
▁அன்ப	-583
▁சொன்ன	-584
▁போய்	-585
ினான்	-586
ரில்	-587
▁வழி	-588
ினால்	-589
▁குறை	-590
▁நாட்ட	-591
ங்கும்	-592
▁நிலை	-593
ிருக்கும்	-594
▁தமிழ்	-595
படி	-596
▁இல	-597
▁முதல்	-598
▁நம	-599
ென்று	-600
▁கொண்டிருந்த	-601
ப்படுகிறது	-602
▁வேண்டு	-603
ப்பா	-604
கிறார்	-605
ாகும்	-606
▁பொருள	-607
யம்	-608
▁வய	-609
ோர்	-610
▁நம்	-611
▁இங்கு	-612
▁அதற்கு	-613
ினும்	-614
▁தன்ன	-615
ைத்	-616
▁சப	-617
▁கல்	-618
▁அட	-619
▁போக	-620
ச்சு	-621
ள்ளது	-622
லே	-623
▁அக	-624
▁பட்ட	-625
▁படை	-626
▁செல்ல	-627
▁மக்கள்	-628
்வா	-629
▁ஓர்	-630
ியின்	-631
▁மூன்று	-632
▁மாத	-633
ூட	-634
ர்வ	-635
▁கண்டு	-636
ிற்க	-637
▁எதி	-638
▁உண்ட	-639
▁எந்த	-640
▁சிறு	-641
▁விட்டு	-642
▁அவை	-643
வதற்கு	-644
▁இற	-645
▁இன்ப	-646
▁கூறு	-647
▁ஆகிய	-648
▁அவள	-649
னம்	-650
▁முழு	-651
▁நிக	-652
ியா	-653
▁யா	-654
த்தார்	-655
ிருக்கிறது	-656
▁உண்டு	-657
▁அடை	-658
▁பாட	-659
ிற்று	-660
▁இருப்ப	-661
▁பார்க்க	-662
▁வேண்டிய	-663
ொண்ட	-664
கைய	-665
ிரை	-666
▁கெ	-667
▁இப்ப	-668
▁பண	-669
ிக்கும்	-670
ிலேயே	-671
▁பற்றி	-672
வல	-673
ொழுது	-674
▁தமிழ	-675
▁பொது	-676
▁தனி	-677
▁என்றால்	-678
▁நண்ப	-679
ற்றிய	-680
▁பார்	-681
த்தது	-682
▁அவரது	-683
▁அற	-684
த்துப்	-685
▁குழந்தை	-686
ற்காக	-687
▁பள்ள	-688
▁பெயர்	-689
▁அவனை	-690
▁உள்ளது	-691
கா	-692
த்தைக்	-693
தல	-694
▁நிறு	-695
▁அங்கு	-696
▁திற	-697
▁சொல்	-698
ட்டை	-699
▁நேர	-700
▁இருக்கிறது	-701
ுக்க	-702
ிலுள்ள	-703
த்துக்கு	-704
▁அள	-705
▁வீர	-706
▁கொள	-707
▁பாத	-708
ஷ்	-709
ாரி	-710
▁கிர	-711
▁பிரி	-712
▁காட்ட	-713
ப்படுத்த	-714
▁மண	-715
வார்	-716
▁மலை	-717
விட்டு	-718
▁கீ	-719
ரின்	-720
ிறது	-721
தம்	-722
ென	-723
ந்ந	-724
ல்ப	-725
விடு	-726
▁வேலை	-727
ரோ	-728
▁விட	-729
கிறான்	-730
▁புற	-731
▁இருந்து	-732
ாரம்	-733
ங்கிய	-734
▁என்னும்	-735
னுடைய	-736
ானே	-737
ைக்கு	-738
ந்திர	-739
ருக	-740
த்தைப்	-741
▁தொழ	-742
▁புக	-743
▁நன்ற	-744
▁பொருள்	-745
ூர்	-746
▁இறை	-747
▁அல்லது	-748
▁உறு	-749
மையான	-750
ரிக்க	-751
▁என்பதை	-752
▁அறிய	-753
▁படி	-754
▁எல்லா	-755
▁வைத்த	-756
▁வெளி	-757
யா	-758
▁கவ	-759
▁முய	-760
▁பார்த்து	-761
ின்றனர்	-762
வார்கள்	-763
▁ரா	-764
மையை	-765
▁உடைய	-766
▁ஆகும்	-767
ிருந்தது	-768
▁வில	-769
ட்க	-770
▁காரண	-771
ப்படும்	-772
▁முடியாது	-773
▁மகி	-774
விட்டது	-775
கோ	-776
▁அதனால்	-777
▁ஒவ்வ	-778
▁எங்கள்	-779
ாகப்	-780
▁கொடு	-781
▁பரி	-782
▁முக்கிய	-783
ள்ளை	-784
▁கடை	-785
▁சாத	-786
ற்றை	-787
ட்டம்	-788
றைய	-789
ர்ச்ச	-790
்வாறு	-791
வுக்கு	-792
▁ஆண்டு	-793
னா	-794
ந்தி	-795
க்கார	-796
வோ	-797
வரை	-798
னின்	-799
▁இப்படி	-800
▁ஆயிர	-801
▁இவ்வ	-802
ிருப்ப	-803
வான	-804
▁முறை	-805
▁தரு	-806
கிறேன்	-807
ணு	-808
▁வட	-809
தில்	-810
வின்	-811
▁மன்ன	-812
ண்டி	-813
▁இனி	-814
▁எப்படி	-815
▁நம்ப	-816
ட்டுக்	-817
பா	-818
▁அழக	-819
▁நடை	-820
ல்கிற	-821
வெ	-822
களும்	-823
▁புல	-824
த்தால்	-825
▁சென்று	-826
முறை	-827
▁நு	-828
▁பெண்	-829
▁எதிர்	-830
த்தையும்	-831
ந்தார்	-832
▁மக்கள	-833
ழ்ச்ச	-834
ஷ்ட	-835
▁அவனுக்கு	-836
▁அனை	-837
▁கடவு	-838
க்த	-839
ாகக்	-840
▁துன்ப	-841
▁சரி	-842
டியே	-843
க்கள்	-844
▁முதலிய	-845
வேண்டும்	-846
▁வடி	-847
▁முன்	-848
▁பட	-849
வான்	-850
▁வாழ்க்கை	-851
▁தம்	-852
▁போன்ற	-853
▁ஞ	-854
▁நிறை	-855
▁இப்போது	-856
யர்	-857
▁கலை	-858
ருடைய	-859
ார்த்த	-860
▁கொஞ்ச	-861
ுக்கும்	-862
▁இத்த	-863
▁சேர்ந்த	-864
ஸ்க	-865
ீர்	-866
ாவின்	-867
▁வெளியே	-868
▁அங்கே	-869
▁வீட்ட	-870
ாலே	-871
த்தா	-872
▁இள	-873
▁அப்படி	-874
கின்றனர்	-875
▁இன்னும்	-876
க்கோ	-877
▁கோயில	-878
▁அந்தக்	-879
கிறார்கள்	-880
▁ஒவ்வொரு	-881
▁முடியும்	-882
▁அம்	-883
▁தனது	-884
▁அறிவு	-885
▁ஏன்	-886
▁ஒரே	-887
▁இரண்ட	-888
ங்களும்	-889
▁மேலும்	-890
▁உன்ன	-891
▁பெற	-892
▁பொறு	-893
வதில்லை	-894
▁முக	-895
களுக்கு	-896
▁நகர	-897
▁வாய்	-898
▁புத்த	-899
மர	-900
▁அவ்வ	-901
▁உடனே	-902
தியில்	-903
▁என்றும்	-904
▁நீங்கள்	-905
மோ	-906
▁மனை	-907
த்துவ	-908
க்கள	-909
க்கே	-910
ென்ற	-911
த்திலே	-912
▁பெரும்ப	-913
▁தர	-914
▁வண	-915
▁கொள்	-916
▁ஆன	-917
டும்ப	-918
ப்பிட	-919
▁அந்தப்	-920
▁வந்தது	-921
▁அழு	-922
▁சமய	-923
▁போது	-924
▁முன்ப	-925
▁இந்தப்	-926
க்கப்பட்ட	-927
லோ	-928
▁பிடி	-929
▁பெறு	-930
▁விளை	-931
▁மற	-932
த்தின	-933
▁உள்ளன	-934
▁எல்லோ	-935
தோ	-936
▁மல	-937
ர்வு	-938
▁நாட	-939
▁போல்	-940
▁கத	-941
▁ஒருவர்	-942
▁வச	-943
▁கட்டு	-944
▁திரும	-945
ப்பெ	-946
▁குற	-947
செ	-948
▁அணி	-949
▁போன	-950
▁எதிர	-951
▁ஸ்	-952
ல்கள	-953
▁ஆற்ற	-954
வரு	-955
ிகை	-956
▁வரும்	-957
ப்பாக	-958
▁மறை	-959
▁தந்த	-960
▁மட்டும்	-961
▁தய	-962
▁மாற்ற	-963
▁கொடுத்த	-964
வைய	-965
▁உன்	-966
வதும்	-967
▁இன்ற	-968
▁புதிய	-969
ாட்டு	-970
▁மனிதன்	-971
▁தங்க	-972
▁வள்ள	-973
ர்ச்சி	-974
▁அல	-975
▁விஷ	-976
▁பின்னர்	-977
▁பயன்படுத்த	-978
▁ஆறு	-979
ங்கில	-980
▁இன்று	-981
▁ஆச	-982
ல்கள்	-983
▁இதற்கு	-984
▁கன	-985
▁கிட	-986
▁நாடு	-987
▁வரலா	-988
▁இந்தக்	-989
▁உற	-990
▁மக	-991
▁கிழ	-992
▁உயிர்	-993
▁மரு	-994
த்தம்	-995
த்துக்கொ	-996
▁அவருக்கு	-997
▁முருக	-998
ிருக்கிறார்	-999
ீர	-1000
சம்	-1001
கொ	-1002
ையோ	-1003
▁மத	-1004
▁எனது	-1005
▁மட்டு	-1006
ரிக	-1007
களின்	-1008
▁அதனை	-1009
▁சொல்லி	-1010
▁இவை	-1011
ந்தான்	-1012
▁மாட்ட	-1013
க்கிறது	-1014
த்திற்க	-1015
▁நான்கு	-1016
▁குர	-1017
ாவில்	-1018
▁அருக	-1019
▁அந	-1020
▁வரை	-1021
▁என்பத	-1022
▁தொடர்	-1023
▁வேண்டுமெ	-1024
▁நாள்	-1025
▁கூட்ட	-1026
▁செய்கிற	-1027
▁செய்யும்	-1028
்ட்	-1029
ன்மை	-1030
▁இடம்	-1031
▁விழு	-1032
டியும்	-1033
▁கோயில்	-1034
▁மோ	-1035
ில்ல	-1036
▁சிவ	-1037
▁குடும்ப	-1038
▁ஆராய்	-1039
ியம்	-1040
ிற்ச	-1041
▁எது	-1042
▁ஒழு	-1043
▁மணி	-1044
▁அன்று	-1045
▁இந்திய	-1046
▁காட்டு	-1047
ின்ன	-1048
▁நிய	-1049
டின	-1050
ாக்	-1051
த்தன	-1052
ப்பை	-1053
▁பக்க	-1054
▁நெரு	-1055
ர்க்கு	-1056
ர்களுக்கு	-1057
...	-1058
ஞ்சி	-1059
▁எழுத	-1060
▁தெய்	-1061
க்காக	-1062
▁கற்ப	-1063
த்தும்	-1064
மில்லை	-1065
▁அப்போது	-1066
பம்	-1067
ழிய	-1068
▁அம	-1069
ர்களின்	-1070
ர்ம	-1071
▁இசை	-1072
▁பெண	-1073
மையாக	-1074
▁சார்	-1075
▁மலைய	-1076
▁சிறந்த	-1077
த்திலும்	-1078
▁வீடு	-1079
▁காரணம்	-1080
▁நமக்கு	-1081
ப்படுகின்றன	-1082
ாமி	-1083
ிக்கொ	-1084
டையில்	-1085
▁இழ	-1086
▁நாள	-1087
▁நிலைய	-1088
▁தாய	-1089
▁விரும்ப	-1090
▁அவரை	-1091
▁யார்	-1092
த்துடன்	-1093
ர்களும்	-1094
்த்து	-1095
▁கூறி	-1096
▁பேசு	-1097
விடும்	-1098
▁அமைந்து	-1099
ாதே	-1100
லின்	-1101
▁கதை	-1102
▁நாய	-1103
▁மேல்	-1104
த்தைச்	-1105
▁எழுதிய	-1106
▁நடு	-1107
▁நாங்கள்	-1108
மீ	-1109
வாத	-1110
மாட்ட	-1111
▁குடி	-1112
▁சிறி	-1113
▁விளையா	-1114
ஞ்சு	-1115
▁யார	-1116
த்தைத்	-1117
விட்டால்	-1118
னாக	-1119
▁சங்க	-1120
ானது	-1121
▁உழை	-1122
▁நடி	-1123
கிறாள்	-1124
▁வெற்றி	-1125
கர்	-1126
▁திர	-1127
▁எவ்வ	-1128
▁செல்வ	-1129
▁நின்ற	-1130
▁மீண்டும்	-1131
மாய	-1132
▁ஆட	-1133
▁போய	-1134
▁வான	-1135
ினாள்	-1136
▁உட்க	-1137
▁மேற்க	-1138
க்கான	-1139
▁சிந்த	-1140
த்திரம்	-1141
▁அடுத்த	-1142
▁பிறந்த	-1143
▁அவர்களை	-1144
ட்டுப்	-1145
▁அவர்களுக்கு	-1146
▁எப்ப	-1147
▁மீது	-1148
றையில்	-1149
மொ	-1150
போல்	-1151
▁மனம்	-1152
▁விரி	-1153
▁உருவா	-1154
▁இல்லாத	-1155
வீ	-1156
தாய	-1157
▁டி	-1158
க்கூ	-1159
னைப்	-1160
வற்ற	-1161
ட்டிய	-1162
▁அவளை	-1163
▁கல்ல	-1164
▁கேட்க	-1165
ண்டிய	-1166
ையைப்	-1167
ிகளில்	-1168
▁முதலில்	-1169
தியாக	-1170
ஞ்	-1171
வ்	-1172
ர்த	-1173
நிலை	-1174
▁இவ்	-1175
ர்த்து	-1176
▁தங்கள்	-1177
▁நின்று	-1178
▁மி	-1179
▁அத்த	-1180
▁சட்ட	-1181
▁கொள்க	-1182
ண்ட்	-1183
▁இணை	-1184
▁பதி	-1185
க்கூட	-1186
▁அருண	-1187
▁சம்ப	-1188
▁தொடங்க	-1189
▁உன	-1190
▁என்னை	-1191
▁பெண்ண	-1192
▁அழி	-1193
▁குற்ற	-1194
ள்ளன	-1195
மானது	-1196
▁கம்ப	-1197
▁அன்பு	-1198
▁முயற்	-1199
▁பற்றிய	-1200
சா	-1201
வார	-1202
▁கவி	-1203
▁கொண்டே	-1204
▁பெற்று	-1205
ுமா	-1206
ச்சை	-1207
ிக்கிற	-1208
▁இவர்கள்	-1209
ஃப	-1210
▁கருத்து	-1211
▁ஆத	-1212
▁புது	-1213
▁புகழ்	-1214
த்திலிருந்து	-1215
ர்க்	-1216
▁விழ	-1217
களைப்	-1218
▁சரிய	-1219
▁அருணக	-1220
▁அறு	-1221
▁மூல	-1222
▁ஐந்து	-1223
ிருக்கிறார்கள்	-1224
ருவ	-1225
▁ஆண்ட	-1226
▁இவர்	-1227
▁வழக்க	-1228
▁உயர்ந்த	-1229
தால்	-1230
▁கீழ	-1231
களைக்	-1232
▁தேவை	-1233
▁அரசிய	-1234
▁என்றான்	-1235
▁மை	-1236
பட்ட	-1237
▁அடைய	-1238
▁மொழி	-1239
▁சொல்கிற	-1240
▁அளவு	-1241
▁பண்ண	-1242
ப்பட்டன	-1243
▁மது	-1244
▁வாய	-1245
▁காட்ச	-1246
▁அடிப்ப	-1247
▁நாடகம்	-1248
ாச	-1249
டையே	-1250
▁ராஜ	-1251
ிகளும்	-1252
▁இன	-1253
▁விச	-1254
▁கூறிய	-1255
▁வெள்ள	-1256
வதை	-1257
▁ஐய	-1258
மாகக்	-1259
▁தெளி	-1260
▁என்றார்	-1261
▁கர	-1262
▁நல	-1263
▁திட்ட	-1264
ருக்கும்	-1265
▁கொஞ்சம்	-1266
ிப்	-1267
▁ரூ	-1268
மேல்	-1269
ூக	-1270
நாள்	-1271
▁அன்ற	-1272
களையும்	-1273
▁மகிழ்	-1274
▁வாச	-1275
▁சிறிய	-1276
முக	-1277
▁மதி	-1278
▁ஸ்ட	-1279
ர்ப்ப	-1280
ியைக்	-1281
▁அங்க	-1282
▁நடந்து	-1283
▁நோக்கி	-1284
ாமா	-1285
▁ஆகவே	-1286
▁தவிர	-1287
▁என்கிற	-1288
க்கா	-1289
▁மாண	-1290
▁மான	-1291
▁விய	-1292
ப்பில்	-1293
▁ஒளி	-1294
லுக்கு	-1295
▁இறு	-1296
மாகும்	-1297
▁இயற்க	-1298
▁மூலம்	-1299
▁கள	-1300
▁பணி	-1301
த்தோடு	-1302
போல	-1303
▁ஆண	-1304
▁உரி	-1305
வர்களை	-1306
▁உண்மை	-1307
▁காலம்	-1308
நாத	-1309
▁கடி	-1310
▁கைய	-1311
▁இங்கே	-1312
▁நாட்டு	-1313
▁ஆயிரத்து	-1314
▁விரும்பு	-1315
▁பேர	-1316
ாவும்	-1317
▁நமது	-1318
▁பற்ற	-1319
▁தொடர்ந்து	-1320
▁நீர்	-1321
தான	-1322
ினி	-1323
பாடு	-1324
▁அதில்	-1325
▁வாங்க	-1326
▁இவ்வாறு	-1327
டா	-1328
▁பீ	-1329
▁எளி	-1330
▁கேள்	-1331
▁ஒன்றும்	-1332
▁திரும்ப	-1333
▁கிள	-1334
முடைய	-1335
ையைக்	-1336
த்துச்	-1337
▁இலக்கிய	-1338
▁சுற்றி	-1339
▁சொல்லு	-1340
நூ	-1341
ுள்	-1342
▁சித	-1343
▁விளக்க	-1344
லாக	-1345
▁அதே	-1346
▁கூடாது	-1347
▁ஏற்பட்ட	-1348
ணிய	-1349
தற்கு	-1350
வுடன்	-1351
▁பாது	-1352
▁மிகு	-1353
▁கல்வி	-1354
▁இருந்தார்	-1355
ிறு	-1356
னைக்	-1357
ால்தான்	-1358
▁பிள்ளை	-1359
ய்த	-1360
▁உப	-1361
▁சுவ	-1362
▁நிற்க	-1363
▁அவனுடைய	-1364
▁உடை	-1365
ன்பது	-1366
▁நடித்த	-1367
▁இருப	-1368
▁துணை	-1369
▁விரை	-1370
▁அவற்ற	-1371
▁கொடுக்க	-1372
er	-1373
▁தேவ	-1374
▁வித	-1375
▁கருத	-1376
▁கால்	-1377
▁மாறு	-1378
ரிச	-1379
ஷம்	-1380
▁இனிய	-1381
▁உடல்	-1382
த்தக்க	-1383
▁தெரியும்	-1384
▁நிலையில்	-1385
ரீ	-1386
ன்ம	-1387
▁விர	-1388
▁உள்ளே	-1389
▁நடைபெ	-1390
ுக்குப்	-1391
▁கடவுள்	-1392
ினார்கள்	-1393
▁எவ்வளவு	-1394
▁தெரிந்து	-1395
ோத	-1396
ப்பிய	-1397
▁எனவே	-1398
▁சிற்	-1399
▁மட்டுமே	-1400
ங்களையும்	-1401
னைய	-1402
வள்	-1403
ாகி	-1404
ாரண	-1405
▁வீட்டு	-1406
▁குமர	-1407
▁தக்க	-1408
▁தொலை	-1409
▁போட்ட	-1410
▁வைத்து	-1411
▁காலத்தில்	-1412
மான்	-1413
க்குக்	-1414
▁சொந்த	-1415
▁வழங்க	-1416
ிக்கொண்ட	-1417
ிட்ட	-1418
▁பகை	-1419
▁தவறு	-1420
ாகவும்	-1421
ீர்கள்	-1422
▁சிலர்	-1423
▁பொழுது	-1424
றே	-1425
ரிட	-1426
வில	-1427
▁புரி	-1428
க்கொண்ட	-1429
ங்களின்	-1430
an	-1431
ழக	-1432
▁பற	-1433
மாய்	-1434
▁ஓடி	-1435
▁விஷய	-1436
▁முடிவு	-1437
யண	-1438
ாப	-1439
▁தாம	-1440
▁குழு	-1441
▁உட்கார்	-1442
வல்	-1443
ந்தன	-1444
வாய்	-1445
▁ஞான	-1446
த்தல்	-1447
விக்க	-1448
▁பலர்	-1449
ங்களைப்	-1450
▁சிறிது	-1451
▁குறிப்பிட	-1452
▁தல	-1453
▁யோ	-1454
▁கொல்ல	-1455
▁ஆரம்பி	-1456
ர்க்கும்	-1457
▁கவன	-1458
▁செல	-1459
▁அச்ச	-1460
க்குச்	-1461
க்குத்	-1462
▁தெய்வ	-1463
▁தொழில	-1464
▁நிறுவன	-1465
▁பயிற்ச	-1466
▁அவருடைய	-1467
▁விட்டது	-1468
▁குத	-1469
▁சேர	-1470
ந்திய	-1471
ியைப்	-1472
▁நேரம்	-1473
▁மிக்க	-1474
ங்கா	-1475
னிடம்	-1476
▁இந்ந	-1477
▁ஒருவன்	-1478
▁காட்சி	-1479
வித	-1480
்க்	-1481
ம்பர	-1482
ந்தால்	-1483
▁பாதுகா	-1484
ிலிருந்த	-1485
ையெல்லாம்	-1486
in	-1487
நாய	-1488
▁மய	-1489
▁நிர	-1490
க்கிர	-1491
▁ஏற்ற	-1492
ற்றுக்	-1493
▁காரிய	-1494
ிருக்கிறான்	-1495
மார்	-1496
▁உரை	-1497
▁வேத	-1498
▁தாய்	-1499
▁கூடிய	-1500
▁குறிப்பி	-1501
ைச்	-1502
ும்ப	-1503
▁போத	-1504
மாகப்	-1505
▁அனுப	-1506
்களில்	-1507
▁கொடுத்து	-1508
ய்ய	-1509
ளம்	-1510
ற்பு	-1511
தாவது	-1512
▁சிரி	-1513
▁வடிவ	-1514
▁சென்ன	-1515
டுகிறது	-1516
▁கேட்டு	-1517
▁அறிந்து	-1518
▁இப்பொழுது	-1519
ளு	-1520
ல்களை	-1521
த்தனர்	-1522
▁ஆங்கில	-1523
▁எல்லோரும்	-1524
யோ	-1525
ங்கை	-1526
▁இயல	-1527
▁மாவ	-1528
ொன்று	-1529
▁அழைக்க	-1530
▁மொழ	-1531
▁தண்ண	-1532
▁நிகழ்	-1533
▁வருகிறது	-1534
▁இருந்தால்	-1535
▁நாக	-1536
▁சமூக	-1537
ிகளின்	-1538
▁அம்மா	-1539
▁அறிந்த	-1540
▁கொள்கிற	-1541
ேக	-1542
ொழு	-1543
ாளர்	-1544
▁அண்ண	-1545
▁குரு	-1546
▁மண்ட	-1547
ப்பும்	-1548
ப்பற்றி	-1549
▁பகுதிய	-1550
▁எடுத்துக்	-1551
ைகள்	-1552
▁அமெ	-1553
▁அவன	-1554
▁புர	-1555
▁பக	-1556
▁வகை	-1557
▁உயிர	-1558
▁கீழே	-1559
▁மேலே	-1560
மையில்	-1561
▁செய்வது	-1562
▁அச	-1563
▁ஆம்	-1564
▁உணவு	-1565
▁பகுதி	-1566
▁ஆசை	-1567
ப்புற	-1568
▁சூழ்	-1569
▁பழைய	-1570
▁திரும்பி	-1571
ும	-1572
த்தே	-1573
▁யான	-1574
▁உருவ	-1575
▁இதில்	-1576
▁ஒப்பு	-1577
▁உங்கள்	-1578
மூ	-1579
ங்கோ	-1580
டிக்	-1581
▁உதயண	-1582
▁ஆயினும்	-1583
ாகிய	-1584
▁உலகம்	-1585
▁எங்கே	-1586
▁தோன்று	-1587
▁வாழும்	-1588
▁S	-1589
ாகவே	-1590
▁ரூப	-1591
▁ஆசிரிய	-1592
▁ஷ	-1593
ப்பான	-1594
▁மற்றொரு	-1595
▁நம்பிக்க	-1596
▁தக	-1597
▁ரோ	-1598
கொண்ட	-1599
▁கஷ்ட	-1600
▁போர்	-1601
▁சேர்ந்து	-1602
ிருக்கிறேன்	-1603
லைக்	-1604
ப்பிர	-1605
▁அக்க	-1606
▁தனிய	-1607
▁பயன்	-1608
தில்லை	-1609
▁தரும்	-1610
▁கிடைக்க	-1611
ள்ளி	-1612
▁தான	-1613
▁நாட்டில்	-1614
சன்	-1615
ந்தர	-1616
▁அளி	-1617
▁தவற	-1618
▁பகுத	-1619
கையில்	-1620
டியில்	-1621
▁செயல்ப	-1622
▁முன்னே	-1623
▁சிறப்பு	-1624
▁முடியவில்லை	-1625
ண்டை	-1626
வேன்	-1627
▁அவ்	-1628
▁ஈடு	-1629
▁இதன்	-1630
▁பதின	-1631
த்துத்	-1632
▁ஆரம்ப	-1633
ப்பட்டுள்ளது	-1634
▁தள	-1635
▁காத	-1636
▁தின	-1637
வதில்	-1638
▁அம்ம	-1639
▁செலு	-1640
ட்டில்	-1641
▁அமைந்த	-1642
▁நன்றாக	-1643
▁அமெரிக்க	-1644
▁இல்லாமல்	-1645
▁ஏதோ	-1646
▁சக்த	-1647
▁தீர்	-1648
▁பாடு	-1649
▁மிரு	-1650
▁இறைவன்	-1651
பட	-1652
பர	-1653
▁மாற	-1654
▁ஆரிய	-1655
▁குழந்த	-1656
▁விருப்ப	-1657
ங்குகிறது	-1658
ாவை	-1659
டியாக	-1660
▁தன்னை	-1661
ன்றி	-1662
வுகள்	-1663
ற்கும்	-1664
▁வைக்க	-1665
▁முடியாத	-1666
▁எரி	-1667
▁கடு	-1668
▁நன்மை	-1669
கின்றது	-1670
▁முன்பு	-1671
ப்பட்டார்	-1672
▁அவளுக்கு	-1673
▁செல்லும்	-1674
▁நிகழ்ச்ச	-1675
▁இருந்தாலும்	-1676
ளா	-1677
ுப	-1678
▁முர	-1679
▁பிரப	-1680
▁நோக்க	-1681
▁மனைவி	-1682
ஞர்	-1683
ாதி	-1684
▁வேல	-1685
▁குறு	-1686
▁கிடைய	-1687
▁இந்தத்	-1688
▁தொழில்	-1689
▁கண்டுபி	-1690
▁அப்படியே	-1691
கிய	-1692
▁ஏற	-1693
▁கப்ப	-1694
▁கவலை	-1695
ாட்டில்	-1696
ராஜ	-1697
மீது	-1698
வோம்	-1699
ென்ன	-1700
▁வண்ண	-1701
▁விமான	-1702
ில்தான்	-1703
▁அடிக்க	-1704
▁தொடர்பு	-1705
▁இருவரும்	-1706
ar	-1707
கார	-1708
பின்	-1709
்டர்	-1710
▁குண	-1711
▁சமு	-1712
▁பெரி	-1713
த்தாள்	-1714
▁சிக்க	-1715
▁மூன்ற	-1716
▁இருக்கின்றன	-1717
ஞான	-1718
வாச	-1719
ரைப்	-1720
▁நடந்த	-1721
▁நிறைய	-1722
ர்க்கிற	-1723
▁இந்தச்	-1724
▁இருந்தன	-1725
▁வார்த்த	-1726
மன்	-1727
....	-1728
▁இடை	-1729
ரிடம்	-1730
ையைத்	-1731
▁படித்த	-1732
ப்பதற்கு	-1733
▁அரசியல்	-1734
னில்	-1735
னைத்	-1736
கன்	-1737
▁லீ	-1738
▁ஆடு	-1739
▁இன்	-1740
▁ஊர்	-1741
▁கண்	-1742
▁வகு	-1743
ர்களே	-1744
▁கோடை	-1745
▁பதில்	-1746
▁இன்பம்	-1747
▁வழியாக	-1748
நா	-1749
ஃப்	-1750
லையே	-1751
வேறு	-1752
▁அணு	-1753
▁கிராம	-1754
ிருந்தார்	-1755
▁வேண்டுமென்று	-1756
வதே	-1757
வின	-1758
▁குள	-1759
▁பாக	-1760
▁வார	-1761
ட்சிய	-1762
▁ஐம்ப	-1763
▁நிர்	-1764
கிறோம்	-1765
▁பாத்திர	-1766
▁வழக்கம்	-1767
▁பெரும்பாலும்	-1768
▁அண	-1769
ணும்	-1770
▁ஆதல	-1771
க்களை	-1772
▁உதவி	-1773
▁அப்பா	-1774
▁நடத்த	-1775
▁வாயில	-1776
வர்களுக்கு	-1777
▁நேரத்தில்	-1778
வாய	-1779
ாலம்	-1780
▁முதல	-1781
▁வில்	-1782
னையும்	-1783
▁வேண்டாம்	-1784
on	-1785
ாங்க	-1786
▁துற	-1787
ியைத்	-1788
▁தோற்ற	-1789
வதற்காக	-1790
▁காரணமாக	-1791
▁சம்பந்த	-1792
மாம்	-1793
▁ராம	-1794
ப்பின	-1795
▁குளி	-1796
▁வழிய	-1797
ந்தனர்	-1798
▁யாரும்	-1799
▁பொதுவாக	-1800
ழும்	-1801
▁அழகு	-1802
மையும்	-1803
▁இடத்தில்	-1804
▁ஏன	-1805
▁சுரு	-1806
▁காதல்	-1807
▁நன	-1808
ாயிர	-1809
ியான	-1810
▁காடு	-1811
▁போலவே	-1812
▁சாப்பி	-1813
▁பிடித்த	-1814
▁கிடையாது	-1815
▁அமைந்துள்ளது	-1816
ற்ச	-1817
ெட்	-1818
▁கழு	-1819
▁தீய	-1820
ப்பர்	-1821
▁அல்லவா	-1822
▁எழுந்த	-1823
விட்டார்	-1824
▁அவ்வளவு	-1825
▁குறிக்க	-1826
▁வந்தார்	-1827
▁இருப்பது	-1828
▁முழுவதும்	-1829
▁பை	-1830
ண்பு	-1831
ுவர்	-1832
▁வேக	-1833
ங்கார	-1834
▁வரவே	-1835
▁முக்கியமான	-1836
▁B	-1837
▁அப	-1838
▁உர	-1839
▁சட	-1840
ற்போ	-1841
▁இழு	-1842
▁கிற	-1843
▁எழுதி	-1844
▁வெற்ற	-1845
▁எதுவும்	-1846
▁அருணகிரி	-1847
▁தண்ட	-1848
▁குடிய	-1849
▁பெருமை	-1850
்த்	-1851
▁கழி	-1852
▁சோழ	-1853
▁துண	-1854
▁மாள	-1855
▁முற	-1856
மிக்க	-1857
ொருள்	-1858
▁தேடி	-1859
ப்பின்	-1860
ற்றும்	-1861
▁உண்டா	-1862
▁அணிந்த	-1863
▁சமுதாய	-1864
▁பெரும்	-1865
▁நிறைந்த	-1866
▁உங்களுக்கு	-1867
பே	-1868
ரான	-1869
ல்க	-1870
▁ஜன	-1871
ஸ்ட்	-1872
▁அரி	-1873
▁ஒருவ	-1874
▁கிரு	-1875
▁நீதி	-1876
▁பண்ப	-1877
▁நீண்ட	-1878
▁விளைய	-1879
ப்புகள்	-1880
ர்களில்	-1881
ிக்கொண்டு	-1882
▁வைத்துக்	-1883
டல்	-1884
தைக்	-1885
ய்வு	-1886
▁துய	-1887
▁நோய	-1888
▁உயர்	-1889
▁வெறு	-1890
ங்களைக்	-1891
▁முருகன்	-1892
▁கூறினார்	-1893
▁உரிய	-1894
▁வாழ்க	-1895
▁எடுத்த	-1896
ிகளுக்கு	-1897
வள	-1898
மதி	-1899
ம்போ	-1900
றிவு	-1901
▁காதல	-1902
ம்பரம்	-1903
்களும்	-1904
▁பொன்ன	-1905
▁அந்தச்	-1906
▁ஏற்பாடு	-1907
ப்படவில்லை	-1908
சர்	-1909
ம்பெ	-1910
▁மரண	-1911
▁இரவு	-1912
▁சின்ன	-1913
▁செயல்	-1914
▁தந்தை	-1915
▁முதன்	-1916
▁அந்தத்	-1917
▁அமைச்ச	-1918
▁இதனால்	-1919
▁குமரன்	-1920
ிருக்கின்றன	-1921
வாள	-1922
க்குற	-1923
▁உண்ண	-1924
▁மாறி	-1925
▁நம்மை	-1926
▁மெல்ல	-1927
▁மாவட்ட	-1928
▁அருகில்	-1929
▁பெண்கள்	-1930
▁ஜெ	-1931
▁டெ	-1932
த்தொ	-1933
ரால்	-1934
▁அலை	-1935
▁இந்	-1936
▁சிக	-1937
▁விவ	-1938
▁வல்ல	-1939
▁அதைக்	-1940
▁நண்பர்	-1941
ப்த	-1942
மர்	-1943
ர்ட	-1944
▁யு	-1945
▁உயி	-1946
▁திட	-1947
ஞ்ஞான	-1948
ையால்	-1949
▁அநுப	-1950
▁ஒப்ப	-1951
▁வண்ட	-1952
▁பத்து	-1953
ாயிற்று	-1954
▁ஏதாவது	-1955
▁இத்தகைய	-1956
▁வாழ்ந்த	-1957
▁செய்தார்	-1958
▁வீட்டில்	-1959
▁தட	-1960
மாறு	-1961
▁இளை	-1962
▁சிர	-1963
▁தானே	-1964
▁பால்	-1965
தாகும்	-1966
▁தெரிவி	-1967
▁புத்தக	-1968
▁பேச்சு	-1969
க்கூடாது	-1970
▁விளக்கு	-1971
▁C	-1972
ரைக்	-1973
லைப்	-1974
வராக	-1975
▁இம்	-1976
▁பயன	-1977
▁ஸ்க	-1978
▁அன்ன	-1979
▁மறுப	-1980
▁செய்தி	-1981
ங்களிலும்	-1982
ுமே	-1983
▁தம	-1984
▁நகை	-1985
▁எத்த	-1986
▁போரா	-1987
▁அருள்	-1988
▁சுவாம	-1989
▁தோட்ட	-1990
ாளர்கள்	-1991
▁கையில்	-1992
▁தோன்றும்	-1993
en	-1994
ாண	-1995
ூர	-1996
▁யூ	-1997
▁தவி	-1998
ஸ்திர	-1999
ாலேயே	-2000
▁பிள்ள	-2001
▁மிருக	-2002
க்கூடிய	-2003
▁அதிகார	-2004
▁போட்டு	-2005
ப்போதும்	-2006
▁பெருமான	-2007
ிருந்தான்	-2008
▁M	-2009
▁தோழ	-2010
▁பரம	-2011
▁தாழ்	-2012
▁தொகு	-2013
த்திற்கும்	-2014
கர	-2015
்ப	-2016
வடி	-2017
▁ஏறி	-2018
முள்ள	-2019
▁விழி	-2020
▁என்றே	-2021
▁காண்ப	-2022
▁பள்ளி	-2023
▁பின்ன	-2024
மம்	-2025
சாமி	-2026
ச்சிய	-2027
▁கவனி	-2028
▁இயக்க	-2029
ும்போது	-2030
▁உனக்கு	-2031
▁கேள்வி	-2032
க்கொண்டு	-2033
ிருந்தால்	-2034
▁அடிக்கடி	-2035
or	-2036
வனை	-2037
ண்மை	-2038
தைப்	-2039
வதாக	-2040
வினை	-2041
மாகத்	-2042
ாரின்	-2043
ர்த்தி	-2044
▁வாழ்வு	-2045
▁வலி	-2046
▁விஜ	-2047
▁இக்க	-2048
▁உத்த	-2049
▁கவர்	-2050
ப்பான்	-2051
ம்தான்	-2052
▁அதைப்	-2053
▁பகுத்த	-2054
▁போதும்	-2055
மிருந்து	-2056
▁தீர்மான	-2057
ப்பட்டுள்ளன	-2058
ிழ	-2059
▁கவு	-2060
▁அஞ்ச	-2061
▁இவன்	-2062
▁கன்ன	-2063
▁தாம்	-2064
▁பிழை	-2065
ங்கிக்	-2066
ற்றில்	-2067
▁பழக்க	-2068
விட்டான்	-2069
▁செல்கிற	-2070
▁குழந்தைகள்	-2071
டே	-2072
பார	-2073
ெய்	-2074
▁உல	-2075
லிங்க	-2076
▁கடமை	-2077
▁கருவ	-2078
▁பணம்	-2079
▁வெகு	-2080
▁அழகிய	-2081
வனுக்கு	-2082
▁கலந்து	-2083
ப்படுத்து	-2084
▁தெரியாது	-2085
டர்	-2086
ாதா	-2087
ாவிட	-2088
▁பயண	-2089
▁மகள	-2090
▁வளை	-2091
▁துணி	-2092
▁நூல்	-2093
▁விதி	-2094
த்தேன்	-2095
்களின்	-2096
▁இவ்வளவு	-2097
▁பாராட்ட	-2098
▁இரண்டாவது	-2099
சுர	-2100
யும்	-2101
▁பல்	-2102
▁பைய	-2103
ின்றி	-2104
▁அரசு	-2105
▁பாடி	-2106
▁கேட்ப	-2107
▁புரிய	-2108
▁அத்தகைய	-2109
▁எங்கும்	-2110
▁என்றாள்	-2111
▁உண்மையான	-2112
புற	-2113
க்கண	-2114
▁சீன	-2115
▁சுத	-2116
ற்றது	-2117
ினேன்	-2118
▁கூடு	-2119
▁மண்ண	-2120
▁உடம்ப	-2121
ாலத்தில்	-2122
▁முயற்சி	-2123
ீன்	-2124
மொழி	-2125
ொன்ற	-2126
▁ஒது	-2127
▁மைய	-2128
ப்பார்	-2129
▁உறுதி	-2130
▁நெஞ்ச	-2131
▁அவர்களின்	-2132
தர	-2133
▁ஒள	-2134
ாண்ட	-2135
▁இயல்	-2136
▁கற்ற	-2137
க்கில்	-2138
ட்டிக்	-2139
ிரண்டு	-2140
்கிறது	-2141
▁ஏற்று	-2142
▁சமயம்	-2143
▁பாடல்	-2144
களிலும்	-2145
▁நினைவு	-2146
யன்	-2147
ாயம்	-2148
ூற்று	-2149
▁கிறி	-2150
▁தலைய	-2151
▁நுழை	-2152
▁அரசன்	-2153
▁சூரிய	-2154
▁பொருளை	-2155
▁நிர்வாக	-2156
▁திருக்குற	-2157
▁கொண்டிருந்தது	-2158
▁கீழ்	-2159
க்கிக்	-2160
▁இயல்ப	-2161
▁கல்யா	-2162
▁செய்க	-2163
▁வரலாறு	-2164
▁அவர்களுடைய	-2165
▁வாழ்க்கையில்	-2166
ேஷ	-2167
வந்த	-2168
▁கேட	-2169
▁தகு	-2170
▁போட	-2171
▁தீமை	-2172
ின்றது	-2173
▁கடவுள	-2174
ரத்தில்	-2175
▁சாதாரண	-2176
▁பத்திர	-2177
▁மலையாள	-2178
▁விளங்க	-2179
▁அதிகமாக	-2180
▁அவ்வாறு	-2181
▁மறுபடியும்	-2182
▁விளையாட்டு	-2183
ாட	-2184
விர	-2185
தாம்	-2186
ப்பே	-2187
▁சகோ	-2188
▁சார	-2189
▁தேச	-2190
▁படு	-2191
▁மழை	-2192
களைத்	-2193
்க்கு	-2194
▁அவசிய	-2195
▁உன்னை	-2196
▁சந்தி	-2197
▁ஆயிரம்	-2198
வர்களும்	-2199
த்துக்கொண்டு	-2200
▁குறிப்பிட்ட	-2201
ஜ்	-2202
மிட	-2203
ையான	-2204
▁ஒலி	-2205
▁மாம	-2206
ர்களா	-2207
▁கார்	-2208
▁நிமி	-2209
▁மின்	-2210
▁ரங்க	-2211
ுக்காக	-2212
▁அறிவி	-2213
▁கட்டி	-2214
▁கெட்ட	-2215
▁சுற்ற	-2216
▁கடந்து	-2217
▁கொள்ளும்	-2218
▁பார்க்கிற	-2219
▁சை	-2220
களாக	-2221
டியோ	-2222
ியல்	-2223
மில்ல	-2224
ையிலே	-2225
▁கடல்	-2226
▁பரிச	-2227
▁புகு	-2228
▁மாலை	-2229
▁எழுது	-2230
▁நடக்க	-2231
▁வெப்ப	-2232
▁ஆதலால்	-2233
ருக்குப்	-2234
ண்ம	-2235
ெல்	-2236
▁காய	-2237
திக்க	-2238
மாகச்	-2239
▁நம்ம	-2240
▁நாளை	-2241
▁எண்ணி	-2242
▁சுற்று	-2243
▁உணர்ச்ச	-2244
▁சார்ந்த	-2245
▁விஞ்ஞான	-2246
▁நாட்டின்	-2247
▁மகிழ்ச்ச	-2248
த்திற்குப்	-2249
▁அப்பொழுது	-2250
தன்	-2251
த்தோ	-2252
▁கோப	-2253
▁மாய	-2254
வதற்க	-2255
ப்புக்	-2256
▁எட்டு	-2257
▁சொற்க	-2258
▁பேச்ச	-2259
▁வாங்கி	-2260
த்திலேயே	-2261
▁வரையில்	-2262
கும்	-2263
வைக்	-2264
▁சாம	-2265
▁வேற	-2266
ம்பிய	-2267
வற்றை	-2268
▁பந்த	-2269
▁வயது	-2270
▁நன்கு	-2271
▁அவற்றை	-2272
▁உணர்வு	-2273
▁எடுக்க	-2274
▁கொண்டான்	-2275
வாறு	-2276
▁பொற	-2277
▁காலை	-2278
▁கோவல	-2279
▁தயார	-2280
▁பதில	-2281
▁பேர்	-2282
க்குள்	-2283
▁திருவ	-2284
▁பண்பு	-2285
▁அனுப்ப	-2286
்களுக்கு	-2287
▁சேர்க்க	-2288
ன்க	-2289
ஷ்ண	-2290
ியோ	-2291
▁ஃப	-2292
▁வல	-2293
நாடு	-2294
▁சேர்	-2295
▁பல்க	-2296
ப்பாடு	-2297
ுங்கள்	-2298
▁பங்கு	-2299
▁அதாவது	-2300
▁நானும்	-2301
க்கிறார்	-2302
▁பொருத்த	-2303
▁கேட்டார்	-2304
▁திருமணம்	-2305
▁கிடைக்கும்	-2306
சர	-2307
நீ	-2308
▁பன	-2309
▁அதன	-2310
▁அதி	-2311
▁அறை	-2312
▁டாக	-2313
▁பால	-2314
ச்சார	-2315
முடிய	-2316
▁மார்	-2317
▁பணியா	-2318
▁அதிகம்	-2319
▁போகும்	-2320
னுக்கும்	-2321
▁மாத்திரம்	-2322
▁இருப்பினும்	-2323
சன	-2324
மண	-2325
▁சர	-2326
▁ரி	-2327
வாள்	-2328
▁ஏழு	-2329
▁சுய	-2330
டுவது	-2331
ல்லவா	-2332
ையைச்	-2333
▁உச்ச	-2334
▁பாடிய	-2335
▁பிரபல	-2336
▁மதுரை	-2337
ிற்கும்	-2338
▁அடைந்த	-2339
▁தத்துவ	-2340
▁மனைவிய	-2341
ிகளையும்	-2342
▁கொண்டது	-2343
▁சொல்வது	-2344
▁பெற்றது	-2345
▁முடிந்த	-2346
ாவிட்டால்	-2347
▁முறையில்	-2348
▁தோன்றியது	-2349
ஜி	-2350
சனை	-2351
மணி	-2352
மார	-2353
▁ஆள	-2354
ள்ளே	-2355
ஸின்	-2356
▁அமு	-2357
▁ஆகி	-2358
▁ஏழை	-2359
▁சபை	-2360
கொள்ள	-2361
▁கற்க	-2362
▁பாய்	-2363
▁கருது	-2364
▁அடுத்து	-2365
த்தார்கள்	-2366
▁எனக்குத்	-2367
▁சேர்த்து	-2368
க்கை	-2369
▁இரா	-2370
▁இடைய	-2371
▁சிறை	-2372
▁புரா	-2373
ென்றால்	-2374
▁எல்லாவ	-2375
▁குதிரை	-2376
▁படுத்த	-2377
▁மறந்து	-2378
க்கிறான்	-2379
▁பிடிக்க	-2380
▁உணர்ச்சி	-2381
▁தெரியவில்லை	-2382
▁மேல	-2383
களைச்	-2384
▁நெடு	-2385
▁பிரதி	-2386
▁உலகில்	-2387
▁தெரிந்த	-2388
▁உருவாக்க	-2389
▁ஏற்படும்	-2390
▁கூறினான்	-2391
பர்	-2392
லர்	-2393
ழ்க	-2394
▁இண	-2395
▁களை	-2396
ழ்த்த	-2397
▁திரை	-2398
▁தெரு	-2399
▁பஞ்ச	-2400
▁மெய்	-2401
▁வியா	-2402
ப்போம்	-2403
▁கடைசி	-2404
▁சந்தோ	-2405
▁ஆகியவை	-2406
▁காப்பா	-2407
▁ரூபாய்	-2408
ிருந்தனர்	-2409
▁பகுதியில்	-2410
▁பார்த்துக்	-2411
ென்	-2412
ெழு	-2413
▁உள	-2414
யிர்	-2415
வைப்	-2416
▁அக்	-2417
▁இல்	-2418
வரின்	-2419
ியைச்	-2420
▁அந்ந	-2421
▁நாய்	-2422
▁நியூ	-2423
▁படைய	-2424
சியில்	-2425
▁பாட்ட	-2426
▁பிறர்	-2427
▁மாநில	-2428
மாகவும்	-2429
ிக்கிறது	-2430
▁அதற்காக	-2431
த்திலுள்ள	-2432
▁எங்களுக்கு	-2433
நே	-2434
ாமை	-2435
▁லா	-2436
பால்	-2437
▁பரு	-2438
▁உட்ப	-2439
▁நோய்	-2440
டித்து	-2441
▁அதன்ப	-2442
▁உங்கள	-2443
▁நம்பி	-2444
▁உள்ளம்	-2445
▁கொள்கை	-2446
▁போக்கு	-2447
▁திராவிட	-2448
▁வளர்ந்த	-2449
▁உட்கார்ந்த	-2450
▁வாழ்க்கையின்	-2451
ஃது	-2452
ாமண	-2453
▁ஊர	-2454
றிந்த	-2455
ையார்	-2456
▁ஒத்த	-2457
▁வரைய	-2458
பொழுது	-2459
மானால்	-2460
ற்றுப்	-2461
▁சிங்க	-2462
பவர்கள்	-2463
▁அடையாள	-2464
ாடக	-2465
▁ப்	-2466
ச்செ	-2467
ாதது	-2468
ாலான	-2469
ியர்	-2470
▁துவ	-2471
ட்டர்	-2472
ெட்டு	-2473
▁இளைஞ	-2474
▁உடன்	-2475
▁வணிக	-2476
ளியில்	-2477
க்கொள்ள	-2478
▁ஆற்றல்	-2479
▁செய்வத	-2480
▁வெள்ளை	-2481
ிருப்பது	-2482
▁குறைந்த	-2483
▁கொண்டார்	-2484
▁என்றாலும்	-2485
பால	-2486
▁ஏர	-2487
▁க்	-2488
ப்பூ	-2489
▁அலு	-2490
▁முழ	-2491
வியல்	-2492
ிடும்	-2493
மென்று	-2494
▁உதவிய	-2495
▁காத்த	-2496
▁தெரிக	-2497
▁நாகரிக	-2498
▁செய்தது	-2499
▁முடியுமா	-2500
▁கோடைக்கான	-2501
▁முடிந்தது	-2502
த்துக்கொண்ட	-2503
மாட்டார்கள்	-2504
▁சொல்கிறார்	-2505
ாமே	-2506
ிலை	-2507
▁ஆள்	-2508
▁ஏமா	-2509
▁கந்த	-2510
▁சேவை	-2511
▁தோல்	-2512
▁பக்த	-2513
▁வட்ட	-2514
▁ஆட்சி	-2515
▁சற்று	-2516
▁இயற்கை	-2517
▁இவர்கள	-2518
▁அப்படிய	-2519
▁எளிதில்	-2520
▁விட்டார்	-2521
▁ஏற்படுத்த	-2522
▁எவ	-2523
குரு	-2524
னைச்	-2525
லியோ	-2526
ளைப்	-2527
▁சர்	-2528
தாகக்	-2529
லைக்க	-2530
ெனில்	-2531
▁தற்க	-2532
▁தென்	-2533
▁மகன்	-2534
▁உரிமை	-2535
▁நகரம்	-2536
▁நிச்ச	-2537
▁எழுத்த	-2538
▁அமைப்பு	-2539
▁இருப்பத	-2540
▁வளர்ச்சி	-2541
▁வளர்ந்து	-2542
▁எப்போதும்	-2543
ியே	-2544
▁இச	-2545
▁இக்	-2546
▁பது	-2547
க்கப்	-2548
சிரிய	-2549
நாட்ட	-2550
▁இம்ம	-2551
▁செயல	-2552
▁நீலக	-2553
▁இந்து	-2554
▁நூற்ற	-2555
▁கூறும்	-2556
▁காணலாம்	-2557
▁தோன்றிய	-2558
▁பயிற்சி	-2559
ிக்கப்பட்ட	-2560
▁இருக்கலாம்	-2561
னோ	-2562
பூ	-2563
யி	-2564
புர	-2565
▁ரெ	-2566
முன்	-2567
ர்ட்	-2568
▁கலீ	-2569
▁ஞாப	-2570
களால்	-2571
▁ஆட்ட	-2572
ரையில்	-2573
▁இறந்த	-2574
▁கடந்த	-2575
▁பெரும	-2576
▁முற்ற	-2577
ிருக்கு	-2578
▁எத்தனை	-2579
▁காட்டி	-2580
சே	-2581
பதி	-2582
க்கல	-2583
ாகச்	-2584
▁ஆழ்	-2585
▁நன்	-2586
▁மூட	-2587
▁முனி	-2588
▁விற்	-2589
ட்டார்	-2590
நாட்டு	-2591
▁ஒன்றை	-2592
▁முறைய	-2593
▁கட்டிய	-2594
▁நடத்து	-2595
▁நல்லது	-2596
▁உறுப்பின	-2597
▁சொன்னார்	-2598
▁புரிந்து	-2599
ll	-2600
பிர	-2601
க்ஸ்	-2602
வியை	-2603
▁உயர	-2604
▁எரு	-2605
▁குல	-2606
ானால்	-2607
▁பண்ட	-2608
▁முது	-2609
▁நிற்ப	-2610
▁படிக்க	-2611
▁பெறும்	-2612
▁துன்பம்	-2613
▁மிகுந்த	-2614
▁வழியில்	-2615
▁அனைவரும்	-2616
▁தன்னுடைய	-2617
▁விட்டான்	-2618
▁இருந்தனர்	-2619
st	-2620
ாடி	-2621
ிலோ	-2622
▁ஆர்	-2623
▁சோத	-2624
திகள்	-2625
ப்பன்	-2626
ருடன்	-2627
▁ஆல்ப	-2628
▁ஐயர்	-2629
▁தள்ள	-2630
▁துறை	-2631
▁சக்தி	-2632
▁இயல்பு	-2633
▁உதயணன்	-2634
▁படைத்த	-2635
▁இருக்கு	-2636
▁கலீலியோ	-2637
▁எல்லாவற்ற	-2638
ஷி	-2639
மடை	-2640
விழ	-2641
ிட்	-2642
ீடு	-2643
ரங்க	-2644
▁எடு	-2645
▁சாய	-2646
▁ஏற்க	-2647
▁லட்ச	-2648
▁அதுவே	-2649
▁அரண்ம	-2650
▁ஆவார்	-2651
▁திடீர	-2652
ருங்கள்	-2653
ையையும்	-2654
▁அதுபோல	-2655
▁இயலாது	-2656
▁கண்ணகி	-2657
▁திருமண	-2658
ப்புக்கு	-2659
▁இன்னொரு	-2660
▁தேர்ந்த	-2661
▁படுத்து	-2662
▁முன்னால்	-2663
ுட	-2664
ேய	-2665
ோக	-2666
தர்	-2667
தலை	-2668
நாயக	-2669
னார்	-2670
ம்மை	-2671
▁அரை	-2672
▁நார	-2673
▁வறு	-2674
▁ஆக்ட	-2675
▁ஆர்க	-2676
▁கொலை	-2677
▁பயிர	-2678
ரையும்	-2679
▁குரல்	-2680
▁தலைமை	-2681
ிடத்தில்	-2682
▁கூட்டம்	-2683
▁நிறுத்த	-2684
▁நம்முடைய	-2685
▁வார்த்தை	-2686
▁நண்பர்கள்	-2687
வகை	-2688
▁கய	-2689
க்கர	-2690
னியா	-2691
வராய	-2692
்கூட	-2693
▁சால	-2694
▁தார	-2695
▁பசு	-2696
ப்போல	-2697
▁படகு	-2698
▁எங்கள	-2699
▁கம்பெ	-2700
▁சகோதர	-2701
▁வண்டி	-2702
▁உண்டாக	-2703
▁நிறைவே	-2704
▁பக்கம்	-2705
▁பாட்டு	-2706
வர்களின்	-2707
▁அனுப்பி	-2708
▁அனைத்து	-2709
▁உணர்ந்த	-2710
▁நினைக்கிற	-2711
நி	-2712
தியை	-2713
வைத்	-2714
▁அபி	-2715
புரம்	-2716
வந்து	-2717
▁உறவு	-2718
▁பருவ	-2719
▁போடு	-2720
▁கடற்க	-2721
ொழுதும்	-2722
▁ஒழுக்க	-2723
▁வெறும்	-2724
▁வகையில்	-2725
▁சென்றான்	-2726
▁பெற்றார்	-2727
▁கொள்ளலாம்	-2728
▁சிதம்பரம்	-2729
▁நம்பிக்கை	-2730
▁வந்தார்கள்	-2731
படு	-2732
▁கழ	-2733
ச்சே	-2734
ம்மா	-2735
ாகத்	-2736
▁அணை	-2737
▁தடை	-2738
▁தழு	-2739
▁பிள	-2740
▁கூடி	-2741
▁தஞ்ச	-2742
▁ஆனந்த	-2743
▁கோபம்	-2744
ல்களில்	-2745
▁சந்தேக	-2746
▁மந்திர	-2747
▁மேற்கொ	-2748
▁இந்நாடக	-2749
▁செல்வம்	-2750
▁வீரர்கள்	-2751
ணிக	-2752
லான	-2753
வழி	-2754
▁ஓர	-2755
வல்ல	-2756
▁இப்	-2757
▁களி	-2758
▁படக	-2759
ற்றம்	-2760
வதால்	-2761
ிட்டு	-2762
▁பொன்	-2763
ிகளைப்	-2764
▁அற்பு	-2765
▁உமார்	-2766
▁ரயில்	-2767
ிரியார்	-2768
▁இதுதான்	-2769
▁பல்வேறு	-2770
▁விலங்கு	-2771
▁வேண்டியது	-2772
▁பார்த்தால்	-2773
▁மற்றவர்கள்	-2774
சொ	-2775
பை	-2776
்து	-2777
▁ஆப	-2778
ாண்டு	-2779
▁அடிய	-2780
▁கிரே	-2781
▁சாதி	-2782
▁சுவை	-2783
▁பேசி	-2784
▁வருஷ	-2785
▁விலை	-2786
விற்கு	-2787
ிகளைக்	-2788
▁அடிமை	-2789
▁தேசிய	-2790
▁மேற்ப	-2791
வேண்டிய	-2792
▁எதிர்ப	-2793
▁சர்க்க	-2794
▁புத்தி	-2795
▁மாதிரி	-2796
▁என்னைப்	-2797
▁சபையில்	-2798
▁தெளிவாக	-2799
▁பரமகுரு	-2800
▁வந்தான்	-2801
▁என்னுடைய	-2802
▁மனத்தில்	-2803
▁ஆராய்ச்சி	-2804
▁பகுத்தறிவு	-2805
▁பக்கத்தில்	-2806
▁வாழ்க்கையை	-2807
▁ஃ	-2808
ாப்	-2809
ளில்	-2810
ென்ப	-2811
▁அரிய	-2812
▁சந்ந	-2813
▁திரி	-2814
▁பல்ல	-2815
▁பாதை	-2816
▁யானை	-2817
தியின்	-2818
▁உத்தர	-2819
▁சிற்ற	-2820
▁தென்ன	-2821
▁பின்ப	-2822
▁போகிற	-2823
▁இறந்து	-2824
▁ஒன்பது	-2825
▁கொள்ளு	-2826
▁சந்தோஷ	-2827
▁படுக்க	-2828
▁போனால்	-2829
▁அமர்ந்த	-2830
▁டாக்டர்	-2831
▁நாட்கள்	-2832
▁வாழ்த்த	-2833
▁எல்லாரும்	-2834
▁மாட்டார்கள்	-2835
▁குறிப்பிடத்தக்க	-2836
ரன்	-2837
▁தை	-2838
▁ரொ	-2839
தானே	-2840
நூறு	-2841
மல்ல	-2842
▁ஐரோ	-2843
▁தரி	-2844
▁நீள	-2845
▁பூம	-2846
▁அறுப	-2847
▁இறைவ	-2848
▁ஏராள	-2849
▁ஒட்ட	-2850
▁விடை	-2851
ட்டிப்	-2852
ன்றால்	-2853
ரியில்	-2854
▁அவனது	-2855
▁இதைக்	-2856
▁இவற்ற	-2857
▁கருதி	-2858
▁கல்லூ	-2859
▁பச்சை	-2860
ுள்ளார்	-2861
▁வளர்ச்ச	-2862
▁பல்கலைக்க	-2863
ிருக்கிறாள்	-2864
ானா	-2865
▁சக	-2866
▁டே	-2867
▁மட	-2868
லையா	-2869
ஸில்	-2870
▁மாக	-2871
▁பன்ன	-2872
▁வஞ்ச	-2873
கொண்டு	-2874
▁தென்ப	-2875
▁தொண்ட	-2876
▁நாற்ப	-2877
▁நீங்க	-2878
▁மின்ன	-2879
▁முப்ப	-2880
▁அளவில்	-2881
▁பிராமண	-2882
ருக்குத்	-2883
▁அரசாங்க	-2884
▁கிருஷ்ண	-2885
▁சித்திர	-2886
▁நிற்கிற	-2887
▁விருந்த	-2888
▁நிற்கும்	-2889
▁ஏற்பட்டது	-2890
க்கப்பட்டது	-2891
▁உட்கார்ந்து	-2892
▁கொண்டுள்ளது	-2893
கே	-2894
விக்	-2895
ினம்	-2896
▁கோல	-2897
▁வாத	-2898
ளிக்க	-2899
▁ஆச்ச	-2900
▁நட்ச	-2901
▁பொய்	-2902
▁வலிய	-2903
சித்து	-2904
▁அரங்க	-2905
▁வள்ளி	-2906
▁வீரம்	-2907
க்கியது	-2908
தாகவும்	-2909
த்தைந்து	-2910
▁இன்றும்	-2911
▁கிடைத்த	-2912
▁கேட்கிற	-2913
▁திருப்த	-2914
▁சென்றார்	-2915
▁சொன்னால்	-2916
▁மருத்துவ	-2917
▁எதிர்த்து	-2918
▁சமயத்தில்	-2919
ch	-2920
மய	-2921
▁ற	-2922
தேச	-2923
ுறு	-2924
▁மழ	-2925
லாமா	-2926
வேலு	-2927
▁உணர	-2928
▁கரை	-2929
▁வரி	-2930
ப்பாள	-2931
றியது	-2932
▁உற்ப	-2933
▁எச்ச	-2934
▁எனக்	-2935
▁மகள்	-2936
வையும்	-2937
▁ஒருவர	-2938
▁மாளிக	-2939
▁நடிக்க	-2940
▁எழுந்து	-2941
▁திருப்ப	-2942
▁பற்றிக்	-2943
▁செய்கிறது	-2944
▁பெரும்பாலான	-2945
ிகு	-2946
▁அய	-2947
▁ஜோ	-2948
▁டை	-2949
▁நர	-2950
மாகி	-2951
ேகம்	-2952
▁ஒர்	-2953
▁நீல	-2954
▁மாட	-2955
ங்களே	-2956
ன்கள்	-2957
▁கொடி	-2958
னையில்	-2959
▁சித்த	-2960
▁தியாக	-2961
▁நான்க	-2962
▁போற்ற	-2963
த்துவம்	-2964
ர்களைப்	-2965
▁இந்திர	-2966
▁அழைத்து	-2967
▁ஆனாலும்	-2968
ப்பார்கள்	-2969
ிக்கிறார்	-2970
▁கேட்டான்	-2971
▁சொல்லும்	-2972
▁தேர்ந்தெ	-2973
▁மகிழ்ச்சி	-2974
ஷன்	-2975
ாயண	-2976
வாழ்	-2977
▁ஆண்	-2978
▁சூழ	-2979
▁நல்	-2980
▁பிண	-2981
ாட்டை	-2982
▁அருள	-2983
▁ஆடிய	-2984
▁ஆட்ச	-2985
▁மைல்	-2986
▁ஸ்ரீ	-2987
மையின்	-2988
▁எண்ணு	-2989
▁எனும்	-2990
▁தொட்ட	-2991
ிருந்தன	-2992
▁உருவாக	-2993
▁தனக்கு	-2994
▁மேற்கு	-2995
▁விஷயம்	-2996
▁சிதம்பர	-2997
▁சிந்தனை	-2998
▁பாண்டிய	-2999
▁ஆகியவற்ற	-3000
▁கொண்டனர்	-3001
▁நடக்கும்	-3002
▁விழுந்து	-3003
▁அடிப்படைய	-3004
▁அனைத்தும்	-3005
▁திருக்குறள்	-3006
▁பயன்படுத்து	-3007
ரண	-3008
கால	-3009
சரி	-3010
ாறு	-3011
ீஸ்	-3012
ூறு	-3013
▁ஆழ	-3014
பவர்	-3015
▁ஆன்	-3016
▁சீத	-3017
▁மகா	-3018
ந்தன்	-3019
விகள்	-3020
▁ஆர்வ	-3021
▁உதவு	-3022
▁காவல	-3023
▁வகைய	-3024
க்கண்ண	-3025
தியும்	-3026
ற்போது	-3027
▁நம்பு	-3028
ர்ந்தது	-3029
ிருப்பத	-3030
▁அர்த்த	-3031
▁இன்றைய	-3032
▁எண்ணம்	-3033
▁கூட்டு	-3034
▁தூக்கி	-3035
▁அதுதான்	-3036
▁அவளுடைய	-3037
▁தற்போது	-3038
▁வந்தனர்	-3039
▁சுதந்திர	-3040
▁விரைவில்	-3041
▁உண்மையில்	-3042
▁எண்ணூற்று	-3043
▁பொருள்களை	-3044
▁திடீரென்று	-3045
ரச	-3046
வீன	-3047
ிடு	-3048
▁ஹெ	-3049
ற்கே	-3050
லால்	-3051
வனாக	-3052
▁சுக	-3053
▁மண்	-3054
▁வசூ	-3055
த்தையே	-3056
ர்களாக	-3057
ள்ளார்	-3058
▁இறுதி	-3059
▁எத்தன	-3060
▁தயாரி	-3061
▁புராண	-3062
▁பேசிய	-3063
ராகவும்	-3064
வரையும்	-3065
ையிலும்	-3066
▁உண்மைய	-3067
▁காற்று	-3068
▁சிந்தி	-3069
▁வழங்கு	-3070
க்கத்தில்	-3071
வருக்கும்	-3072
▁மக்களின்	-3073
▁உண்டாகும்	-3074
▁நாடகங்கள்	-3075
▁கொண்டிருக்கும்	-3076
லாத	-3077
▁லே	-3078
ந்தோ	-3079
ன்றோ	-3080
பெரு	-3081
▁அடு	-3082
ச்சல்	-3083
்டிக்	-3084
▁அவசர	-3085
▁கண்க	-3086
▁கருண	-3087
▁பாதி	-3088
▁பிரா	-3089
ந்தும்	-3090
ுக்கான	-3091
▁சந்நி	-3092
▁தொள்ள	-3093
▁புண்ண	-3094
ங்களைச்	-3095
ையாகும்	-3096
▁அனுபவி	-3097
▁உரிமைய	-3098
▁சென்னை	-3099
▁தலைவர்	-3100
▁விடும்	-3101
▁எதையும்	-3102
▁தமிழில்	-3103
▁வெளியிட	-3104
▁பின்னால்	-3105
ிடமிருந்து	-3106
▁எடுத்துச்	-3107
▁சந்தர்ப்ப	-3108
▁தொள்ளாயிர	-3109
▁பொருள்கள்	-3110
le	-3111
னது	-3112
லன்	-3113
ாலி	-3114
▁ஹோ	-3115
ாமற்	-3116
▁இடு	-3117
▁உள்	-3118
▁கணி	-3119
▁கதா	-3120
தியான	-3121
ப்படைய	-3122
▁பதிவு	-3123
▁பொருட	-3124
▁மிகப்	-3125
▁தனித்த	-3126
▁தெற்கு	-3127
▁வாயில்	-3128
▁ஏனெனில்	-3129
▁கிறிஸ்த	-3130
▁போகிறது	-3131
▁வந்தால்	-3132
▁விளங்கு	-3133
ிக்கொண்டே	-3134
▁அடங்கும்	-3135
▁எத்தனையோ	-3136
▁பெரிதும்	-3137
▁இடங்களில்	-3138
▁என்பதற்கு	-3139
▁தோன்றுகிறது	-3140
நோ	-3141
யூ	-3142
ீக	-3143
சார	-3144
முற	-3145
▁உழ	-3146
குதி	-3147
ாமலே	-3148
▁இழி	-3149
▁காம	-3150
▁காவ	-3151
▁வின	-3152
மாகவே	-3153
▁இவள்	-3154
▁காய்	-3155
▁புதி	-3156
▁மணம்	-3157
▁விழா	-3158
▁விவர	-3159
நூற்று	-3160
▁அலங்க	-3161
▁பரிசு	-3162
▁வேடம்	-3163
ின்றார்	-3164
▁முன்பே	-3165
த்தினால்	-3166
▁என்பவர்	-3167
▁சபையின்	-3168
▁மார்க்க	-3169
▁உணர்ந்து	-3170
▁வாழ்ந்து	-3171
ிருக்கலாம்	-3172
▁கிடைத்தது	-3173
▁தெரிகிறது	-3174
▁அடிப்படையில்	-3175
▁லி	-3176
ளின்	-3177
வோர்	-3178
▁பழு	-3179
▁யாவ	-3180
▁எங்க	-3181
▁எளிய	-3182
▁சீதா	-3183
▁பேரா	-3184
ப்புத்	-3185
ப்புப்	-3186
▁கோட்ப	-3187
▁தேவைய	-3188
▁நன்றி	-3189
▁மண்டப	-3190
ங்களைத்	-3191
ின்றும்	-3192
▁அற்புத	-3193
▁சுமார்	-3194
▁திறந்த	-3195
▁பிரிவு	-3196
▁வடக்கு	-3197
▁எனினும்	-3198
▁காரியம்	-3199
▁குற்றம்	-3200
▁மறைந்து	-3201
▁விளம்பர	-3202
▁கடைசியில்	-3203
▁புறப்பட்ட	-3204
கம	-3205
சோ	-3206
ணுவ	-3207
மொழ	-3208
▁ஹா	-3209
ண்டா	-3210
ளைக்	-3211
▁வாக	-3212
பட்டு	-3213
ரியாத	-3214
ிக்கை	-3215
▁முனை	-3216
வியின்	-3217
ுள்ளது	-3218
▁கோட்ட	-3219
▁என்பர்	-3220
▁பின்பு	-3221
▁பிரச்ச	-3222
▁மன்னன்	-3223
தெல்லாம்	-3224
்களையும்	-3225
▁தண்ணீர்	-3226
▁மறுநாள்	-3227
▁வளர்த்த	-3228
▁கொடுங்கோ	-3229
▁வள்ளுவர்	-3230
▁வேறுபாடு	-3231
▁நட்சத்திர	-3232
க்கிறார்கள்	-3233
▁பல்கலைக்கழக	-3234
டோ	-3235
ரெ	-3236
சிக	-3237
▁எழ	-3238
மிழ்	-3239
▁ஆனை	-3240
▁பனி	-3241
▁பாவ	-3242
▁வளர	-3243
த்தான	-3244
ருக்க	-3245
வனும்	-3246
ார்கள	-3247
ூரில்	-3248
▁அனும	-3249
▁இதனை	-3250
▁வீழ்	-3251
க்குழு	-3252
டிக்கை	-3253
ப்போல்	-3254
▁ஆய்வு	-3255
▁சிற்ப	-3256
▁தன்மை	-3257
▁பட்டு	-3258
▁மொழிய	-3259
கத்தில்	-3260
▁அளிக்க	-3261
▁இழந்து	-3262
▁கட்டிட	-3263
▁தொடர்ப	-3264
▁பெற்றோ	-3265
▁பேசிக்	-3266
▁ஆச்சரிய	-3267
▁உண்மையை	-3268
▁எழுத்து	-3269
▁காட்டிய	-3270
▁அப்படிச்	-3271
▁பள்ளத்தா	-3272
▁விட்டால்	-3273
▁முடிகிறது	-3274
▁அவனுக்குத்	-3275
நக	-3276
சில	-3277
ரது	-3278
வனே	-3279
ட்பு	-3280
ரைத்	-3281
ல்லை	-3282
ையர்	-3283
▁நிழ	-3284
▁பழி	-3285
▁மனோ	-3286
ப்படை	-3287
ாய்ப்	-3288
▁அஃது	-3289
▁அதிர்	-3290
▁கடம்ப	-3291
▁தந்து	-3292
▁தப்பி	-3293
▁ஆண்கள்	-3294
▁குடியே	-3295
▁சந்திர	-3296
▁தங்கிய	-3297
▁பேசும்	-3298
▁ஒருநாள்	-3299
▁அங்குள்ள	-3300
▁செய்தனர்	-3301
ிருக்கிறோம்	-3302
▁உள்ளத்தில்	-3303
ழைய	-3304
ட்கு	-3305
வால்	-3306
ிற்ற	-3307
▁அசை	-3308
▁கழக	-3309
▁சும	-3310
▁விப	-3311
▁வீண	-3312
நாதர்	-3313
விடம்	-3314
▁அம்ப	-3315
▁இராம	-3316
▁மங்க	-3317
வேண்டு	-3318
▁புனித	-3319
ர்களால்	-3320
▁சாப்பிட	-3321
▁நினைக்க	-3322
ப்பதில்லை	-3323
▁என்னிடம்	-3324
▁திருவள்ள	-3325
▁தெரியுமா	-3326
▁நாடகத்தை	-3327
▁இறுதியில்	-3328
▁மூன்றாவது	-3329
▁இருக்கிறான்	-3330
▁தொள்ளாயிரத்து	-3331
களே	-3332
னிட	-3333
மலை	-3334
வடை	-3335
▁கதி	-3336
ஞ்சிய	-3337
ாயின்	-3338
▁கள்ள	-3339
▁சண்ட	-3340
▁சும்	-3341
▁தோழி	-3342
▁நேர்	-3343
ங்கிப்	-3344
லையும்	-3345
வராயன்	-3346
▁இயக்கு	-3347
▁ஐம்பது	-3348
▁கற்பனை	-3349
▁கொல்லி	-3350
▁சடங்கு	-3351
▁போலும்	-3352
▁செலுத்த	-3353
▁சொல்லிக்	-3354
▁சுவாமிகள்	-3355
விட்டார்கள்	-3356
▁நாடகத்தில்	-3357
▁பெருமானார்	-3358
ிருக்கின்றனர்	-3359
▁வன	-3360
சமான	-3361
மற்ற	-3362
ளும்	-3363
▁அப்	-3364
▁சுழ	-3365
▁ராக	-3366
▁சாய்	-3367
▁தட்ட	-3368
▁புதை	-3369
▁மந்த	-3370
▁வரிச	-3371
போதும்	-3372
▁அவ்வா	-3373
▁இழந்த	-3374
▁ஊரில்	-3375
▁தங்கள	-3376
▁கோவலன்	-3377
▁வருத்த	-3378
டுகின்றன	-3379
▁சொல்லிய	-3380
▁ரங்கவடி	-3381
▁காட்டும்	-3382
▁சொன்னான்	-3383
▁விட்டுப்	-3384
▁என்கிறார்	-3385
▁முடியாமல்	-3386
ையிலிருந்து	-3387
▁விட்டார்கள்	-3388
ou	-3389
re	-3390
▁ஸ	-3391
ரல்	-3392
ித்	-3393
▁உம	-3394
▁ஜூ	-3395
ட்ஸ்	-3396
மன்ற	-3397
▁ஆடி	-3398
▁தடு	-3399
▁பறி	-3400
▁பாச	-3401
ட்டது	-3402
ிரும்	-3403
▁அமுத	-3404
▁இங்க	-3405
▁பொழு	-3406
▁யான்	-3407
▁அண்ணா	-3408
▁உள்ளட	-3409
▁ஏற்பட	-3410
▁விமர்	-3411
ப்பதில்	-3412
▁யாவும்	-3413
▁வில்லை	-3414
▁அதுவும்	-3415
▁அவனிடம்	-3416
▁எவ்வாறு	-3417
▁மாதிரிய	-3418
▁குறிப்பு	-3419
▁தவிர்க்க	-3420
▁போட்டுக்	-3421
▁அவர்களிடம்	-3422
▁சேர்வராயன்	-3423
▁இருக்கிறார்	-3424
▁எப்பொழுதும்	-3425
ரூ	-3426
▁ட்	-3427
ாந்த	-3428
்ட்ட	-3429
▁கர்	-3430
▁மால	-3431
சிக்க	-3432
ஸ்டர்	-3433
▁புகை	-3434
▁போலி	-3435
▁யாது	-3436
ன்றும்	-3437
விதமான	-3438
▁காங்க	-3439
▁கிட்ட	-3440
▁கும்ப	-3441
▁மிகச்	-3442
▁எதிர்க	-3443
▁கப்பல்	-3444
▁சரியான	-3445
▁தோன்றி	-3446
▁நீலகிரி	-3447
விடுகிறது	-3448
▁அடிப்படை	-3449
▁அளவுக்கு	-3450
▁இங்குள்ள	-3451
▁செய்தான்	-3452
▁பாராட்டு	-3453
▁அழைத்துச்	-3454
▁ஆர்க்டிக்	-3455
▁பற்றியும்	-3456
▁கொண்டிருந்தார்	-3457
at	-3458
ீப	-3459
ுத	-3460
ங்ங	-3461
னான	-3462
ாரே	-3463
ாலை	-3464
ரைச்	-3465
▁உதவ	-3466
▁சமா	-3467
▁நாண	-3468
ங்கால	-3469
▁அறம்	-3470
▁உணர்	-3471
▁கடித	-3472
▁கட்ச	-3473
▁கெடு	-3474
▁வருட	-3475
ப்பாய்	-3476
ற்றிக்	-3477
▁அதைத்	-3478
▁அழகான	-3479
▁இதைப்	-3480
▁கொட்ட	-3481
▁மாதம்	-3482
க்குரிய	-3483
▁உடம்பு	-3484
▁குழப்ப	-3485
▁நாளில்	-3486
▁போய்ச்	-3487
வில்லையே	-3488
ிக்கொள்ள	-3489
▁கூறுவது	-3490
▁சிவப்பு	-3491
▁அவற்றின்	-3492
▁ஆண்டுகள்	-3493
▁குறிக்கோ	-3494
▁யெல்லாம்	-3495
▁மனிதர்கள்	-3496
▁புறப்பட்டு	-3497
ிருந்தார்கள்	-3498
ri	-3499
ாரா	-3500
▁கம	-3501
ண்டோ	-3502
ன்ஸ்	-3503
மணிய	-3504
ாக்க	-3505
்டன்	-3506
▁அயோ	-3507
▁இதே	-3508
▁சது	-3509
▁திக	-3510
▁தோட	-3511
▁புத	-3512
▁வேட	-3513
▁அசுர	-3514
▁இச்ச	-3515
▁உற்ச	-3516
▁ஜான்	-3517
▁மஞ்ச	-3518
த்தானே	-3519
ப்படாத	-3520
வர்த்த	-3521
▁தாங்க	-3522
▁பயணம்	-3523
▁பற்று	-3524
▁விற்ப	-3525
க்காரன்	-3526
லத்தில்	-3527
▁கண்கள்	-3528
▁சுந்தர	-3529
▁நூற்றி	-3530
▁வளரும்	-3531
▁வழக்கு	-3532
▁எப்படிய	-3533
▁கிழக்கு	-3534
▁தெய்வம்	-3535
▁ஆசிரியர்	-3536
▁ஆராய்ச்ச	-3537
▁ஏற்பட்டு	-3538
▁பாதுகாப்பு	-3539
▁செய்யப்பட்டது	-3540
al	-3541
வச	-3542
மாத	-3543
ீல்	-3544
ேல்	-3545
ொழி	-3546
▁ஆற	-3547
புரி	-3548
யாம்	-3549
ாதார	-3550
▁ஸ்த	-3551
வனின்	-3552
ாட்சி	-3553
ாராம்	-3554
▁அற்ற	-3555
▁கலைஞ	-3556
▁சம்ம	-3557
▁சாலை	-3558
▁தவம்	-3559
▁நடிக	-3560
▁நூறு	-3561
▁மட்ட	-3562
ங்களாக	-3563
றிந்து	-3564
▁அதைச்	-3565
▁கற்று	-3566
▁மறக்க	-3567
▁ரொம்ப	-3568
▁விண்ண	-3569
▁வென்ற	-3570
ினாலும்	-3571
▁அவனைக்	-3572
▁அவரைப்	-3573
▁என்பதே	-3574
▁ஒன்றாக	-3575
▁தாக்கு	-3576
▁பட்டிய	-3577
▁மதிக்க	-3578
▁இயந்திர	-3579
▁காங்கிர	-3580
▁காண்கிற	-3581
▁கொள்வது	-3582
▁நடந்தது	-3583
▁பற்றிப்	-3584
ப்படுத்தி	-3585
▁எனக்குக்	-3586
▁சிறப்பாக	-3587
▁வாங்கிக்	-3588
▁பிறந்தார்	-3589
▁எடுத்துக்க	-3590
▁மக்களுக்கு	-3591
▁செய்யப்பட்ட	-3592
▁இருக்கிறார்கள்	-3593
நெ	-3594
வண	-3595
▁'	-3596
னன்	-3597
ிகர	-3598
▁ரீ	-3599
ம்ஸ்	-3600
யமாக	-3601
▁இஸ்	-3602
▁சூர	-3603
முகம்	-3604
▁அதிச	-3605
▁மான்	-3606
க்கால்	-3607
டினார்	-3608
▁தாக்க	-3609
▁முகம்	-3610
▁அறியாத	-3611
▁அவனைப்	-3612
▁ஒழுங்க	-3613
▁சரியாக	-3614
▁திவான்	-3615
▁பெயரிட	-3616
▁அடைந்து	-3617
▁கற்றுக்	-3618
▁பார்ப்ப	-3619
▁பார்வைய	-3620
▁கேட்டாள்	-3621
▁வாய்ப்பு	-3622
▁இருந்தான்	-3623
▁விடுகிறது	-3624
▁கோயிலுக்கு	-3625
▁வீட்டுக்கு	-3626
▁கொண்டிருப்ப	-3627
▁ரங்கவடிவேலு	-3628
கூட	-3629
தார	-3630
னையை	-3631
▁ஆய்	-3632
▁பசி	-3633
▁மார	-3634
▁வர்	-3635
டிகள்	-3636
ாட்டி	-3637
ிடையே	-3638
▁ஆராய	-3639
▁திசை	-3640
▁துயர	-3641
▁படம்	-3642
▁மரபு	-3643
ந்தாள்	-3644
ளுக்கு	-3645
விட்டன	-3646
வென்று	-3647
▁அடக்க	-3648
▁இதுவே	-3649
▁திருந	-3650
▁மன்னி	-3651
▁ரூபாய	-3652
ப்புடன்	-3653
▁அனுமதி	-3654
▁மக்களை	-3655
▁வளர்க்க	-3656
ிருந்தாள்	-3657
▁எனக்குப்	-3658
▁கேட்டுக்	-3659
▁பிரிந்து	-3660
▁வரலாற்று	-3661
▁விளையாடு	-3662
த்திற்குத்	-3663
▁இசைக்குழு	-3664
▁குறிப்பாக	-3665
▁மற்றவர்கள	-3666
▁வாழ்கின்றனர்	-3667
பக	-3668
வக	-3669
டனே	-3670
ெடு	-3671
ட்டா	-3672
லகம்	-3673
▁ஏறு	-3674
▁ஐயா	-3675
மானம்	-3676
ையோடு	-3677
▁அறிஞ	-3678
▁சிகி	-3679
▁தர்ம	-3680
▁துடி	-3681
▁தேன்	-3682
▁நீரா	-3683
படுத்த	-3684
▁காற்ற	-3685
▁செலவு	-3686
▁தங்கி	-3687
▁முந்த	-3688
ங்களால்	-3689
வர்களாக	-3690
ென்றும்	-3691
▁ஒருவரை	-3692
▁கூப்பி	-3693
▁செயற்ப	-3694
▁செல்லு	-3695
▁பார்வை	-3696
▁மரியாத	-3697
▁வருந்த	-3698
▁வரும்ப	-3699
▁இடையில்	-3700
▁கவனிக்க	-3701
▁காட்சிய	-3702
▁பழக்கம்	-3703
ிருந்தேன்	-3704
▁செய்தால்	-3705
▁கூறுகிறார்	-3706
▁சமயங்களில்	-3707
▁எல்லாவற்றையும்	-3708
am	-3709
ஃபி	-3710
கல்	-3711
ணர்	-3712
ாயா	-3713
லைத்	-3714
▁ஆதர	-3715
▁தாவ	-3716
▁பேய	-3717
த்திக	-3718
னுடன்	-3719
▁அழுத	-3720
▁ஆங்க	-3721
▁ஆதார	-3722
▁தணிக	-3723
▁தெலு	-3724
▁மரம்	-3725
▁முஸ்	-3726
▁மெது	-3727
▁மேடை	-3728
▁விஜய	-3729
ற்புறு	-3730
▁இவ்வு	-3731
▁கண்ணக	-3732
▁கவிதை	-3733
▁சண்டை	-3734
▁தமிழக	-3735
ர்களைக்	-3736
▁சும்மா	-3737
▁நிலைமை	-3738
த்தியில்	-3739
▁கட்டுரை	-3740
▁தெரியாத	-3741
▁நடத்திய	-3742
▁படித்து	-3743
களுக்கும்	-3744
த்திற்காக	-3745
▁அமைச்சர்	-3746
▁தீர்மானி	-3747
▁பணியாற்ற	-3748
▁மனிதனின்	-3749
▁எல்லோருக்கும்	-3750
es	-3751
கூ	-3752
லாம	-3753
விள	-3754
ோன்	-3755
▁ரு	-3756
▁லூ	-3757
தூர்	-3758
ந்தே	-3759
ானம்	-3760
▁சாக	-3761
▁தீர	-3762
▁விக	-3763
மிட்ட	-3764
வதைக்	-3765
்தானே	-3766
▁ஒளிய	-3767
▁சமாத	-3768
▁வினை	-3769
களுடன்	-3770
திலும்	-3771
ையுடன்	-3772
▁அனுபவ	-3773
▁ஆந்தை	-3774
▁ஆமாம்	-3775
▁கொடிய	-3776
▁நெல்ல	-3777
▁மானிட	-3778
▁ஸ்டேஷ	-3779
ப்புறம்	-3780
▁அவனைத்	-3781
▁குறும்	-3782
▁சிறப்ப	-3783
▁தலைவன்	-3784
▁நகரில்	-3785
னுக்குப்	-3786
விட்டாள்	-3787
▁அவசியம்	-3788
▁இனிமேல்	-3789
▁ஊருக்கு	-3790
▁நடைபெறு	-3791
▁மதிப்பு	-3792
▁வற்புறு	-3793
ப்பதற்காக	-3794
▁சாப்பிடு	-3795
▁போயிற்று	-3796
▁மேற்கொண்ட	-3797
▁எதிர்பார்த்த	-3798
th	-3799
ராய	-3800
ாரை	-3801
சுவர	-3802
▁ஆடை	-3803
▁ஆளு	-3804
▁இச்	-3805
▁கோத	-3806
▁நதி	-3807
▁பூச	-3808
த்தில	-3809
நாதன்	-3810
ந்தம்	-3811
படியே	-3812
▁இளம்	-3813
▁ஓட்ட	-3814
▁கேடு	-3815
▁கோழி	-3816
▁சிலை	-3817
▁தமது	-3818
▁பூமி	-3819
▁லீலா	-3820
▁வளர்	-3821
ப்புச்	-3822
▁ஒத்து	-3823
▁கருணை	-3824
▁தேர்த	-3825
▁பார்வ	-3826
▁வெல்ல	-3827
த்தினர்	-3828
ர்கிறது	-3829
▁அறிமுக	-3830
▁இத்தனை	-3831
▁கொள்ளை	-3832
▁தணிகாச	-3833
▁போற்றி	-3834
▁மாளிகை	-3835
▁முரண்ப	-3836
▁வடிவமை	-3837
▁வண்ணம்	-3838
▁வேண்டி	-3839
▁இரும்பு	-3840
▁உள்ளூர்	-3841
▁குறித்த	-3842
▁திருத்த	-3843
▁பொதுவான	-3844
▁மணிக்கு	-3845
▁மலையின்	-3846
ர்களையும்	-3847
▁அதற்குப்	-3848
▁இரண்டும்	-3849
▁ஆராய்ந்து	-3850
▁தெரிந்தது	-3851
▁வீட்டிற்கு	-3852
▁பார்க்கலாம்	-3853
▁ஆண்டுகளுக்கு	-3854
▁வேண்டுமானால்	-3855
செய	-3856
னல்	-3857
ிரா	-3858
▁ஜே	-3859
▁ரக	-3860
ின்க	-3861
▁ஆலோ	-3862
▁இடி	-3863
▁ஏது	-3864
▁கனக	-3865
▁சுர	-3866
▁பழக	-3867
சித்த	-3868
செய்த	-3869
டனும்	-3870
தாகத்	-3871
ாரும்	-3872
ென்றே	-3873
▁அமைய	-3874
▁ஊர்வ	-3875
ங்கில்	-3876
மக்கள்	-3877
வியில்	-3878
▁அச்சு	-3879
▁அவளது	-3880
▁எருமை	-3881
▁எல்லை	-3882
▁தீவிர	-3883
▁பரவிய	-3884
▁பாவம்	-3885
▁வஞ்சி	-3886
▁வயிறு	-3887
▁வேலைய	-3888
வதற்கான	-3889
▁அமைக்க	-3890
▁எந்தப்	-3891
▁கோட்டை	-3892
▁செங்கு	-3893
▁தடுக்க	-3894
▁புலவர்	-3895
▁மனிதர்	-3896
▁மரக்கல	-3897
▁அலங்கார	-3898
▁உள்ளனர்	-3899
▁குறுகிய	-3900
▁திறந்து	-3901
▁நினைத்த	-3902
ப்பட்டனர்	-3903
▁குறைந்து	-3904
▁சரித்திர	-3905
▁முழுதும்	-3906
▁விருந்து	-3907
த்திற்குச்	-3908
▁என்றுதான்	-3909
▁வருகிறான்	-3910
ுக்கெல்லாம்	-3911
▁தொடர்புடைய	-3912
▁முற்றிலும்	-3913
▁டோ	-3914
▁நொ	-3915
ச்சொ	-3916
வுன்	-3917
ிகிற	-3918
▁இதய	-3919
▁கனி	-3920
▁கலா	-3921
▁கான	-3922
▁கும	-3923
காரம்	-3924
வினர்	-3925
▁எட்ட	-3926
▁எண்ப	-3927
▁காசு	-3928
▁புகழ	-3929
டையும்	-3930
ம்போது	-3931
ீர்களா	-3932
▁இடையே	-3933
▁குன்ற	-3934
▁டிக்க	-3935
▁தூக்க	-3936
▁தூரம்	-3937
▁தைரிய	-3938
▁நிலம்	-3939
▁மாகாண	-3940
▁அத்தனை	-3941
▁ஆர்வம்	-3942
▁இல்லைய	-3943
▁என்னவோ	-3944
▁கடைசிய	-3945
▁சத்திய	-3946
▁வருகிற	-3947
▁வேணும்	-3948
ப்பொருள்	-3949
முடியும்	-3950
▁அணிந்து	-3951
▁எதிர்பா	-3952
▁ஏராளமான	-3953
▁மண்டபம்	-3954
▁மிகப்பெ	-3955
▁வாய்ந்த	-3956
▁ஐரோப்பிய	-3957
▁காலையில்	-3958
▁பள்ளிக்க	-3959
▁வந்ததும்	-3960
▁வள்ளியம்	-3961
▁வெளியில்	-3962
▁கண்டுபிடிக்க	-3963
▁விரும்புகிறேன்	-3964
வழ	-3965
ஸி	-3966
ீத	-3967
ங்கட	-3968
நீர்	-3969
மையே	-3970
ரியா	-3971
▁எம்	-3972
▁டிர	-3973
▁பொய	-3974
▁மித	-3975
ப்பதை	-3976
ியார்	-3977
▁அலுவ	-3978
▁ஆன்ம	-3979
▁கனவு	-3980
▁கோடி	-3981
▁தரிச	-3982
▁தரும	-3983
▁நேரி	-3984
▁பாறை	-3985
▁பெயர	-3986
▁பேரு	-3987
▁யாரோ	-3988
த்திரை	-3989
ப்பொரு	-3990
ற்றுமை	-3991
ாயிரம்	-3992
ொருவர்	-3993
▁இப்போ	-3994
▁தம்மை	-3995
▁தேவால	-3996
▁பதினை	-3997
▁வந்தன	-3998
▁வீரன்	-3999
க்குறைய	-4000
வர்க்கு	-4001
▁கவிஞர்	-4002
▁கொன்று	-4003
▁நிலையை	-4004
▁முன்னோ	-4005
மெல்லாம்	-4006
வர்களைப்	-4007
▁எப்போது	-4008
▁ஏற்றுக்	-4009
▁கூறலாம்	-4010
▁சுற்றிய	-4011
▁நூல்கள்	-4012
▁பிரிக்க	-4013
▁மருந்து	-4014
▁விடுதலை	-4015
▁விளைவாக	-4016
▁இரண்டாம்	-4017
▁ஒழுக்கம்	-4018
▁கடுமையான	-4019
▁பிடித்து	-4020
▁முடிந்து	-4021
▁வாழ்த்து	-4022
▁கொண்டார்கள்	-4023
▁செய்தார்கள்	-4024
சாய	-4025
திக	-4026
ொலி	-4027
▁ஹை	-4028
தல்ல	-4029
ந்தா	-4030
ம்பே	-4031
▁இதோ	-4032
▁உமா	-4033
▁பீட	-4034
▁வேள	-4035
க்கத்	-4036
மாகிய	-4037
ிகளாக	-4038
▁இடது	-4039
▁எழுப	-4040
▁கடின	-4041
▁சமீப	-4042
▁செடி	-4043
▁தூய்	-4044
ட்டுத்	-4045
ையாகக்	-4046
▁எலும்	-4047
▁கண்டி	-4048
▁பையன்	-4049
▁மேம்ப	-4050
வரையில்	-4051
▁அவரும்	-4052
▁இங்கில	-4053
▁உயர்வு	-4054
▁காதில்	-4055
▁தந்தது	-4056
▁வென்று	-4057
நாட்டில்	-4058
நிலையில்	-4059
▁எல்லாப்	-4060
▁ஒப்புக்	-4061
▁தாங்கள்	-4062
▁தொடங்கி	-4063
▁நிலையம்	-4064
▁கொண்டாள்	-4065
▁சந்தேகம்	-4066
▁பாடல்கள்	-4067
▁வாழ்வில்	-4068
விட்டாலும்	-4069
▁பத்திரிகை	-4070
▁மாணவர்கள்	-4071
▁வெளியிட்ட	-4072
▁தொடங்கியது	-4073
▁நேரங்களில்	-4074
ிக்கப்பட்டது	-4075
▁சொல்வார்கள்	-4076
▁கொண்டிருக்கிறது	-4077
ொழ	-4078
க்ட	-4079
ிறை	-4080
▁நப	-4081
▁லோ	-4082
லைச்	-4083
வெளி	-4084
▁உடன	-4085
▁நடவ	-4086
▁மனு	-4087
▁லக்	-4088
லாந்த	-4089
▁அநேக	-4090
▁இளைய	-4091
▁எனப்	-4092
▁கிளை	-4093
▁குவி	-4094
▁நிதி	-4095
▁மதம்	-4096
▁மன்ற	-4097
......	-4098
யிலில்	-4099
ெடுத்த	-4100
▁அஞ்சு	-4101
▁ஆகியோ	-4102
▁உடன்ப	-4103
▁குதிர	-4104
▁குறைய	-4105
▁சொற்ப	-4106
▁பங்கள	-4107
▁பாம்ப	-4108
▁முற்ப	-4109
வருக்கு	-4110
▁இவற்றை	-4111
▁கிடந்த	-4112
▁நாராயண	-4113
▁முயற்ச	-4114
▁வணங்கி	-4115
▁வருவது	-4116
▁வருஷம்	-4117
▁ஆங்கிலே	-4118
▁கருப்பு	-4119
▁குரங்கு	-4120
▁சீக்கிர	-4121
▁நடைமுறை	-4122
▁மலையில்	-4123
▁என்பதைக்	-4124
▁திரும்பு	-4125
▁விளக்கம்	-4126
த்திற்குள்	-4127
த்துக்குப்	-4128
▁அன்றியும்	-4129
▁இருக்காது	-4130
▁ஒன்றாகும்	-4131
▁தெரியாமல்	-4132
▁நிகழ்ச்சி	-4133
▁ஆந்தைக்கண்ண	-4134
ுற	-4135
ளைய	-4136
ானோ	-4137
ிலி	-4138
ொடு	-4139
வதன்	-4140
▁பாய	-4141
படும்	-4142
▁இனம்	-4143
▁குதி	-4144
▁டால்	-4145
▁நட்ப	-4146
▁மலர்	-4147
ரியின்	-4148
்களைப்	-4149
▁அநுபவ	-4150
▁ஓய்வு	-4151
▁காவல்	-4152
▁சோதனை	-4153
▁மாதவி	-4154
▁இதுவரை	-4155
▁இருபது	-4156
▁தண்டனை	-4157
▁தாயார்	-4158
▁விசாரி	-4159
▁விஜயன்	-4160
குதியில்	-4161
க்கிறேன்	-4162
▁இல்லையே	-4163
▁எண்ணெய்	-4164
▁என்னால்	-4165
▁சிவபெரு	-4166
▁திட்டம்	-4167
▁பற்றிச்	-4168
▁மாறியது	-4169
▁வழிபாடு	-4170
▁வெளிச்ச	-4171
▁கல்யாணம்	-4172
▁சூழ்நிலை	-4173
▁நிறுத்தி	-4174
▁பெருமான்	-4175
▁வரவில்லை	-4176
▁நடைபெறும்	-4177
▁பொருளாதார	-4178
▁என்பதையும்	-4179
▁கொடுக்கும்	-4180
▁கொடுத்தார்	-4181
▁மிகப்பெரிய	-4182
▁கிடைக்கிறது	-4183
▁இருந்தார்கள்	-4184
▁விளங்குகிறது	-4185
is	-4186
ing	-4187
பெய	-4188
வரே	-4189
▁லெ	-4190
ண்ணா	-4191
படிய	-4192
பவன்	-4193
போர்	-4194
ாட்ச	-4195
ையாட	-4196
ந்தர்	-4197
ுக்கே	-4198
▁உண்ப	-4199
▁ஐந்த	-4200
▁ஒற்ற	-4201
▁கவிஞ	-4202
▁நலம்	-4203
▁பாபு	-4204
▁புழு	-4205
▁வழிக	-4206
▁வெவ்	-4207
தற்காக	-4208
ப்பெரு	-4209
▁குணம்	-4210
▁சக்கர	-4211
▁சான்ற	-4212
▁ஜெர்ம	-4213
▁தினம்	-4214
▁பரிமா	-4215
▁போக்க	-4216
▁மார்ப	-4217
▁யோசனை	-4218
க்கின்ற	-4219
மில்லாத	-4220
ாவிற்கு	-4221
ெடுத்து	-4222
▁அவ்விட	-4223
▁இறங்கி	-4224
▁என்றது	-4225
▁கடிதம்	-4226
▁நடத்தி	-4227
▁பதிலாக	-4228
▁மகளிர்	-4229
▁மாற்றி	-4230
மூர்த்தி	-4231
விட்டனர்	-4232
▁ஆண்டவன்	-4233
▁உடையவன்	-4234
▁கண்டேன்	-4235
▁தலையில்	-4236
▁போகலாம்	-4237
▁வந்தாள்	-4238
▁விழுந்த	-4239
▁உற்பத்தி	-4240
▁கூறினாள்	-4241
▁பொறுப்பு	-4242
▁முயற்சிய	-4243
▁காப்பாற்ற	-4244
▁வருகின்றன	-4245
ங்களுக்குப்	-4246
ப்படுகிறார்	-4247
ர்களுக்கும்	-4248
▁அமைந்துள்ள	-4249
▁பார்த்தான்	-4250
▁கொண்டிருக்க	-4251
el	-4252
மல	-4253
கதை	-4254
நகர	-4255
வரி	-4256
ாயே	-4257
ியூ	-4258
▁ஜீ	-4259
சில்	-4260
ன்னு	-4261
▁உறை	-4262
▁ஏதே	-4263
▁ஓடு	-4264
▁தாள	-4265
▁துர	-4266
▁மடி	-4267
▁யாத	-4268
லிக்க	-4269
▁அயர்	-4270
▁இளவர	-4271
▁தொழு	-4272
▁நெறி	-4273
▁பழம்	-4274
▁மகிழ	-4275
▁வேளா	-4276
ட்டின்	-4277
வர்களே	-4278
▁அமைதி	-4279
▁எங்கு	-4280
▁கட்சி	-4281
▁குத்த	-4282
▁சீர்த	-4283
▁தூண்ட	-4284
▁நிறுவ	-4285
சிரியர்	-4286
வதையும்	-4287
▁இலக்கண	-4288
▁இவ்வரு	-4289
▁தொடக்க	-4290
▁நூல்கள	-4291
▁விளைவு	-4292
ருக்குக்	-4293
ர்களிடம்	-4294
ிகளிலும்	-4295
▁ஆயிற்று	-4296
▁நெருக்க	-4297
▁போன்றது	-4298
▁மறுத்து	-4299
▁முதலியன	-4300
▁என்பதும்	-4301
▁கோட்பாடு	-4302
▁சென்றனர்	-4303
▁செலுத்து	-4304
▁சொன்னேன்	-4305
▁விளையும்	-4306
க்காரர்கள்	-4307
▁நூற்றாண்ட	-4308
▁முதலியார்	-4309
▁முன்னேற்ற	-4310
▁அருகிலுள்ள	-4311
▁தொடங்கினார்	-4312
▁வழங்குகிறது	-4313
▁அருணகிரியார்	-4314
ஜா	-4315
மிழ	-4316
ினா	-4317
▁அன	-4318
▁வக	-4319
ண்டல	-4320
ருமே	-4321
ியன்	-4322
ிருத	-4323
ிறகு	-4324
ிலான	-4325
க்கர்	-4326
த்தன்	-4327
மன்று	-4328
▁அரவி	-4329
▁எய்த	-4330
▁ஓவிய	-4331
▁தடவை	-4332
▁தடைய	-4333
▁நவீன	-4334
▁புல்	-4335
▁வேல்	-4336
ம்பெரு	-4337
ரித்து	-4338
ற்றுள்	-4339
▁கருவி	-4340
▁கவனம்	-4341
▁கோபுர	-4342
▁சுவைய	-4343
▁தங்கு	-4344
▁விசார	-4345
க்களில்	-4346
ாட்டின்	-4347
▁கல்யாண	-4348
▁தனியாக	-4349
▁நாட்கள	-4350
▁மூலமாக	-4351
▁வகையான	-4352
▁வடிவம்	-4353
விட்டேன்	-4354
▁இந்தியா	-4355
▁எதற்காக	-4356
▁கம்பெனி	-4357
▁சபைக்கு	-4358
▁தமிழ்ப்	-4359
▁பிறந்து	-4360
▁மரங்கள்	-4361
▁முன்னர்	-4362
▁மெதுவாக	-4363
▁வரலாற்ற	-4364
ப்பவர்கள்	-4365
ப்பிரமணிய	-4366
▁அவர்களது	-4367
▁தொலைவில்	-4368
▁நியமிக்க	-4369
▁பிரபலமான	-4370
▁வளர்த்து	-4371
▁விட்டாள்	-4372
த்திற்குக்	-4373
▁அனுமதிக்க	-4374
▁இருந்தும்	-4375
▁ஏறக்குறைய	-4376
▁பதினைந்து	-4377
▁கொண்டிருந்தான்	-4378
it	-4379
▁ன	-4380
▁சல	-4381
▁சமை	-4382
▁பான	-4383
▁மணம	-4384
க்கல்	-4385
ங்கல்	-4386
தனால்	-4387
பெற்ற	-4388
▁கடன்	-4389
▁கஸ்த	-4390
▁கொழு	-4391
▁துரு	-4392
▁தொகை	-4393
▁பதவி	-4394
▁பிரச	-4395
▁முளை	-4396
க்கொள்	-4397
ப்பைக்	-4398
ில்லாத	-4399
ையாகப்	-4400
▁அக்கு	-4401
▁அழிவு	-4402
▁இக்கோ	-4403
▁நட்பு	-4404
▁பிரயா	-4405
▁பெட்ட	-4406
▁வெட்க	-4407
ணத்தில்	-4408
▁அடங்கி	-4409
▁அழிக்க	-4410
▁இருவர்	-4411
▁உற்சாக	-4412
▁கம்பென	-4413
▁செயற்க	-4414
▁போன்று	-4415
ப்படுவது	-4416
முறையில்	-4417
ருக்குச்	-4418
▁இல்லையா	-4419
▁சாத்திய	-4420
▁பெயரால்	-4421
▁வாழ்கிற	-4422
▁அமர்ந்து	-4423
▁எழுத்தாள	-4424
▁குறிஞ்சி	-4425
▁வெவ்வேறு	-4426
▁உலகத்தில்	-4427
▁செய்யலாம்	-4428
▁நடித்தார்	-4429
த்துக்கொள்ள	-4430
ப்படுத்திக்	-4431
▁கட்டப்பட்ட	-4432
▁வைக்கப்பட்ட	-4433
▁இல்லாவிட்டால்	-4434
நு	-4435
ெய	-4436
ேப	-4437
தென	-4438
ப்ட	-4439
ரைய	-4440
லோக	-4441
ஷ்ய	-4442
ாட்	-4443
ாமல	-4444
கொள்	-4445
தொரு	-4446
மைப்	-4447
லிஸ்	-4448
ெண்ண	-4449
▁எவ்	-4450
▁வன்	-4451
யிற்ச	-4452
ிற்றே	-4453
▁கோல்	-4454
▁தப்ப	-4455
▁தம்ப	-4456
▁தீவு	-4457
▁நாவல	-4458
▁பணிய	-4459
▁பூரண	-4460
▁வாசி	-4461
ங்கார்	-4462
தென்று	-4463
ிகளால்	-4464
▁இயலாத	-4465
▁கலந்த	-4466
▁நுட்ப	-4467
▁வறுமை	-4468
▁வழியே	-4469
ப்பதும்	-4470
ுக்குக்	-4471
ொன்றும்	-4472
▁இடத்தை	-4473
▁இராணுவ	-4474
▁கஷ்டம்	-4475
▁கூடும்	-4476
▁செல்வா	-4477
▁பேரில்	-4478
▁மஞ்சள்	-4479
▁மாற்று	-4480
▁வாங்கு	-4481
வர்களில்	-4482
விட்டுப்	-4483
▁அனுப்பு	-4484
▁ஆகையால்	-4485
▁குறைவாக	-4486
▁பிரதிநி	-4487
▁பைத்திய	-4488
▁அடையாளம்	-4489
▁குறித்து	-4490
▁கோயிலில்	-4491
▁விட்டேன்	-4492
ப்பட்டுள்ள	-4493
▁உருவாக்கு	-4494
▁குடும்பம்	-4495
▁செல்கிறது	-4496
▁வந்தாலும்	-4497
ங்களுக்கும்	-4498
▁பார்க்கும்	-4499
▁முக்கியமாக	-4500
▁ஆரம்பத்தில்	-4501
▁இவர்களுக்கு	-4502
▁காட்டுகிறது	-4503
ol	-4504
சூ	-4505
வாழ	-4506
ாரோ	-4507
ாலோ	-4508
்தொ	-4509
▁ஆல	-4510
திர்	-4511
தைச்	-4512
போதே	-4513
ர்வீ	-4514
விழா	-4515
▁ஒழி	-4516
▁வலு	-4517
▁வைர	-4518
ள்கிற	-4519
விடக்	-4520
▁காண்	-4521
▁சாமி	-4522
▁தாவர	-4523
▁துடை	-4524
▁பச்ச	-4525
▁ராஜா	-4526
ப்பால்	-4527
ப்போடு	-4528
லாந்து	-4529
ிகளைத்	-4530
்களைக்	-4531
▁இரத்த	-4532
▁இறங்க	-4533
▁இலங்க	-4534
▁தண்ணீ	-4535
▁தம்பி	-4536
▁தலைவி	-4537
▁வேட்ட	-4538
▁வேதனை	-4539
ுக்குத்	-4540
▁அவனால்	-4541
▁இன்றிய	-4542
▁உருவம்	-4543
▁பழங்கு	-4544
▁முயன்ற	-4545
க்கிறாள்	-4546
▁அழிந்து	-4547
▁இங்குக்	-4548
▁ஈடுபட்ட	-4549
▁எலும்பு	-4550
▁கேட்டது	-4551
▁சாஸ்திர	-4552
▁தடுத்து	-4553
▁நடுவில்	-4554
▁யாராவது	-4555
▁அறிவியல்	-4556
க்கும்போது	-4557
▁அவர்களைப்	-4558
▁எழுதினார்	-4559
▁தனிப்பட்ட	-4560
▁வருகிறார்	-4561
▁பிடித்துக்	-4562
▁திருவள்ளுவர்	-4563
நல	-4564
ீன	-4565
ுண	-4566
கழ்	-4567
மனை	-4568
லஸ்	-4569
ள்க	-4570
ெரு	-4571
ோமே	-4572
▁உவ	-4573
▁கச	-4574
▁நய	-4575
▁ரே	-4576
மில்	-4577
ர்கு	-4578
வையே	-4579
▁ஆல்	-4580
▁கலி	-4581
▁தூர	-4582
▁மெள	-4583
க்கால	-4584
புறம்	-4585
ப்பாட	-4586
வாளர்	-4587
ாய்க்	-4588
ொண்டு	-4589
▁உபதே	-4590
▁கிளி	-4591
▁புனை	-4592
ட்டுச்	-4593
மையால்	-4594
ரியும்	-4595
்களால்	-4596
▁அம்பு	-4597
▁எவ்வள	-4598
▁கோவில	-4599
▁சுட்ட	-4600
▁ஞானம்	-4601
▁நேராக	-4602
▁மிகக்	-4603
▁மூழ்க	-4604
ாயினும்	-4605
▁அடித்த	-4606
▁அண்ணன்	-4607
▁இரவில்	-4608
▁குண்டு	-4609
▁முஸ்லி	-4610
▁வேகமாக	-4611
▁வேட்டை	-4612
ப்படலாம்	-4613
ளிக்கும்	-4614
▁அமையும்	-4615
▁அவளிடம்	-4616
▁என்னைக்	-4617
▁சென்றது	-4618
▁வயிற்று	-4619
▁வேடிக்க	-4620
மில்லாமல்	-4621
▁எழுந்தரு	-4622
▁தொடர்ச்ச	-4623
▁பகுதிகள்	-4624
▁புகுந்து	-4625
த்தில்தான்	-4626
▁அவர்களில்	-4627
▁அவர்களும்	-4628
▁இன்றியமைய	-4629
▁கண்டுபிடி	-4630
▁செய்திகள்	-4631
▁பெறுகிறது	-4632
ிலிருந்தும்	-4633
▁உண்டாகிறது	-4634
▁இந்தியாவில்	-4635
▁வாழ்க்கைக்கு	-4636
▁அருணகிரிநாதர்	-4637
▁விரும்பவில்லை	-4638
▁வேண்டியதில்லை	-4639
யு	-4640
என்	-4641
ணன்	-4642
நடை	-4643
ரசு	-4644
▁டு	-4645
ங்கர	-4646
செய்	-4647
யின்	-4648
லிலே	-4649
▁ஃப்	-4650
▁ஒடு	-4651
▁கள்	-4652
▁குட	-4653
▁கெள	-4654
செய்ய	-4655
ற்கான	-4656
▁அட்ட	-4657
▁அண்ட	-4658
▁இட்ட	-4659
▁தாரி	-4660
▁திகை	-4661
▁மாமா	-4662
லையின்	-4663
ள்ளும்	-4664
வாகும்	-4665
ார்களே	-4666
ிருத்த	-4667
▁அப்போ	-4668
▁இலக்க	-4669
▁கால்ப	-4670
▁கொன்ற	-4671
▁சாஸ்த	-4672
▁சுந்த	-4673
▁தாமரை	-4674
▁திறமை	-4675
▁நியாய	-4676
▁பயிரி	-4677
▁வணங்க	-4678
▁வராது	-4679
▁விரோத	-4680
க்களின்	-4681
▁எழுப்ப	-4682
▁குட்டி	-4683
▁தோற்று	-4684
▁பயந்து	-4685
▁போதாது	-4686
▁மத்திய	-4687
த்தாலும்	-4688
ப்பிள்ளை	-4689
▁ஆகியோர்	-4690
▁கரையில்	-4691
▁கிரேக்க	-4692
▁சிறுவன்	-4693
▁சுருக்க	-4694
▁சேர்த்த	-4695
▁பேசுவது	-4696
▁வியாபார	-4697
த்திரண்டு	-4698
▁சென்றால்	-4699
▁திருக்கோ	-4700
▁நாளைக்கு	-4701
▁நீதிமன்ற	-4702
▁ஏனென்றால்	-4703
▁நாட்களில்	-4704
▁மற்றொன்று	-4705
▁வரும்போது	-4706
▁விருப்பம்	-4707
▁விளங்கும்	-4708
▁அதனால்தான்	-4709
▁மலையாளிகள்	-4710
▁அங்கிருந்து	-4711
▁அமைந்துள்ளன	-4712
▁வேண்டுமென்ற	-4713
▁கூறுகின்றனர்	-4714
▁கொண்டிருந்தன	-4715
▁பாத்திரங்கள்	-4716
▁தேர்ந்தெடுக்க	-4717
as	-4718
▁.	-4719
ண்க	-4720
திர	-4721
னவே	-4722
யோக	-4723
ிலு	-4724
▁சவ	-4725
▁ஜா	-4726
டிப்	-4727
ராஜ்	-4728
ல்லா	-4729
ுற்ற	-4730
▁ஆதி	-4731
▁இலை	-4732
▁ஏரி	-4733
▁நடன	-4734
▁நாவ	-4735
▁பன்	-4736
▁மரப	-4737
க்கிழ	-4738
தன்று	-4739
ராஜன்	-4740
ஷ்டம்	-4741
ானாம்	-4742
ார்ட்	-4743
▁ஆக்க	-4744
▁உதகம	-4745
▁சிதை	-4746
▁தேடு	-4747
▁நாடி	-4748
▁நால்	-4749
▁மாடு	-4750
▁யோசி	-4751
▁வருண	-4752
டையின்	-4753
த்தவர்	-4754
விலும்	-4755
▁அருமை	-4756
▁இவரது	-4757
▁எதிரே	-4758
▁கணவன்	-4759
▁காந்த	-4760
▁சபையோ	-4761
▁செங்க	-4762
▁தனியே	-4763
▁பிரிய	-4764
▁பெயரை	-4765
▁விவாத	-4766
▁அதனைக்	-4767
▁அமைதிய	-4768
▁இடம்பெ	-4769
▁இயலும்	-4770
▁எண்ணிய	-4771
▁சான்று	-4772
ட்டுக்கு	-4773
போதிலும்	-4774
மையையும்	-4775
▁அவ்வாறே	-4776
▁உள்ளார்	-4777
▁எவ்வளவோ	-4778
▁ஒருத்தி	-4779
▁கூறுவர்	-4780
▁நோக்கம்	-4781
▁வந்தேன்	-4782
▁வித்திய	-4783
ிருந்தும்	-4784
▁கடைசியாக	-4785
▁திரைப்பட	-4786
▁பெண்ணின்	-4787
▁பெற்றவர்	-4788
▁வாழ்வின்	-4789
▁அலங்காரம்	-4790
▁தந்தையார்	-4791
ப்படுத்தும்	-4792
▁அவருக்குப்	-4793
▁பார்த்தேன்	-4794
▁யாருக்கும்	-4795
▁வெளிப்படைய	-4796
▁இருக்கிறேன்	-4797
ro	-4798
ஷா	-4799
பாத	-4800
ராவ	-4801
▁ஏக	-4802
▁ஓட	-4803
சும்	-4804
ன்ட்	-4805
மயம்	-4806
ரியை	-4807
ாயின	-4808
▁நறு	-4809
▁யூத	-4810
▁வைய	-4811
க்டர்	-4812
ர்கிற	-4813
வரில்	-4814
ையுமே	-4815
▁உடலை	-4816
▁சிரம	-4817
▁தற்ப	-4818
▁தேர்	-4819
▁பயம்	-4820
▁போலீ	-4821
▁வான்	-4822
க்கின்	-4823
ங்கிணை	-4824
ங்ஙனம்	-4825
ப்பற்ற	-4826
ள்ளனர்	-4827
ையாவது	-4828
▁அஞ்சி	-4829
▁அழுது	-4830
▁ஆற்று	-4831
▁இருள்	-4832
▁சந்தை	-4833
▁பண்ணு	-4834
▁பூங்க	-4835
▁வாழ்த	-4836
▁வேஷம்	-4837
க்காரர்	-4838
விடலாம்	-4839
▁அவனும்	-4840
▁அவரவர்	-4841
▁உடையது	-4842
▁துப்பா	-4843
▁தெளிவு	-4844
▁தேர்வு	-4845
▁நாடகக்	-4846
▁நாமும்	-4847
▁நெஞ்சு	-4848
▁நோக்கு	-4849
ர்களுடன்	-4850
வதற்கும்	-4851
▁உறுப்பு	-4852
▁கண்ணாடி	-4853
▁ஜனங்கள்	-4854
▁தொழிற்ச	-4855
▁தோற்றம்	-4856
▁நன்றாய்	-4857
▁பாடல்கள	-4858
▁புரிந்த	-4859
▁பேசாமல்	-4860
▁வெளியேற	-4861
ட்டத்தில்	-4862
▁அதற்குக்	-4863
▁அமைதியாக	-4864
▁கொண்டால்	-4865
▁கொண்டேன்	-4866
▁சிகிச்சை	-4867
▁தொலைக்கா	-4868
▁நிச்சயம்	-4869
▁பிரிட்டி	-4870
த்துக்கும்	-4871
▁இருப்பதாக	-4872
▁எச்சரிக்க	-4873
▁ஒருபோதும்	-4874
▁தெரிவிக்க	-4875
▁பாருங்கள்	-4876
▁மத்தியில்	-4877
▁நிமிர்ந்து	-4878
▁பார்த்தார்	-4879
▁போய்விட்டது	-4880
ic	-4881
ளோ	-4882
ம்ச	-4883
ுக்	-4884
ேட்	-4885
முடி	-4886
ருள்	-4887
ளால்	-4888
வோடு	-4889
ாரன்	-4890
ிறன்	-4891
▁கறு	-4892
▁கிண	-4893
▁நாத	-4894
▁யாக	-4895
களோடு	-4896
ங்களா	-4897
போர்ட	-4898
ாதபடி	-4899
ெல்வே	-4900
▁அணிய	-4901
▁கிரா	-4902
▁ஞாபக	-4903
▁நிகழ	-4904
▁வால்	-4905
▁வேள்	-4906
கொண்டே	-4907
திக்கு	-4908
த்தட்ட	-4909
னியின்	-4910
ப்பைத்	-4911
மின்றி	-4912
முண்டு	-4913
யில்லை	-4914
ென்பது	-4915
▁அருகே	-4916
▁இதைச்	-4917
▁ஒட்டி	-4918
▁கணக்க	-4919
▁கஸ்தூ	-4920
▁காதலி	-4921
▁சாம்ப	-4922
▁தென்க	-4923
▁பரந்த	-4924
▁மூத்த	-4925
▁லக்ஷ்	-4926
க்காமல்	-4927
ல்களைப்	-4928
ும்பில்	-4929
▁அவளைப்	-4930
▁உங்களை	-4931
▁கடலில்	-4932
▁கண்ணன்	-4933
▁ஜப்பான	-4934
▁துண்டு	-4935
▁தேவாலய	-4936
▁விட்டன	-4937
▁வேறொரு	-4938
கின்றார்	-4939
க்கூடும்	-4940
▁அடங்கிய	-4941
▁இணைந்து	-4942
▁கல்லூரி	-4943
▁கழித்து	-4944
▁செய்தல்	-4945
▁செய்யத்	-4946
▁செய்யாத	-4947
▁சொற்கள்	-4948
▁தங்கமணி	-4949
▁பிறப்பு	-4950
▁வணக்கம்	-4951
▁வாய்க்க	-4952
▁வீடுகள்	-4953
▁இப்படிச்	-4954
▁சொற்பொழி	-4955
▁தெருவில்	-4956
▁பாதையில்	-4957
▁மொழியில்	-4958
▁வேண்டாமா	-4959
▁ஒருங்கிணை	-4960
▁சொல்லலாம்	-4961
▁தூரத்தில்	-4962
▁நகரத்தின்	-4963
▁நெருங்கிய	-4964
▁புகழ்ந்து	-4965
▁ஆரம்பித்து	-4966
▁உடையவர்கள்	-4967
▁சென்னையில்	-4968
▁செய்கிறான்	-4969
▁திருநெல்வே	-4970
▁பன்னிரண்டு	-4971
▁மகிழ்ச்சிய	-4972
▁சுப்பிரமணிய	-4973
▁பயன்படுத்தி	-4974
▁காணப்படுகின்றன	-4975
▁பெயரிடப்பட்டது	-4976
ரவ	-4977
இன்	-4978
மென	-4979
ையு	-4980
சியா	-4981
▁ஆணை	-4982
▁இத்	-4983
▁கம்	-4984
▁சகல	-4985
▁சம்	-4986
▁தசை	-4987
▁பர்	-4988
▁பஸ்	-4989
▁பூத	-4990
க்கக்	-4991
வதைப்	-4992
ிற்றை	-4993
ிலில்	-4994
▁ஆயுத	-4995
▁சோலை	-4996
▁நகர்	-4997
▁பறவை	-4998
▁புலி	-4999
▁மயில	-5000
▁யாழ்	-5001
▁வாலி	-5002
▁வாழை	-5003
▁விதை	-5004
கிறாய்	-5005
ங்கால்	-5006
மைப்பு	-5007
வியும்	-5008
ாளிகள்	-5009
ிக்கப்	-5010
▁ஆன்மா	-5011
▁உடற்ப	-5012
▁உதாரண	-5013
▁கவலைய	-5014
▁நிமிஷ	-5015
▁நெறிய	-5016
▁பாடம்	-5017
▁பூண்ட	-5018
▁மயில்	-5019
▁வாக்க	-5020
ின்றான்	-5021
ையினால்	-5022
▁காந்தி	-5023
▁குளிர்	-5024
▁நாளும்	-5025
▁பாடும்	-5026
▁பாட்டி	-5027
▁பிரகார	-5028
▁மறைந்த	-5029
▁வகைகள்	-5030
▁வயதில்	-5031
▁வாக்கு	-5032
▁விவசாய	-5033
▁வீட்டை	-5034
மாட்டேன்	-5035
▁அடக்கம்	-5036
▁இயக்கம்	-5037
▁கும்பகோ	-5038
▁சொன்னது	-5039
▁நன்மையை	-5040
▁மாற்றம்	-5041
▁விரைவாக	-5042
▁வைத்திய	-5043
க்கணக்கான	-5044
த்தொன்பது	-5045
ந்தார்கள்	-5046
ினின்றும்	-5047
▁அபிப்பிர	-5048
▁எனக்கும்	-5049
▁எனதுயிர்	-5050
▁திவான்பக	-5051
▁புத்தகம்	-5052
▁மாறுபட்ட	-5053
▁விட்டனர்	-5054
▁வேண்டுமா	-5055
▁சம்பந்தம்	-5056
▁பள்ளியில்	-5057
▁விழுந்தது	-5058
▁வந்திருந்த	-5059
▁எழுதுகிறேன்	-5060
▁கிட்டத்தட்ட	-5061
▁அப்படியானால்	-5062
▁செய்கிறார்கள்	-5063
▁பணியாற்றினார்	-5064
▁கொண்டிருந்தனர்	-5065
us	-5066
வய	-5067
ுவ	-5068
ஜர்	-5069
நாள	-5070
பாவ	-5071
▁ஏழ	-5072
▁ஷே	-5073
!...	-5074
டைமை	-5075
போய்	-5076
வாம்	-5077
ிகளே	-5078
ீட்ட	-5079
்தம்	-5080
▁ஒடி	-5081
▁சாவ	-5082
▁சுல	-5083
▁சேக	-5084
த்தலை	-5085
வேண்ட	-5086
ினைக்	-5087
ினோம்	-5088
▁காது	-5089
▁சிவக	-5090
▁சுறு	-5091
▁சோதி	-5092
▁பத்த	-5093
▁பழனி	-5094
▁பாலு	-5095
▁வினா	-5096
க்கித்	-5097
ணியில்	-5098
த்தனம்	-5099
▁இந்நூ	-5100
▁இவ்வா	-5101
▁குமார	-5102
▁சந்தன	-5103
▁சாமான	-5104
▁தியான	-5105
▁தொன்ன	-5106
▁முட்ட	-5107
▁விவரி	-5108
▁ஸ்திர	-5109
ியையும்	-5110
▁அவனோடு	-5111
▁எந்தக்	-5112
▁கட்டளை	-5113
▁காணும்	-5114
▁கிடக்க	-5115
▁தமிழர்	-5116
▁தானும்	-5117
▁தெற்கே	-5118
▁நேரில்	-5119
▁படிப்ப	-5120
▁பட்டம்	-5121
▁பனிக்க	-5122
▁பயன்பட	-5123
▁பயிரிட	-5124
▁முத்து	-5125
▁முற்று	-5126
▁ஒருமுறை	-5127
▁தரையில்	-5128
▁திருவார	-5129
▁நின்றது	-5130
▁படைப்பு	-5131
▁மருத்து	-5132
▁மாத்திர	-5133
▁விளையாட	-5134
ப்பட்டுக்	-5135
▁அதன்பின்	-5136
▁அமைந்தது	-5137
▁எதிர்பார	-5138
▁என்பதில்	-5139
▁ஐயங்கார்	-5140
▁போக்குவர	-5141
▁மாட்டேன்	-5142
த்துக்குச்	-5143
▁உண்டாக்கு	-5144
▁பயன்படும்	-5145
▁முகத்தில்	-5146
▁அவனுக்குப்	-5147
▁உடற்பயிற்ச	-5148
▁குறிக்கும்	-5149
▁செய்வதற்கு	-5150
▁வளர்க்கும்	-5151
▁வள்ளியம்மை	-5152
▁என்றெல்லாம்	-5153
▁வந்துவிட்டது	-5154
▁கருதப்படுகிறது	-5155
ur	-5156
சக	-5157
பீ	-5158
பூம	-5159
வகு	-5160
ுலக	-5161
▁ஊச	-5162
▁நள	-5163
▁ஹி	-5164
▁ஹே	-5165
லார்	-5166
▁கொண	-5167
▁தேட	-5168
ப்பாய	-5169
ாளராக	-5170
ிண்ட்	-5171
▁கத்த	-5172
▁கல்க	-5173
▁கோடு	-5174
▁தின்	-5175
▁நன்ன	-5176
▁பங்க	-5177
▁புலன	-5178
▁மீன்	-5179
▁வேளை	-5180
▁இயங்க	-5181
▁காக்க	-5182
▁சட்டை	-5183
▁தஞ்சை	-5184
▁பக்கு	-5185
▁பந்து	-5186
▁முதிய	-5187
▁ரகசிய	-5188
க்களும்	-5189
ங்காலம்	-5190
மட்டும்	-5191
லத்தின்	-5192
▁ஆகிறது	-5193
▁ஆதிக்க	-5194
▁கொடுமை	-5195
▁சங்கில	-5196
▁சட்டம்	-5197
▁தந்திர	-5198
▁தொண்டு	-5199
▁நீங்கி	-5200
▁பிச்சை	-5201
▁பெட்டி	-5202
▁வணங்கு	-5203
▁விதமான	-5204
▁விருது	-5205
ங்களுடன்	-5206
த்தொன்று	-5207
▁உணர்த்த	-5208
▁கோபுரம்	-5209
▁சூரியன்	-5210
▁பரிந்து	-5211
▁புதிதாக	-5212
▁மயக்கம்	-5213
▁முப்பது	-5214
▁முறையாக	-5215
▁அப்புறம்	-5216
▁இப்படிப்	-5217
▁எதிர்த்த	-5218
▁கடுமையாக	-5219
▁துறையில்	-5220
▁பின்பற்ற	-5221
▁போதிலும்	-5222
▁வரும்படி	-5223
▁விரும்பி	-5224
▁வைத்துப்	-5225
▁இலக்கியம்	-5226
▁தமிழர்கள்	-5227
▁பிரார்த்த	-5228
▁திரும்பிப்	-5229
▁பிடிக்கும்	-5230
▁போய்விடும்	-5231
▁மனிதனுக்கு	-5232
▁உண்டாயிற்று	-5233
▁எப்படியாவது	-5234
▁கிருஷ்ணசாமி	-5235
he	-5236
வூ	-5237
ோட	-5238
த்ம	-5239
ஸ்ப	-5240
்டோ	-5241
▁எம	-5242
▁லை	-5243
நான்	-5244
பக்த	-5245
ரிக்	-5246
றிக்	-5247
வேளை	-5248
▁சின	-5249
ஞ்சம்	-5250
னிவாச	-5251
ப்பதே	-5252
மானவை	-5253
வுடனே	-5254
வையாக	-5255
▁சமைய	-5256
▁சிகர	-5257
▁சினி	-5258
▁துரை	-5259
▁நானே	-5260
▁பூனை	-5261
▁விடி	-5262
சையில்	-5263
த்துறை	-5264
ந்தேன்	-5265
ம்மாள்	-5266
ுடையது	-5267
▁அச்சி	-5268
▁அதிசய	-5269
▁இதைத்	-5270
▁உட்பட	-5271
▁என்பன	-5272
▁ஒளவைய	-5273
▁கண்கள	-5274
▁காஃபி	-5275
▁பதுமை	-5276
▁பொய்ய	-5277
▁வலிமை	-5278
▁வெட்ட	-5279
▁அதிகரி	-5280
▁உறுதிய	-5281
▁உலகின்	-5282
▁குன்று	-5283
▁தன்மைய	-5284
▁நீயும்	-5285
▁பறந்து	-5286
▁பிரான்	-5287
▁பூங்கா	-5288
▁போய்க்	-5289
▁வகுப்ப	-5290
முடியாது	-5291
விக்கும்	-5292
▁அரண்மனை	-5293
▁செய்யப்	-5294
▁டால்ஸ்ட	-5295
▁பொறுத்த	-5296
▁மற்றவர்	-5297
▁முடிக்க	-5298
▁மெல்லிய	-5299
▁வடிவில்	-5300
▁வெள்ளைய	-5301
▁அதற்குள்	-5302
▁உன்னுடைய	-5303
▁எப்படியோ	-5304
▁கேட்கும்	-5305
▁திருப்தி	-5306
▁நினைத்து	-5307
▁பகுத்தறி	-5308
▁பொருள்கள	-5309
▁வீட்டின்	-5310
க்கப்பட்டன	-5311
▁ஆண்டுகளாக	-5312
▁செய்யாமல்	-5313
▁நடவடிக்கை	-5314
▁நிற்கிறது	-5315
▁பதினெட்டு	-5316
▁கொடுங்கோளு	-5317
▁செய்கிறார்	-5318
▁பிரிட்டிஷ்	-5319
▁நாடகங்களில்	-5320
▁பகுதியாகும்	-5321
▁கண்டுபிடித்த	-5322
▁நிகழ்ச்சிகள்	-5323
▁கிடைக்கவில்லை	-5324
▁கூறப்படுகிறது	-5325
ளே	-5326
தரி	-5327
மிக	-5328
ாணி	-5329
சாலி	-5330
னோடு	-5331
ப்பர	-5332
ஸ்பெ	-5333
ிழமை	-5334
ோதைய	-5335
▁இழை	-5336
▁ஐயோ	-5337
▁சன்	-5338
▁நாம	-5339
▁பின	-5340
▁ஸ்ப	-5341
▁ஹரி	-5342
பாலன்	-5343
வதைத்	-5344
ஸ்டன்	-5345
▁ஆஃப்	-5346
▁ஆடின	-5347
▁இணைய	-5348
▁கைது	-5349
▁சமவெ	-5350
▁சான்	-5351
▁நன்ம	-5352
▁நற்ப	-5353
▁நாலு	-5354
▁நெல்	-5355
▁பசிய	-5356
▁பரவல	-5357
▁பாரி	-5358
▁புரோ	-5359
▁பூசை	-5360
▁மூடி	-5361
▁லண்ட	-5362
▁விநா	-5363
▁வீண்	-5364
த்தோம்	-5365
ப்பைப்	-5366
ப்போய்	-5367
ிகளைச்	-5368
ிக்காக	-5369
ிடமும்	-5370
▁அகற்ற	-5371
▁அழகாக	-5372
▁ஆகாது	-5373
▁இல்லா	-5374
▁ஏதும்	-5375
▁ஓட்டு	-5376
▁ஓரளவு	-5377
▁தலைநக	-5378
▁தள்ளி	-5379
▁பந்தய	-5380
▁பழகிய	-5381
▁மரணம்	-5382
வாழ்க்க	-5383
▁அச்சம்	-5384
▁அழுத்த	-5385
▁கருத்த	-5386
▁சங்கீத	-5387
▁புரட்ச	-5388
▁மனிதனை	-5389
▁மன்னர்	-5390
▁வடக்கே	-5391
▁ஸ்திரீ	-5392
வில்லையா	-5393
▁அவரிடம்	-5394
▁கடைப்பி	-5395
▁கண்ணீர்	-5396
▁நேர்ந்த	-5397
▁நோக்கிய	-5398
▁புத்தர்	-5399
▁புரட்சி	-5400
▁பெயரில்	-5401
▁பொருந்த	-5402
▁மறைத்து	-5403
▁விக்கிர	-5404
ரிடத்தில்	-5405
ிக்கிறான்	-5406
ிலிருந்தே	-5407
▁ஆங்கிலம்	-5408
▁உயர்ந்து	-5409
▁உறுதியாக	-5410
▁சுற்றிப்	-5411
▁தேவர்கள்	-5412
▁நமக்குத்	-5413
▁நாட்டுப்	-5414
▁நிகழ்த்த	-5415
▁நிலைக்கு	-5416
▁மனப்பான்	-5417
▁விரைந்து	-5418
▁எப்பொழுது	-5419
▁கால்பந்து	-5420
▁கோயில்கள்	-5421
▁சிந்திக்க	-5422
▁ஆராய்ச்சிய	-5423
▁இருக்கின்ற	-5424
▁தங்களுக்கு	-5425
▁நூற்றாண்டு	-5426
ிருப்பார்கள்	-5427
▁செய்யவில்லை	-5428
▁கேள்விப்பட்ட	-5429
▁வருகிறார்கள்	-5430
தன	-5431
இல்	-5432
ிங்	-5433
ுமி	-5434
்தோ	-5435
▁ஒல	-5436
கையை	-5437
சுறு	-5438
சொல்	-5439
றேன்	-5440
விலே	-5441
ையின	-5442
▁அட்	-5443
▁தரை	-5444
▁நுக	-5445
▁பாழ	-5446
ப்போன	-5447
மென்ற	-5448
ம்கூட	-5449
ள்கள்	-5450
வனாய்	-5451
▁அவரே	-5452
▁ஆணைய	-5453
▁கங்க	-5454
▁சபைய	-5455
▁தலைவ	-5456
▁தினை	-5457
▁படிய	-5458
▁முதி	-5459
▁வலது	-5460
▁வாகன	-5461
ப்பவர்	-5462
மையைக்	-5463
ம்பரிய	-5464
ற்றார்	-5465
லியின்	-5466
ஸ்திரே	-5467
▁அதோடு	-5468
▁இறைவன	-5469
▁ஒருமை	-5470
▁காவிய	-5471
▁தவறான	-5472
▁துரிய	-5473
▁நுழைய	-5474
▁பக்தி	-5475
▁பங்கே	-5476
▁பாண்ட	-5477
▁புரிக	-5478
▁போலத்	-5479
▁முத்த	-5480
▁ராமன்	-5481
▁லிங்க	-5482
▁வயந்த	-5483
▁வரிசை	-5484
மையானது	-5485
ுள்ளனர்	-5486
▁அலுவலக	-5487
▁அவளும்	-5488
▁கூற்று	-5489
▁சொத்து	-5490
▁தற்கால	-5491
▁திருவு	-5492
▁நியூயா	-5493
▁பயங்கர	-5494
▁போட்டி	-5495
▁போரில்	-5496
▁போலீஸ்	-5497
▁ருக்கு	-5498
▁வாழ்வை	-5499
ப்பையும்	-5500
லுக்கும்	-5501
ாதவர்கள்	-5502
▁அயோத்தி	-5503
▁அழித்து	-5504
▁உடையவர்	-5505
▁உழைப்பு	-5506
▁எண்ணிக்	-5507
▁என்றேன்	-5508
▁காடுகள்	-5509
▁குரலில்	-5510
▁தான்பிர	-5511
▁பதிப்பு	-5512
▁புறப்பட	-5513
▁பெருந்த	-5514
▁போட்டிய	-5515
கிறவர்கள்	-5516
ப்பிரிக்க	-5517
▁அதற்குத்	-5518
▁அனுப்பிய	-5519
▁என்பதைப்	-5520
▁கேட்டால்	-5521
▁சுறுசுறு	-5522
▁தற்போதைய	-5523
▁திருப்பி	-5524
▁நிலைத்து	-5525
▁பொன்னம்ப	-5526
▁இவ்வருஷம்	-5527
▁சாப்பிட்ட	-5528
▁திரும்பிய	-5529
▁பாரம்பரிய	-5530
▁வாருங்கள்	-5531
ப்படுகிறாள்	-5532
▁இருப்பதால்	-5533
▁எனப்பட்டது	-5534
▁என்பார்கள்	-5535
▁ஏற்படுகிறது	-5536
▁சிதம்பரனார்	-5537
▁இப்படிப்பட்ட	-5538
▁திருநெல்வேலி	-5539
▁திவான்பகதூர்	-5540
▁நினைக்கிறேன்	-5541
▁பார்த்தாலும்	-5542
ப்படுகிறார்கள்	-5543
▁தமிழ்நாட்டில்	-5544
டெ	-5545
and	-5546
ill	-5547
கப்	-5548
தாப	-5549
முத	-5550
ராத	-5551
▁ஏல	-5552
▁வற	-5553
க்கீ	-5554
ட்ரோ	-5555
தலாக	-5556
ப்பன	-5557
மாள்	-5558
விப்	-5559
ிரவு	-5560
ூகம்	-5561
ொள்ள	-5562
▁அந்	-5563
▁அமர	-5564
▁உம்	-5565
▁சவு	-5566
▁சுட	-5567
▁தேக	-5568
▁புய	-5569
▁பேத	-5570
▁லீல	-5571
▁விந	-5572
களையே	-5573
ங்கம்	-5574
லாமல்	-5575
வாகக்	-5576
வாங்க	-5577
ாய்த்	-5578
ாவைப்	-5579
ிறந்த	-5580
ோடும்	-5581
▁அணுக	-5582
▁ஆதரி	-5583
▁ஊழிய	-5584
▁கதிர	-5585
▁குனி	-5586
▁சத்த	-5587
▁சால்	-5588
▁சோறு	-5589
▁ஜார்	-5590
▁நிரூ	-5591
▁பரபர	-5592
▁பாரத	-5593
▁பாவல	-5594
▁புரு	-5595
▁யாவை	-5596
▁விசை	-5597
க்காடு	-5598
த்தாறு	-5599
நாயகர்	-5600
ப்பவன்	-5601
▁அறிகு	-5602
▁ஆண்டவ	-5603
▁இனிமை	-5604
▁ஒன்றே	-5605
▁குறிய	-5606
▁தென்ற	-5607
▁தேயில	-5608
▁பயிர்	-5609
▁புன்ன	-5610
▁புல்ல	-5611
▁வீரர்	-5612
ச்செய்த	-5613
ந்ததும்	-5614
வாதிகள்	-5615
▁அடக்கி	-5616
▁அவனைச்	-5617
▁அவைகளை	-5618
▁இவ்விட	-5619
▁எந்தச்	-5620
▁காத்து	-5621
▁சத்தம்	-5622
▁தமிழன்	-5623
▁நாடகமா	-5624
▁புதுமை	-5625
▁மாநாடு	-5626
தாயிற்று	-5627
த்தெட்டு	-5628
னுக்குக்	-5629
னுக்குத்	-5630
வதற்குக்	-5631
வுக்கும்	-5632
ாயிருந்த	-5633
▁அறிவுரை	-5634
▁இப்படிய	-5635
▁உயர்த்த	-5636
▁எம்பெரு	-5637
▁எரிந்து	-5638
▁ஏதேனும்	-5639
▁கட்டிக்	-5640
▁கூடுதல்	-5641
▁தீர்த்த	-5642
▁நாட்டிய	-5643
▁பற்றியே	-5644
▁பழுப்பு	-5645
▁பிடிவாத	-5646
▁மூவரும்	-5647
▁யாவரும்	-5648
்கின்றனர்	-5649
▁இலக்கணம்	-5650
▁செயல்கள்	-5651
▁தம்முடைய	-5652
▁திருப்பு	-5653
▁தெலுங்கு	-5654
▁மரத்தின்	-5655
▁வழங்கும்	-5656
▁வேண்டுகோ	-5657
▁பிறகுதான்	-5658
▁ஸ்ரீனிவாச	-5659
▁உருவாக்கிய	-5660
▁கொள்கிறான்	-5661
▁குறிக்கிறது	-5662
▁இருபத்தைந்து	-5663
▁எதிர்பார்க்க	-5664
▁பள்ளத்தாக்கு	-5665
▁வாழ்க்கையைப்	-5666
▁அவர்களுக்குத்	-5667
▁எடுத்துக்காட்டு	-5668
▁வேண்டியிருந்தது	-5669
et	-5670
பல	-5671
ெள	-5672
▁ள	-5673
க்ர	-5674
டாக	-5675
ுரை	-5676
ேனே	-5677
்டு	-5678
▁கௌ	-5679
▁சௌ	-5680
தாய்	-5681
தைத்	-5682
த்தெ	-5683
நகர்	-5684
பந்த	-5685
மின்	-5686
லாளி	-5687
ல்கா	-5688
▁அல்	-5689
▁சேவ	-5690
குதிய	-5691
ட்டன்	-5692
ண்டர்	-5693
பெயர்	-5694
ளவில்	-5695
ினில்	-5696
▁அகில	-5697
▁ஊக்க	-5698
▁கிழி	-5699
▁சீர்	-5700
▁பயனு	-5701
▁பாலை	-5702
▁பிரெ	-5703
▁பெர்	-5704
▁விளி	-5705
தோறும்	-5706
மையைப்	-5707
விக்கோ	-5708
▁உச்சி	-5709
▁உயிரை	-5710
▁ஐநூறு	-5711
▁குட்ட	-5712
▁சுதேச	-5713
▁சேலம்	-5714
▁நீட்ட	-5715
▁புறம்	-5716
▁பூர்வ	-5717
▁மாறாக	-5718
▁முதுக	-5719
▁மைதான	-5720
▁வழிபா	-5721
▁வாலிப	-5722
▁வித்த	-5723
▁விலகி	-5724
ங்களிலே	-5725
ட்டுகள்	-5726
த்தினம்	-5727
ர்களைத்	-5728
▁அவளைக்	-5729
▁ஆட்டம்	-5730
▁இறைவனை	-5731
▁உத்திய	-5732
▁ஒருவரு	-5733
▁கட்டாய	-5734
▁கணக்கு	-5735
▁கதைகள்	-5736
▁கருவிய	-5737
▁கெட்டு	-5738
▁ஞாபகம்	-5739
▁தகுந்த	-5740
▁தக்கது	-5741
▁தருவது	-5742
▁தொண்டை	-5743
▁பொம்மை	-5744
▁விற்று	-5745
ிக்கலாம்	-5746
▁அதிகமான	-5747
▁அழுக்கா	-5748
▁ஆண்டில்	-5749
▁ஆஸ்திரே	-5750
▁உத்தரவு	-5751
▁ஒத்திகை	-5752
▁கடற்கரை	-5753
▁கண்டார்	-5754
▁சிறுகதை	-5755
▁திங்கள்	-5756
▁புண்ணிய	-5757
▁வருந்து	-5758
▁விடாமல்	-5759
▁வில்லிய	-5760
▁எப்படிப்	-5761
▁செயிண்ட்	-5762
▁தருகிறது	-5763
▁திட்டமிட	-5764
▁தொடங்கிய	-5765
▁நாகரிகம்	-5766
▁நிறுவனம்	-5767
▁பகுதியாக	-5768
▁பயிற்சிய	-5769
▁பிறந்தது	-5770
▁போகிறேன்	-5771
▁முடிவில்	-5772
▁வைத்தான்	-5773
▁இன்றைக்கு	-5774
▁காங்கிரஸ்	-5775
▁தந்தையின்	-5776
▁மட்டுமல்ல	-5777
ப்படுகிறான்	-5778
▁ஆஸ்திரேலிய	-5779
▁குறிக்கோள்	-5780
▁பாடுகிறார்	-5781
▁வேளாவிக்கோ	-5782
▁அனைத்தையும்	-5783
▁ஆரம்பித்தது	-5784
▁கொள்ளவில்லை	-5785
▁கோடைக்கானல்	-5786
▁சுற்றியுள்ள	-5787
▁தொடங்கினான்	-5788
▁கொண்டிருக்கிற	-5789
▁சொல்கிறார்கள்	-5790
▁பயன்படுத்திக்	-5791
▁கொண்டிருந்தாள்	-5792
▁செய்யப்படுகிறது	-5793
il	-5794
ard	-5795
ஜன்	-5796
த்ய	-5797
ம்க	-5798
ரத்	-5799
ஷிய	-5800
▁பச	-5801
டியை	-5802
த்மா	-5803
ன்பூ	-5804
▁உடல	-5805
▁கேள	-5806
▁வயத	-5807
தலும்	-5808
முதல்	-5809
ம்பர்	-5810
ம்மன்	-5811
ராகிய	-5812
ற்கள்	-5813
ுக்கி	-5814
்தாம்	-5815
▁அசைய	-5816
▁உறைய	-5817
▁காகி	-5818
▁காமா	-5819
▁பொழி	-5820
▁போதே	-5821
▁ராணி	-5822
க்கிப்	-5823
தையும்	-5824
பொருள்	-5825
மாய்ப்	-5826
ம்போல்	-5827
ருகில்	-5828
லியும்	-5829
ளிடையே	-5830
▁அரிது	-5831
▁இதற்க	-5832
▁இத்தல	-5833
▁உபயோக	-5834
▁கன்பூ	-5835
▁கம்யூ	-5836
▁குளிர	-5837
▁தூங்க	-5838
▁நிறம்	-5839
▁பிற்க	-5840
▁பொய்க	-5841
▁மெய்ய	-5842
▁மேலாக	-5843
▁மொத்த	-5844
▁விற்க	-5845
படியால்	-5846
வர்த்தி	-5847
வில்லைய	-5848
ுக்குச்	-5849
ுக்குள்	-5850
▁அரசின்	-5851
▁ஆறுதல்	-5852
▁உடலின்	-5853
▁கந்தர்	-5854
▁கவுண்ட	-5855
▁காவிரி	-5856
▁சார்பு	-5857
▁தடுத்த	-5858
▁தொந்தி	-5859
▁நடிகர்	-5860
▁பிரதான	-5861
▁பீடபூம	-5862
▁பெண்கள	-5863
▁பெரிது	-5864
▁போய்ப்	-5865
▁வரலாம்	-5866
▁வர்த்த	-5867
த்தக்கது	-5868
விட்டுத்	-5869
வுக்குத்	-5870
வுக்குப்	-5871
▁அமைத்து	-5872
▁இதுவும்	-5873
▁என்னைத்	-5874
▁சிங்கார	-5875
▁தாழ்ந்த	-5876
▁தீர்க்க	-5877
▁பெறுவது	-5878
▁வரவேற்ப	-5879
▁வலியுறு	-5880
▁வாத்திய	-5881
▁விடலாம்	-5882
▁விமர்சன	-5883
▁இதற்குப்	-5884
▁இருபத்து	-5885
▁உயிர்கள்	-5886
▁எதிர்க்க	-5887
▁கொண்டவர்	-5888
▁சிறிதும்	-5889
▁சூழ்ச்சி	-5890
▁சொன்னாள்	-5891
▁நடித்தது	-5892
▁நன்றாகப்	-5893
▁நின்றான்	-5894
▁பின்னும்	-5895
▁மாட்டார்	-5896
▁முடித்து	-5897
▁விட்டுக்	-5898
▁அழும்பில்	-5899
▁இருந்தாள்	-5900
▁குழந்தையை	-5901
▁தங்களுடைய	-5902
▁பாத்திரம்	-5903
களிலிருந்து	-5904
▁குறிப்பிடு	-5905
▁பகுதிகளில்	-5906
▁காலத்திலும்	-5907
▁சென்றார்கள்	-5908
▁கொள்கின்றனர்	-5909
▁அவர்களுக்குப்	-5910
ac	-5911
om	-5912
கீ	-5913
ain	-5914
சுவ	-5915
ானி	-5916
ாவா	-5917
▁ஈர	-5918
ணியை	-5919
னையே	-5920
ன்பு	-5921
முனை	-5922
ம்பை	-5923
▁கன்	-5924
▁கொல	-5925
தாகச்	-5926
ான்கு	-5927
ாயும்	-5928
ிரண்ட	-5929
▁அவனு	-5930
▁இசைய	-5931
▁தம்ம	-5932
▁திடு	-5933
▁நபர்	-5934
▁பாடக	-5935
▁பிரே	-5936
▁பேய்	-5937
▁பேறு	-5938
▁மேன்	-5939
▁வசதி	-5940
▁விசி	-5941
▁வெறி	-5942
கைக்கு	-5943
த்திரி	-5944
த்தேழு	-5945
ழும்பு	-5946
ிக்கார	-5947
▁அடங்க	-5948
▁உடைமை	-5949
▁கதையை	-5950
▁குள்ள	-5951
▁கூடப்	-5952
▁கூந்த	-5953
▁கைவிட	-5954
▁சர்மா	-5955
▁சாதனை	-5956
▁சோம்ப	-5957
▁திண்ண	-5958
▁படும்	-5959
▁பரப்ப	-5960
▁புள்ள	-5961
▁வில்ல	-5962
ப்பாட்ட	-5963
ல்களைக்	-5964
ியாகும்	-5965
ிரியும்	-5966
▁அப்பர்	-5967
▁அறுபது	-5968
▁ஆத்திர	-5969
▁உடலில்	-5970
▁ஒப்படை	-5971
▁கண்டது	-5972
▁சமூகம்	-5973
▁சர்ச்ச	-5974
▁சுட்டு	-5975
▁சுரங்க	-5976
▁சுவாமி	-5977
▁தூண்டு	-5978
▁தோல்வி	-5979
▁படைகள்	-5980
▁பாம்பு	-5981
▁புள்ளி	-5982
▁மிகுதி	-5983
▁மோசமான	-5984
க்கிட்டு	-5985
ச்சந்திர	-5986
ியாகவும்	-5987
▁அதிகாரி	-5988
▁அநுபவம்	-5989
▁அன்பும்	-5990
▁எண்ணிப்	-5991
▁கருத்தை	-5992
▁சூழ்நில	-5993
▁செல்வது	-5994
▁துணையாக	-5995
▁நாற்பது	-5996
▁நெடுஞ்ச	-5997
▁லட்சுமி	-5998
▁வகுப்பு	-5999
▁வாழ்வது	-6000
க்கவில்லை	-6001
வர்களுடைய	-6002
ிலெல்லாம்	-6003
▁இந்திரன்	-6004
▁இறந்தார்	-6005
▁என்பதால்	-6006
▁கண்டதும்	-6007
▁நின்றாள்	-6008
▁நெருங்கி	-6009
▁நெருப்பு	-6010
▁நோக்கிச்	-6011
▁பழங்குடி	-6012
▁பாட்டில்	-6013
▁மன்னிக்க	-6014
▁முன்னாள்	-6015
▁விநாயகர்	-6016
▁வெற்றிகர	-6017
▁அயோத்திதா	-6018
▁கூறுகிறது	-6019
▁கொள்ளவும்	-6020
▁சாதாரணமாக	-6021
▁செய்திகளை	-6022
▁செல்லலாம்	-6023
▁நான்காவது	-6024
▁நிறைவேற்ற	-6025
▁விளம்பரம்	-6026
▁வெளிச்சம்	-6027
மாயிருந்தது	-6028
▁அவனுக்குக்	-6029
▁இவர்களுடைய	-6030
▁காட்டிலும்	-6031
▁முடிவுக்கு	-6032
க்கப்பட்டார்	-6033
ிக்கிறார்கள்	-6034
▁சீர்திருத்த	-6035
▁முடிந்ததும்	-6036
▁பார்க்கிறோம்	-6037
▁வெளிப்படுத்த	-6038
▁வேண்டுமென்றால்	-6039
!"	-6040
ed	-6041
பொ	-6042
சால	-6043
லிட	-6044
ாதன	-6045
▁St	-6046
க்தி	-6047
தோடு	-6048
ருவி	-6049
ரோடு	-6050
லாமே	-6051
விட்	-6052
வேல்	-6053
ாம்ப	-6054
ையன்	-6055
▁அதோ	-6056
▁ஊழ்	-6057
▁எடை	-6058
▁சோம	-6059
▁தோள	-6060
▁வசி	-6061
▁வழு	-6062
கிறதா	-6063
ங்கூட	-6064
சாரம்	-6065
நுட்ப	-6066
நேரம்	-6067
ப்பாத	-6068
முறைய	-6069
லுடன்	-6070
வானது	-6071
ாதவன்	-6072
ாந்து	-6073
ாளாம்	-6074
ியால்	-6075
▁அம்ச	-6076
▁அறிவ	-6077
▁அவனே	-6078
▁இஃது	-6079
▁எனத்	-6080
▁கமலா	-6081
▁கூடை	-6082
▁செவி	-6083
▁தகவல	-6084
▁தத்த	-6085
▁பிணை	-6086
▁மிதி	-6087
▁மென்	-6088
▁மெளன	-6089
▁விண்	-6090
போர்ட்	-6091
ப்பெண்	-6092
ப்பேன்	-6093
யாகும்	-6094
ள்ளேயே	-6095
ழ்ந்து	-6096
ையுடைய	-6097
▁அன்னை	-6098
▁இலட்ச	-6099
▁சாந்த	-6100
▁தகுதி	-6101
▁துக்க	-6102
▁பரம்ப	-6103
▁புஸ்த	-6104
▁போலக்	-6105
▁வேதம்	-6106
த்தியது	-6107
மையாகக்	-6108
ளத்தில்	-6109
ஸ்கிருத	-6110
ிரியின்	-6111
ெங்கும்	-6112
▁அதனைத்	-6113
▁அருந்த	-6114
▁அர்ப்ப	-6115
▁அளித்த	-6116
▁ஏர்க்க	-6117
▁ஏற்படு	-6118
▁கம்பீர	-6119
▁கலைஞர்	-6120
▁தந்தைய	-6121
▁தொல்லை	-6122
▁நண்பன்	-6123
▁பருவம்	-6124
▁வண்டிய	-6125
▁வயிற்ற	-6126
▁வழங்கி	-6127
▁விநாயக	-6128
▁வெட்டு	-6129
▁வேலையை	-6130
▁அடியில்	-6131
▁அறிவுறு	-6132
▁இவ்வுலக	-6133
▁உண்ணும்	-6134
▁உன்னைக்	-6135
▁எழுதிக்	-6136
▁கூறியது	-6137
▁செய்யக்	-6138
▁திருவரு	-6139
▁தேவையான	-6140
▁தொடங்கு	-6141
▁நகைச்சு	-6142
▁போர்க்க	-6143
▁மந்திரி	-6144
▁முதன்மை	-6145
▁வசித்து	-6146
▁வருமாறு	-6147
▁வாய்த்த	-6148
▁விளைந்த	-6149
▁அறிவிக்க	-6150
▁இப்படியே	-6151
▁சாலையில்	-6152
▁தொடர்ந்த	-6153
▁நம்மிடம்	-6154
▁பத்திரிக	-6155
▁பாய்ந்து	-6156
▁மாட்டான்	-6157
▁மோட்டார்	-6158
▁வாயிலில்	-6159
▁வைத்தார்	-6160
▁ஹெர்க்கு	-6161
▁அமெரிக்கா	-6162
▁அறிஞர்கள்	-6163
▁அழைத்துக்	-6164
▁உச்சியில்	-6165
▁உயர்ந்தது	-6166
▁எனப்படும்	-6167
▁கிடக்கும்	-6168
▁நேர்ந்தது	-6169
▁படித்தார்	-6170
▁பார்ப்பது	-6171
▁மனிதனுடைய	-6172
ிருந்தாலும்	-6173
▁இருக்கிறதே	-6174
▁கொள்கிறேன்	-6175
▁நடைபெற்றது	-6176
▁பார்த்துப்	-6177
▁வாசிக்கும்	-6178
ப்படுகின்றது	-6179
ப்படுவதில்லை	-6180
▁காலத்திற்கு	-6181
▁கூட்டத்தில்	-6182
▁சொன்னார்கள்	-6183
▁சொல்லவில்லை	-6184
▁அப்படித்தான்	-6185
▁ஆங்கிலத்தில்	-6186
▁இப்படித்தான்	-6187
▁காணப்படுகிறது	-6188
▁குடும்பத்தில்	-6189
▁வேண்டியதுதான்	-6190
ay	-6191
மன	-6192
ஸை	-6193
க்ஷ	-6194
நர்	-6195
ன்ட	-6196
ன்த	-6197
பவை	-6198
மாள	-6199
ரணி	-6200
றிஞ	-6201
வீர	-6202
ீம்	-6203
▁சன	-6204
▁ஜி	-6205
ப்பழ	-6206
ரிமை	-6207
ளைத்	-6208
ழைப்	-6209
வுரை	-6210
வேள்	-6211
ாசம்	-6212
ிரம்	-6213
ீங்க	-6214
▁இதழ	-6215
▁கரி	-6216
▁கலக	-6217
▁தூய	-6218
▁பவு	-6219
▁விம	-6220
க்கலை	-6221
ங்டன்	-6222
ண்கள்	-6223
தாகவே	-6224
ற்கால	-6225
வாகப்	-6226
ினாலே	-6227
ினைத்	-6228
▁ஆவர்	-6229
▁ஊதிய	-6230
▁ஏனைய	-6231
▁குலை	-6232
▁தும்	-6233
▁நஞ்ச	-6234
▁புன்	-6235
▁பொறி	-6236
▁யில்	-6237
▁வம்ச	-6238
▁வளம்	-6239
▁வழிப	-6240
▁விழை	-6241
க்குமா	-6242
டினான்	-6243
படியாக	-6244
மையைத்	-6245
வாயில்	-6246
வினான்	-6247
ாட்டம்	-6248
ுடனும்	-6249
▁அதற்க	-6250
▁இன்றி	-6251
▁கோலம்	-6252
▁சார்ப	-6253
▁சுத்த	-6254
▁செந்த	-6255
▁தவறாக	-6256
▁பிரசி	-6257
▁போலப்	-6258
▁மங்கை	-6259
▁மறந்த	-6260
▁மாதிர	-6261
▁மாந்த	-6262
▁வெண்ண	-6263
▁அறிகிற	-6264
▁ஆதலின்	-6265
▁இழப்பு	-6266
▁கருப்ப	-6267
▁கல்விய	-6268
▁காண்போ	-6269
▁கிழவன்	-6270
▁கூட்டி	-6271
▁சங்கம்	-6272
▁தலைமைய	-6273
▁நிபந்த	-6274
▁நிரம்ப	-6275
▁நிறைவு	-6276
▁பாண்டி	-6277
▁பெண்ணை	-6278
▁போற்று	-6279
▁மணிக்க	-6280
▁மதிப்ப	-6281
▁வரையறு	-6282
நாட்டின்	-6283
▁ஆற்றின்	-6284
▁எத்தகைய	-6285
▁ஏற்கனவே	-6286
▁கண்டால்	-6287
▁காண்பது	-6288
▁சந்நிதி	-6289
▁சபையார்	-6290
▁திருந்த	-6291
▁நடப்பது	-6292
▁பகுதியை	-6293
▁பட்டினி	-6294
▁பதினாறு	-6295
▁பாடினர்	-6296
▁பெருக்க	-6297
▁பெருமைய	-6298
▁போராட்ட	-6299
▁வளைந்து	-6300
த்திற்கான	-6301
ிருப்பார்	-6302
▁இன்பத்தை	-6303
▁உதகமண்டல	-6304
▁எதனையும்	-6305
▁என்பதைத்	-6306
▁எழுந்தது	-6307
▁கவலைப்பட	-6308
▁குறைபாடு	-6309
▁கொண்டுவர	-6310
▁மக்களும்	-6311
▁மேடையில்	-6312
▁வழிகாட்ட	-6313
▁விளங்கிய	-6314
▁வேளையில்	-6315
க்கப்பட்டு	-6316
ிருக்கின்ற	-6317
▁இறைவனுடைய	-6318
▁உதவுகிறது	-6319
▁என்கிறான்	-6320
▁கொள்கிறது	-6321
▁நாடகங்களை	-6322
▁பாண்டியன்	-6323
▁பொருட்கள்	-6324
▁வாழ்க்கைய	-6325
▁சேர்ந்தான்	-6326
▁சேர்ந்தார்	-6327
▁நினைத்துக்	-6328
▁பள்ளிக்கூட	-6329
▁விரும்பும்	-6330
▁எல்லோரையும்	-6331
▁அமைக்கப்பட்ட	-6332
▁உறுப்பினர்கள்	-6333
▁மற்றவர்களுக்கு	-6334
ப்பட்டிருக்கிறது	-6335
ge	-6336
ia	-6337
▁அஃ	-6338
▁சத	-6339
▁நை	-6340
▁ம்	-6341
என்ற	-6342
ங்க்	-6343
ட்டோ	-6344
ண்ணு	-6345
ன்னா	-6346
ம்மி	-6347
ர்த்	-6348
றிப்	-6349
வுமே	-6350
ஸ்கோ	-6351
ாமன்	-6352
ூற்ற	-6353
ெனக்	-6354
ெயர்	-6355
ோட்ட	-6356
▁அகல	-6357
▁அவல	-6358
▁எலி	-6359
▁ஜென	-6360
▁திண	-6361
▁தேன	-6362
▁நெற	-6363
▁பெள	-6364
க்கச்	-6365
டியது	-6366
டியான	-6367
த்துண	-6368
ல்லிய	-6369
ளவும்	-6370
ுண்டு	-6371
▁அகல்	-6372
▁இவரை	-6373
▁கான்	-6374
▁குடு	-6375
▁கும்	-6376
▁சிரு	-6377
▁டார்	-6378
▁தரம்	-6379
▁தாமே	-6380
▁நாணய	-6381
▁நேரே	-6382
▁ரோஜா	-6383
▁வளைய	-6384
▁வாரி	-6385
ய்த்து	-6386
வாழ்வு	-6387
ாடுகள்	-6388
ார்களா	-6389
ேந்திர	-6390
ையாகிய	-6391
▁உணர்வ	-6392
▁உயிரு	-6393
▁உறவின	-6394
▁ஏற்றி	-6395
▁ஒத்தி	-6396
▁சிறும	-6397
▁தகவல்	-6398
▁தலையை	-6399
▁தலைவர	-6400
▁திகழ்	-6401
▁திருட	-6402
▁பிரபு	-6403
▁பிராண	-6404
▁முதற்	-6405
▁விடுத	-6406
தற்குக்	-6407
த்தியாய	-6408
வதிலும்	-6409
ென்னும்	-6410
▁அதனைப்	-6411
▁அநுபவி	-6412
▁அர்ச்ச	-6413
▁அவளைத்	-6414
▁ஆரியர்	-6415
▁ஆழ்ந்த	-6416
▁இணைந்த	-6417
▁இளைஞன்	-6418
▁உறுப்ப	-6419
▁எதிராக	-6420
▁ஏமாற்ற	-6421
▁கையால்	-6422
▁சமாதான	-6423
▁ஜேம்ஸ்	-6424
▁தாரிணி	-6425
▁தீர்வு	-6426
▁தொல்கா	-6427
▁நேற்று	-6428
▁பலரும்	-6429
▁வர்க்க	-6430
▁வெள்ளி	-6431
டிக்கும்	-6432
த்திற்கே	-6433
ப்பற்றிய	-6434
மானாலும்	-6435
ளித்தார்	-6436
ிக்கிழமை	-6437
▁அன்பின்	-6438
▁அறிவின்	-6439
▁ஆற்றில்	-6440
▁ஆழ்ந்து	-6441
▁இவ்விரு	-6442
▁ஒத்துழை	-6443
▁கம்யூனி	-6444
▁காந்திய	-6445
▁குறும்ப	-6446
▁தன்னைப்	-6447
▁தன்மையை	-6448
▁தோல்விய	-6449
▁நாத்திக	-6450
▁நெருங்க	-6451
▁பகுதிகள	-6452
▁பொருட்ப	-6453
▁மாணிக்க	-6454
▁முனிவர்	-6455
▁முஸ்லிம	-6456
▁ரயில்வே	-6457
▁ரீதியாக	-6458
▁வீழ்ச்ச	-6459
▁அப்பாற்ப	-6460
▁அவற்றில்	-6461
▁ஆங்கிலேய	-6462
▁இதற்குக்	-6463
▁இரண்டொரு	-6464
▁உடம்பில்	-6465
▁உடலுக்கு	-6466
▁உண்மையாக	-6467
▁எப்படித்	-6468
▁கண்களில்	-6469
▁காத்துக்	-6470
▁சுட்டிக்	-6471
▁தொடர்பான	-6472
▁நமக்குக்	-6473
▁நெஞ்சில்	-6474
▁பிரிவினை	-6475
▁பெற்றோர்	-6476
▁மாவட்டம்	-6477
▁வேறுபட்ட	-6478
▁ஒன்றுதான்	-6479
▁காட்சிகள்	-6480
▁கேட்டதும்	-6481
▁சீக்கிரம்	-6482
▁சொல்லாமல்	-6483
▁தனித்தனிய	-6484
▁திருவாளர்	-6485
▁பரிந்துரை	-6486
▁பிரதிநிதி	-6487
▁மதுரையில்	-6488
▁விளையாட்ட	-6489
▁என்பதாகும்	-6490
▁என்பதுதான்	-6491
▁எப்படியும்	-6492
▁செல்வாக்கு	-6493
▁இருக்கிறாள்	-6494
▁நிறுவனங்கள்	-6495
▁நாடகத்திற்கு	-6496
▁நிறுவனத்தின்	-6497
▁நண்பர்களுக்கு	-6498
லெ	-6499
ீய	-6500
ுக	-6501
ோல	-6502
பாட	-6503
றது	-6504
▁ஆவ	-6505
டையை	-6506
பேர்	-6507
மகள்	-6508
மாலை	-6509
ரையை	-6510
ல்ட்	-6511
வரம்	-6512
வாதி	-6513
ூறிய	-6514
▁அன்	-6515
▁எக்	-6516
▁கைத	-6517
▁கோர	-6518
▁பயி	-6519
▁மின	-6520
▁மீத	-6521
▁வீச	-6522
▁வேஷ	-6523
டுகள்	-6524
ற்றல்	-6525
ளித்த	-6526
ையாய்	-6527
▁அழிய	-6528
▁உலகு	-6529
▁குடை	-6530
▁கூர்	-6531
▁சஞ்ச	-6532
▁சதுர	-6533
▁சுடு	-6534
▁சேரு	-6535
▁தோழா	-6536
▁நாயக	-6537
▁நீரோ	-6538
▁பலம்	-6539
▁பிணி	-6540
▁போரி	-6541
▁லூயி	-6542
▁வாள்	-6543
ட்டான்	-6544
நிலைப்	-6545
ம்பும்	-6546
ாமலும்	-6547
ியாகக்	-6548
ியிடம்	-6549
்களைத்	-6550
▁அண்டை	-6551
▁அரசர்	-6552
▁ஊற்று	-6553
▁கங்கை	-6554
▁கண்ணா	-6555
▁கற்பி	-6556
▁கலங்க	-6557
▁குண்ட	-6558
▁கேள்வ	-6559
▁கைகள்	-6560
▁கையாள	-6561
▁செவ்வ	-6562
▁சேரன்	-6563
▁சோழன்	-6564
▁தங்கை	-6565
▁தாசர்	-6566
▁தாராள	-6567
▁தொல்ல	-6568
▁நற்கு	-6569
▁நிமிட	-6570
▁படைத்	-6571
▁பண்ணை	-6572
▁பெருக	-6573
▁வியாழ	-6574
ர்கட்கு	-6575
வதாகும்	-6576
ிக்கொள்	-6577
ூருக்கு	-6578
ைக்குள்	-6579
▁உட்கார	-6580
▁எங்களை	-6581
▁கடவுளை	-6582
▁கருணாக	-6583
▁குறைவு	-6584
▁கையெழு	-6585
▁தாண்டி	-6586
▁தாயும்	-6587
▁நடுக்க	-6588
▁நடுங்க	-6589
▁பரப்பு	-6590
▁பிரயாண	-6591
▁பிறப்ப	-6592
▁பெரியோ	-6593
▁மேற்கே	-6594
▁வெட்டி	-6595
▁ஸ்காட்	-6596
கின்றேன்	-6597
ப்படுகிற	-6598
மாட்டான்	-6599
▁அங்கேயே	-6600
▁அடர்ந்த	-6601
▁அப்பால்	-6602
▁அறியாமை	-6603
▁இதற்காக	-6604
▁உன்னைப்	-6605
▁ஒன்றுமே	-6606
▁ஒன்றைக்	-6607
▁ஒழுங்கு	-6608
▁கண்ணில்	-6609
▁செயல்கள	-6610
▁செயல்பட	-6611
▁தலைவராக	-6612
▁நம்மைப்	-6613
▁நாய்கள்	-6614
▁நிலையான	-6615
▁பன்முறை	-6616
▁மரியாதை	-6617
▁விமானம்	-6618
களுக்குப்	-6619
களெல்லாம்	-6620
க்களுக்கு	-6621
▁அதற்கும்	-6622
▁அமுதவல்ல	-6623
▁அர்த்தம்	-6624
▁இப்படிக்	-6625
▁எதிர்கால	-6626
▁கிடைத்து	-6627
▁கூர்ந்து	-6628
▁சாப்பாடு	-6629
▁சிறந்தது	-6630
▁சுற்றிக்	-6631
▁செயல்களை	-6632
▁செய்தேன்	-6633
▁துணிந்து	-6634
▁நாட்டுக்	-6635
▁மூன்றாம்	-6636
▁வேண்டுமே	-6637
▁வேற்றுமை	-6638
ிருக்கிறதே	-6639
▁அனுபவிக்க	-6640
▁அற்புதமான	-6641
▁அவர்களால்	-6642
▁இருந்தேன்	-6643
▁இருப்பான்	-6644
▁காடுகளில்	-6645
▁நடக்கிறது	-6646
▁பிராந்திய	-6647
▁மேற்கொள்ள	-6648
ப்படுவதற்கு	-6649
▁ஆகிவிட்டது	-6650
▁இதைப்பற்றி	-6651
▁இருக்கிறதா	-6652
▁காட்சியில்	-6653
▁காட்டினார்	-6654
▁காண்கிறோம்	-6655
▁திட்டமிட்ட	-6656
▁தேவையில்லை	-6657
▁விளங்கியது	-6658
த்துக்கொண்டே	-6659
▁இன்றியமையாத	-6660
▁எழுந்தருளிய	-6661
▁குழந்தையின்	-6662
▁சிவபெருமான்	-6663
▁நம்புகிறேன்	-6664
▁பேசிக்கொண்ட	-6665
▁வருகின்றனர்	-6666
ப்படுகின்றனர்	-6667
▁அக்காலத்தில்	-6668
▁இருக்கட்டும்	-6669
▁உங்களுக்குத்	-6670
▁ஏற்றுக்கொள்ள	-6671
▁ஒவ்வொருவரும்	-6672
▁தெரிந்துகொள்ள	-6673
▁எடுத்துக்காட்ட	-6674
ணவ	-6675
ித	-6676
ஒரு	-6677
சபை	-6678
பாச	-6679
மின	-6680
மீக	-6681
றச்	-6682
ாபி	-6683
ிலா	-6684
ுமோ	-6685
்கொ	-6686
▁எஜ	-6687
ச்சா	-6688
பார்	-6689
பிள்	-6690
ம்பட	-6691
ருகே	-6692
வைச்	-6693
ஸ்கி	-6694
ாகம்	-6695
▁ஃபெ	-6696
▁அத்	-6697
▁அவு	-6698
▁ஆகு	-6699
▁ஆரு	-6700
▁எண்	-6701
▁கோய	-6702
▁டிய	-6703
▁தழை	-6704
▁நீர	-6705
▁முட	-6706
▁மூள	-6707
▁மேஜ	-6708
▁மோச	-6709
▁வடக	-6710
▁வரவ	-6711
என்று	-6712
டைந்த	-6713
னியன்	-6714
மொழிய	-6715
ர்களோ	-6716
வரைக்	-6717
ாய்வு	-6718
ாற்போ	-6719
ியோடு	-6720
்துறை	-6721
▁அசல்	-6722
▁ஆனது	-6723
▁இலவச	-6724
▁உற்ற	-6725
▁உலோக	-6726
▁எனச்	-6727
▁கதவு	-6728
▁கலிய	-6729
▁கையை	-6730
▁சர்வ	-6731
▁சின்	-6732
▁செழி	-6733
▁நாமே	-6734
▁நார்	-6735
▁நிபு	-6736
▁பழகு	-6737
▁பாவை	-6738
▁பிரத	-6739
▁மேதை	-6740
▁யூகி	-6741
▁வர்ண	-6742
டையார்	-6743
ன்தான்	-6744
ன்னும்	-6745
ன்பால்	-6746
மாட்டி	-6747
வதைவிட	-6748
ுக்கள்	-6749
▁அக்கா	-6750
▁இட்டு	-6751
▁உயரம்	-6752
▁உலகப்	-6753
▁ஒற்றை	-6754
▁கட்டை	-6755
▁கதாபா	-6756
▁தற்கா	-6757
▁திறன்	-6758
▁நாவல்	-6759
▁பிறவி	-6760
▁பெறாத	-6761
▁போவது	-6762
▁மெச்ச	-6763
▁வாரம்	-6764
▁விசேஷ	-6765
▁விழாவ	-6766
▁வேட்க	-6767
க்கியம்	-6768
ப்புகளை	-6769
▁அங்கீக	-6770
▁அடிகள்	-6771
▁அறியாம	-6772
▁ஆலோசனை	-6773
▁ஆல்பம்	-6774
▁இக்கால	-6775
▁இயங்கு	-6776
▁இரயில்	-6777
▁எஞ்சிய	-6778
▁எந்தத்	-6779
▁கதவைத்	-6780
▁தில்லை	-6781
▁தூய்மை	-6782
▁நடைபெற	-6783
▁நாட்டை	-6784
▁பட்டது	-6785
▁பத்தின	-6786
▁பூண்டு	-6787
▁பெருமி	-6788
▁மனத்தை	-6789
▁மலைகள்	-6790
▁மார்க்	-6791
▁லட்சிய	-6792
கின்றான்	-6793
க்கின்றன	-6794
க்கொண்டே	-6795
ட்டியார்	-6796
▁அதிகமாய	-6797
▁அதிலும்	-6798
▁அனுபவம்	-6799
▁இடங்கள்	-6800
▁இலட்சிய	-6801
▁என்பார்	-6802
▁எழுதும்	-6803
▁ஒற்றுமை	-6804
▁கண்காணி	-6805
▁கவர்னர்	-6806
▁காலத்தை	-6807
▁கால்கள்	-6808
▁குடித்த	-6809
▁சங்கிலி	-6810
▁செயலில்	-6811
▁திட்டமி	-6812
▁திருவிள	-6813
▁தொழிலாள	-6814
▁பிள்ளைய	-6815
▁பெருங்க	-6816
▁மின்சார	-6817
▁முடித்த	-6818
▁முதலாளி	-6819
▁மூர்த்த	-6820
ப்பட்டால்	-6821
ப்பட்டுப்	-6822
▁அதிகாரம்	-6823
▁இதற்குள்	-6824
▁இவற்றில்	-6825
▁எண்ணிக்க	-6826
▁கருவிகள்	-6827
▁குறையும்	-6828
▁கொழும்பு	-6829
▁கோயிலுள்	-6830
▁சமுதாயம்	-6831
▁சென்றாள்	-6832
▁செய்தாள்	-6833
▁துன்புறு	-6834
▁பனிரண்டு	-6835
▁பிரெஞ்சு	-6836
▁பெற்றுக்	-6837
▁பொருளின்	-6838
▁மனிதர்கள	-6839
▁யாரையும்	-6840
▁யாழ்ப்பா	-6841
▁வேடிக்கை	-6842
த்துக்குக்	-6843
ப்படுத்திய	-6844
▁அவர்களைக்	-6845
▁எதிர்பார்	-6846
▁கழுத்தில்	-6847
▁கொடுங்கோள	-6848
▁நிச்சயமாக	-6849
▁வண்டியில்	-6850
▁ஆண்டுகளில்	-6851
▁ஆப்பிரிக்க	-6852
▁இரண்டையும்	-6853
▁உறுப்பினர்	-6854
▁எழுதப்பட்ட	-6855
▁காணப்படும்	-6856
▁சரித்திரம்	-6857
▁சாப்பிட்டு	-6858
▁சேர்ந்தோம்	-6859
▁டால்ஸ்டாய்	-6860
▁தூத்துக்கு	-6861
▁பணியாற்றிய	-6862
▁விலங்குகள்	-6863
த்தினின்றும்	-6864
▁உறுப்பினராக	-6865
▁சுவாமிகளின்	-6866
▁தொழில்நுட்ப	-6867
▁தோன்றவில்லை	-6868
▁பேராசிரியர்	-6869
▁முடிவதில்லை	-6870
▁வைத்திருக்க	-6871
▁செய்கின்றனர்	-6872
▁கோடைக்கானலில்	-6873
".	-6874
nt	-6875
நட	-6876
மக	-6877
போன	-6878
மாவ	-6879
றல்	-6880
றவு	-6881
வேக	-6882
ிகோ	-6883
ெக்	-6884
நலம்	-6885
முறு	-6886
ராம்	-6887
ஸ்மி	-6888
▁அச்	-6889
▁ஆலய	-6890
▁ஓசை	-6891
▁கனட	-6892
▁காச	-6893
▁சமண	-6894
▁சலு	-6895
▁சோக	-6896
▁துல	-6897
▁பரா	-6898
▁வெள	-6899
தாகப்	-6900
ல்லாத	-6901
ாதிரி	-6902
ீட்டு	-6903
ுமாறு	-6904
ையாடு	-6905
▁இகழ்	-6906
▁இராஜ	-6907
▁உங்க	-6908
▁கலைய	-6909
▁சிவா	-6910
▁சூரப	-6911
▁பொலி	-6912
▁மணிய	-6913
▁மில்	-6914
▁ரஷ்ய	-6915
▁வீதி	-6916
ச்சேரி	-6917
துதான்	-6918
த்திற்	-6919
ப்போர்	-6920
ம்பில்	-6921
ற்றின்	-6922
ழுக்கு	-6923
வித்து	-6924
ார்களோ	-6925
ிக்கத்	-6926
▁அறிவை	-6927
▁ஆடும்	-6928
▁எட்டி	-6929
▁என்னே	-6930
▁கட்டட	-6931
▁கல்வெ	-6932
▁கழகம்	-6933
▁கூடக்	-6934
▁சவாரி	-6935
▁சூட்ட	-6936
▁தட்டி	-6937
▁தின்ன	-6938
▁நீர்ம	-6939
▁பிற்ப	-6940
▁மயக்க	-6941
▁முன்க	-6942
டித்தது	-6943
ப்பாளர்	-6944
ப்பெற்ற	-6945
▁அறிஞர்	-6946
▁இலங்கை	-6947
▁எவரும்	-6948
▁தங்களை	-6949
▁திருமு	-6950
▁தீங்கு	-6951
▁நிச்சய	-6952
▁நீர்வீ	-6953
▁முத்தி	-6954
▁வானொலி	-6955
▁விரிவு	-6956
▁ஹிந்து	-6957
ப்பாட்டு	-6958
வதற்குப்	-6959
ையாகவும்	-6960
▁அடித்து	-6961
▁அறிவும்	-6962
▁இருநூறு	-6963
▁இவர்களை	-6964
▁ஈடுபாடு	-6965
▁எண்ணற்ற	-6966
▁ஒருவாறு	-6967
▁கவுந்தி	-6968
▁கொள்வர்	-6969
▁செம்பிய	-6970
▁செயற்கை	-6971
▁ஜாக்கிர	-6972
▁தண்ணிர்	-6973
▁துறைமுக	-6974
▁தென்கிழ	-6975
▁நடத்தின	-6976
▁நீங்கிய	-6977
▁பற்றித்	-6978
▁பிரிந்த	-6979
▁பெயரும்	-6980
▁பெறலாம்	-6981
▁விற்பனை	-6982
ப்பட்டான்	-6983
▁அருமையான	-6984
▁அவற்றுள்	-6985
▁இவருக்கு	-6986
▁உடனடியாக	-6987
▁என்னுடன்	-6988
▁குடியரசு	-6989
▁கூப்பிடு	-6990
▁சங்காரம்	-6991
▁சாய்ந்து	-6992
▁சிரிப்பு	-6993
▁சிறையில்	-6994
▁சுற்றுலா	-6995
▁திருவிழா	-6996
▁நாய்க்கு	-6997
▁நினைவில்	-6998
▁நிரம்பிய	-6999
▁பெயர்கள்	-7000
▁பேசினார்	-7001
▁முதலியவை	-7002
▁விரித்து	-7003
▁வீதியில்	-7004
▁வைக்கும்	-7005
ிருப்பதால்	-7006
▁அவர்களைத்	-7007
▁இப்போதும்	-7008
▁கொள்ளாமல்	-7009
▁பதினான்கு	-7010
▁பிள்ளைகள்	-7011
▁புண்ணியம்	-7012
▁வந்துவிடு	-7013
▁வரிசையில்	-7014
▁விசித்திர	-7015
▁விஞ்ஞானம்	-7016
▁விரும்பிய	-7017
▁வீரம்மாள்	-7018
▁இடத்திற்கு	-7019
▁என்பதற்காக	-7020
▁கிடைக்காது	-7021
▁சமீபத்தில்	-7022
▁சேர்த்துக்	-7023
▁துன்பங்கள்	-7024
▁தொடங்கினர்	-7025
▁தொழிற்சாலை	-7026
▁பக்கத்திலே	-7027
▁பார்ப்போம்	-7028
▁அதிலிருந்து	-7029
▁கல்லூரியில்	-7030
▁செய்துகொண்ட	-7031
▁செய்வார்கள்	-7032
▁பொன்னம்பலம்	-7033
▁விடுவார்கள்	-7034
▁ஒப்புக்கொண்ட	-7035
▁சொல்லுகிறார்	-7036
▁இருக்கும்போது	-7037
▁கண்டுபிடித்து	-7038
▁செய்யவேண்டும்	-7039
?"	-7040
ad	-7041
id	-7042
கித	-7043
சைய	-7044
டான	-7045
ரவு	-7046
றக்	-7047
வதா	-7048
வளை	-7049
ஷ்க	-7050
ாளே	-7051
▁Ch	-7052
▁கற	-7053
டித்	-7054
ட்டே	-7055
நூல்	-7056
ப்பொ	-7057
மணம்	-7058
மரம்	-7059
மேன்	-7060
ரையே	-7061
ல்லி	-7062
ாமணி	-7063
ிகன்	-7064
ிகார	-7065
▁அபூ	-7066
▁அர்	-7067
▁ஓய்	-7068
▁கடல	-7069
▁சைவ	-7070
▁ஜாத	-7071
▁துள	-7072
▁பிட	-7073
▁ஹால	-7074
க்கரி	-7075
த்தாள	-7076
ரியது	-7077
ாதவர்	-7078
ிக்கு	-7079
ினைப்	-7080
ேயாம்	-7081
▁அற்ப	-7082
▁ஆசிய	-7083
▁உதார	-7084
▁எள்ள	-7085
▁கணித	-7086
▁குலு	-7087
▁கூலி	-7088
▁சன்ன	-7089
▁சாதன	-7090
▁சுலோ	-7091
▁துளை	-7092
▁தொடு	-7093
▁நெகி	-7094
▁பலன்	-7095
▁பாலி	-7096
▁பாழ்	-7097
▁பிளா	-7098
▁புவி	-7099
▁போதி	-7100
▁ரசிக	-7101
▁வங்க	-7102
▁விலக	-7103
▁வெடி	-7104
ச்சியை	-7105
ச்சொல்	-7106
டிக்கு	-7107
ட்டனர்	-7108
ணங்கள்	-7109
த்திக்	-7110
னியில்	-7111
ப்பிரி	-7112
றியும்	-7113
ாசிரிய	-7114
ாரிடம்	-7115
▁அணுகு	-7116
▁அவதார	-7117
▁எனக்க	-7118
▁ஓடும்	-7119
▁கடற்ப	-7120
▁கத்தோ	-7121
▁கவுன்	-7122
▁காண்க	-7123
▁குறைஷ	-7124
▁குளம்	-7125
▁சரிவு	-7126
▁சுவர்	-7127
▁சொல்க	-7128
▁ஜம்பு	-7129
▁தயார்	-7130
▁தாண்ட	-7131
▁தானிய	-7132
▁தேங்க	-7133
▁தோற்க	-7134
▁நிக்க	-7135
▁நிராக	-7136
▁பலவித	-7137
▁பெயரி	-7138
▁முயல்	-7139
▁ராணுவ	-7140
▁வசூல்	-7141
க்களைப்	-7142
விடுவர்	-7143
ாவிலும்	-7144
▁அம்மைய	-7145
▁அவரைக்	-7146
▁அவைகள்	-7147
▁ஆட்சேப	-7148
▁என்னவெ	-7149
▁கிரீன்	-7150
▁துயரம்	-7151
▁தூங்கு	-7152
▁தோறும்	-7153
▁நீரில்	-7154
▁பக்கவா	-7155
▁பங்களி	-7156
▁பயனற்ற	-7157
▁பாதிரி	-7158
▁பாவலர்	-7159
▁பெற்றன	-7160
▁பேரும்	-7161
▁போனான்	-7162
▁மறுபடி	-7163
▁முதலாக	-7164
▁முனியா	-7165
▁முழக்க	-7166
▁வழிகள்	-7167
▁வழிபடு	-7168
▁விடுவி	-7169
▁விமரிச	-7170
▁வேற்று	-7171
ந்தோறும்	-7172
ர்கின்றன	-7173
லாயிற்று	-7174
விட்டுச்	-7175
வுமில்லை	-7176
▁அருங்கா	-7177
▁அறையில்	-7178
▁இம்முறை	-7179
▁உலகத்தை	-7180
▁கண்டான்	-7181
▁நிகழும்	-7182
▁நிலைத்த	-7183
▁பத்துப்	-7184
▁பிரிவின	-7185
▁புராணம்	-7186
▁மிகுதிய	-7187
▁முருகப்	-7188
▁விடுதல்	-7189
▁விடுவது	-7190
▁வெள்ளம்	-7191
த்துக்காக	-7192
ிக்கிறேன்	-7193
▁அமைகிறது	-7194
▁அளித்தது	-7195
▁இருக்கக்	-7196
▁இருப்பதை	-7197
▁உனக்குத்	-7198
▁எதற்கும்	-7199
▁கட்டுமான	-7200
▁குடியிரு	-7201
▁குனிந்து	-7202
▁கேட்டேன்	-7203
▁சர்க்கரை	-7204
▁சூழ்ந்து	-7205
▁தத்துவம்	-7206
▁தெரியாதா	-7207
▁தோடர்கள்	-7208
▁நடைபெற்ற	-7209
▁நண்பர்கள	-7210
▁பிரித்து	-7211
▁பெருமாள்	-7212
▁பேசினான்	-7213
▁மலைகளில்	-7214
▁விட்டுச்	-7215
▁இயற்கையாக	-7216
▁உணர்ச்சிய	-7217
▁எதிர்ப்பு	-7218
▁குழந்தைகள	-7219
▁நாடுகளில்	-7220
▁நிர்வாகம்	-7221
▁பார்த்தது	-7222
▁பிறக்கும்	-7223
▁மாதிரியான	-7224
▁மிகுதியாக	-7225
▁வித்தியாச	-7226
▁விஷயங்கள்	-7227
ர்களுக்குப்	-7228
▁அங்கிருந்த	-7229
▁அதிகாரிகள்	-7230
▁அவ்வப்போது	-7231
▁இதுவரையில்	-7232
▁எதிர்பாராத	-7233
▁கத்தோலிக்க	-7234
▁கொடுத்தால்	-7235
▁செய்கிறேன்	-7236
▁தான்பிரீன்	-7237
▁பார்த்தாள்	-7238
▁பேசுகிறார்	-7239
▁போதெல்லாம்	-7240
▁மாப்பிள்ளை	-7241
▁மாற்றங்கள்	-7242
▁முனியாண்டி	-7243
▁ஆண்டுதோறும்	-7244
▁எதிர்த்துப்	-7245
▁தொல்காப்பிய	-7246
▁பிரார்த்தனை	-7247
▁வார்த்தைகள்	-7248
▁அயோத்திதாசர்	-7249
▁அருங்காட்சிய	-7250
▁இருப்பார்கள்	-7251
▁என்கிறார்கள்	-7252
▁தொலைக்காட்சி	-7253
▁பயன்படுகிறது	-7254
▁மெய்ப்பொருள்	-7255
▁இருக்கவேண்டும்	-7256
▁வைத்திருக்கும்	-7257
",	-7258
,"	-7259
ak	-7260
ap	-7261
ob	-7262
od	-7263
க்ஞ	-7264
ங்ட	-7265
தலே	-7266
தைய	-7267
நிற	-7268
ம்த	-7269
ஸ்ஸ	-7270
ிகா	-7271
ிசை	-7272
▁டீ	-7273
▁டொ	-7274
கந்த	-7275
விழி	-7276
ாபதி	-7277
ாளும	-7278
ூடம்	-7279
▁அவத	-7280
▁ஆயு	-7281
▁ஊடக	-7282
▁ஊரை	-7283
▁கவல	-7284
▁கேர	-7285
▁ஞாய	-7286
▁தாழ	-7287
▁நழு	-7288
▁பலி	-7289
ட்டல்	-7290
ணிந்த	-7291
த்தாக	-7292
நாயகி	-7293
னாகிய	-7294
ப்பம்	-7295
ற்செய	-7296
லத்தை	-7297
லியன்	-7298
வனைக்	-7299
ாக்கி	-7300
ிரியா	-7301
ுள்ளன	-7302
ொழில்	-7303
ொழுதே	-7304
்கும்	-7305
▁உணவை	-7306
▁ஒழிய	-7307
▁கிரி	-7308
▁கிளா	-7309
▁குகை	-7310
▁சியா	-7311
▁தட்ப	-7312
▁திறன	-7313
▁தூது	-7314
▁நகரா	-7315
▁நடமா	-7316
▁நிலா	-7317
▁நீரை	-7318
▁பலிய	-7319
▁பெல்	-7320
▁யாரு	-7321
▁ரத்த	-7322
▁வலம்	-7323
▁வாசக	-7324
▁ஸ்ட்	-7325
▁ஹார்	-7326
ங்கின்	-7327
செய்து	-7328
தியைப்	-7329
னையின்	-7330
ப்பதாக	-7331
ப்பிடி	-7332
மூன்று	-7333
லாகாது	-7334
▁அதிலே	-7335
▁அத்து	-7336
▁அளவில	-7337
▁ஆட்டு	-7338
▁ஆரவார	-7339
▁ஈண்டு	-7340
▁ஒட்டு	-7341
▁ஒளிபர	-7342
▁கிழவி	-7343
▁கூச்ச	-7344
▁சங்கர	-7345
▁சிவன்	-7346
▁செய்ப	-7347
▁சேகரி	-7348
▁சோழர்	-7349
▁சோவிய	-7350
▁டவுன்	-7351
▁நியமி	-7352
▁நிர்வ	-7353
▁நுண்ண	-7354
▁நேர்ம	-7355
▁பண்ணி	-7356
▁பதினே	-7357
▁பலவீன	-7358
▁பாரதி	-7359
▁பூச்ச	-7360
▁போதிய	-7361
▁போராட	-7362
▁வயதான	-7363
கத்தின்	-7364
க்களைக்	-7365
க்கவும்	-7366
க்குகள்	-7367
மூர்த்த	-7368
விலுள்ள	-7369
ாளுமன்ற	-7370
ிற்குப்	-7371
ிலேதான்	-7372
ைக்குக்	-7373
்கின்றன	-7374
்தோறும்	-7375
▁அக்கால	-7376
▁அடக்கு	-7377
▁அடுக்க	-7378
▁அல்லாத	-7379
▁அழைத்த	-7380
▁ஆரஞ்சு	-7381
▁உச்சரி	-7382
▁உணவுப்	-7383
▁எதற்கு	-7384
▁எதிர்வ	-7385
▁எழுபது	-7386
▁ஒருவித	-7387
▁காதலன்	-7388
▁காலில்	-7389
▁கோயிலை	-7390
▁சிறுமி	-7391
▁சிற்று	-7392
▁சிவந்த	-7393
▁ஜனநாயக	-7394
▁தாங்கி	-7395
▁தாயின்	-7396
▁பக்குவ	-7397
▁பலமுறை	-7398
▁பிரமாத	-7399
▁போடும்	-7400
▁போனார்	-7401
▁மூச்சு	-7402
▁விழும்	-7403
▁வீடியோ	-7404
னுக்குச்	-7405
▁அம்மாள்	-7406
▁கால்களை	-7407
▁சகோதரர்	-7408
▁சிக்கல்	-7409
▁ஜெர்மன்	-7410
▁தன்னைத்	-7411
▁தூக்கம்	-7412
▁தோன்றின	-7413
▁நாச்சிய	-7414
▁நியாயம்	-7415
▁நிலப்பர	-7416
▁படிப்பு	-7417
▁பார்வதி	-7418
▁முந்தைய	-7419
▁வந்தவர்	-7420
▁வருவாய்	-7421
▁வழங்கிய	-7422
▁வாழ்தல்	-7423
▁வியப்பு	-7424
▁அத்துடன்	-7425
▁அப்படிக்	-7426
▁அப்படிப்	-7427
▁இச்செய்த	-7428
▁ஈடுபட்டு	-7429
▁எனக்குச்	-7430
▁கிடந்தது	-7431
▁கூடுதலாக	-7432
▁தாழ்ந்து	-7433
▁நன்றாகத்	-7434
▁நாராயணன்	-7435
▁நினைந்து	-7436
▁நோக்கித்	-7437
▁பாராட்டி	-7438
▁பார்ப்பன	-7439
▁போகிறோம்	-7440
▁போனாலும்	-7441
▁மூலையில்	-7442
▁மேற்பட்ட	-7443
▁வழக்கமாக	-7444
▁வீட்டுக்	-7445
ச்சாரியார்	-7446
ிகளுக்கும்	-7447
▁அரவிந்தன்	-7448
▁அழுக்காறு	-7449
▁ஆரம்பித்த	-7450
▁உங்களுடைய	-7451
▁எடுத்துப்	-7452
▁காட்டுவது	-7453
▁சுட்டிக்க	-7454
▁பயின்றார்	-7455
▁பார்க்கப்	-7456
▁பெறவில்லை	-7457
▁போகட்டும்	-7458
▁வருகிறேன்	-7459
▁வருவதற்கு	-7460
▁விடவில்லை	-7461
▁அபிப்பிராய	-7462
▁இவ்விரண்டு	-7463
▁எழுத்தாளர்	-7464
▁காரணத்தால்	-7465
▁சாயங்காலம்	-7466
▁செய்கின்றன	-7467
▁தொண்டர்கள்	-7468
▁தோன்றிற்று	-7469
▁நிற்கிறான்	-7470
▁விடுகிறான்	-7471
வர்களுக்கும்	-7472
▁அப்போதுதான்	-7473
▁புரியவில்லை	-7474
▁பெரியவர்கள்	-7475
▁உள்ளடக்கியது	-7476
▁கட்டப்பட்டது	-7477
▁குழந்தைகளும்	-7478
▁மாவட்டத்தின்	-7479
▁மாவட்டத்தில்	-7480
▁அடிப்படையாகக்	-7481
▁கொள்கிறார்கள்	-7482
▁பார்த்தார்கள்	-7483
▁வைத்துக்கொண்டு	-7484
▁அமைந்திருக்கும்	-7485
▁அழைத்துக்கொண்டு	-7486
um	-7487
un	-7488
ஜீ	-7489
மத	-7490
றா	-7491
ஹோ	-7492
ேச	-7493
காச	-7494
ணாம	-7495
நான	-7496
யிர	-7497
றம்	-7498
ழல்	-7499
ாற்	-7500
ாளி	-7501
சிப்	-7502
னூர்	-7503
ம்பொ	-7504
வதேச	-7505
ஸ்து	-7506
ாதல்	-7507
ாதிப	-7508
ார்ட	-7509
ாவர்	-7510
ாவிய	-7511
ுதல்	-7512
்திற	-7513
▁கொழ	-7514
▁கோண	-7515
▁தாக	-7516
▁தில	-7517
▁நூல	-7518
▁பரவ	-7519
▁பாண	-7520
▁பிச	-7521
▁மீன	-7522
களுள்	-7523
ணர்வு	-7524
ந்தைய	-7525
னியம்	-7526
ய்த்த	-7527
றிகள்	-7528
றிஞர்	-7529
ாக்ஸ்	-7530
ாண்மை	-7531
ாரால்	-7532
ீல்ட்	-7533
▁அரசி	-7534
▁ஆயின	-7535
▁ஊட்ட	-7536
▁எந்ந	-7537
▁ஐயம்	-7538
▁கரிய	-7539
▁காலக	-7540
▁கேலி	-7541
▁கொல்	-7542
▁செரு	-7543
▁தயவு	-7544
▁தவறி	-7545
▁துரோ	-7546
▁தொடர	-7547
▁பற்ப	-7548
▁பிடு	-7549
▁மீனா	-7550
▁மேலை	-7551
▁ராஜ்	-7552
▁வின்	-7553
▁வீசு	-7554
கிற்கு	-7555
சுக்கு	-7556
பிள்ளை	-7557
லையில்	-7558
ளித்து	-7559
வதாகச்	-7560
வானேன்	-7561
ியாகிய	-7562
ிற்காக	-7563
ீர்களே	-7564
ும்கூட	-7565
▁அந்தண	-7566
▁அருவி	-7567
▁ஆங்கா	-7568
▁ஆனார்	-7569
▁இதயம்	-7570
▁உரையா	-7571
▁உற்று	-7572
▁கற்பு	-7573
▁காகித	-7574
▁கிழமை	-7575
▁கூடவே	-7576
▁கைகளை	-7577
▁தப்பு	-7578
▁தள்ளு	-7579
▁நன்று	-7580
▁நீக்க	-7581
▁பாலசு	-7582
▁பெண்ட	-7583
▁மங்கல	-7584
▁மிச்ச	-7585
▁யுத்த	-7586
▁வள்ளு	-7587
▁விலாச	-7588
▁ஹென்ற	-7589
க்கலாம்	-7590
ச்சாரம்	-7591
லிங்கம்	-7592
ளித்தது	-7593
▁அறிக்க	-7594
▁அல்லர்	-7595
▁ஆறுமுக	-7596
▁இரட்டை	-7597
▁உழைக்க	-7598
▁ஊக்கம்	-7599
▁கடினம்	-7600
▁காஞ்சி	-7601
▁காணோம்	-7602
▁குடிசை	-7603
▁குத்து	-7604
▁கூறிக்	-7605
▁கொம்பு	-7606
▁கோவில்	-7607
▁தயாராக	-7608
▁தேடிக்	-7609
▁பட்டின	-7610
▁பணிகள்	-7611
▁பண்டைய	-7612
▁பரவலாக	-7613
▁பழமொழி	-7614
▁பொதுக்	-7615
▁மறுக்க	-7616
▁மாறும்	-7617
▁ரத்தம்	-7618
▁ராகவன்	-7619
▁வேள்வி	-7620
ப்படாமல்	-7621
ர்க்குத்	-7622
வர்களால்	-7623
வர்களைக்	-7624
வுக்குக்	-7625
வெளியில்	-7626
ார்களாம்	-7627
▁அடையும்	-7628
▁அதன்படி	-7629
▁அதையும்	-7630
▁அநேகமாக	-7631
▁ஆனந்தம்	-7632
▁இங்குப்	-7633
▁இங்ஙனம்	-7634
▁இரக்கம்	-7635
▁உபதேசம்	-7636
▁எதிரில்	-7637
▁என்றுரை	-7638
▁ஒன்றில்	-7639
▁கணக்கான	-7640
▁கஸ்தூரி	-7641
▁கூறினர்	-7642
▁சர்வதேச	-7643
▁சொல்லக்	-7644
▁தக்கபடி	-7645
▁தினமும்	-7646
▁நிகழ்வு	-7647
▁பாதிக்க	-7648
▁பிரபஞ்ச	-7649
▁பேர்கள்	-7650
▁மகிழ்வு	-7651
▁மலைமீது	-7652
▁மாற்றிய	-7653
▁முந்திய	-7654
▁முயன்று	-7655
▁முறைகள்	-7656
▁வரவேற்ற	-7657
▁வாய்ப்ப	-7658
▁வேலைகள்	-7659
▁வைத்தது	-7660
டினார்கள்	-7661
▁ஆதிக்கம்	-7662
▁ஓடுகிறது	-7663
▁கட்டிடம்	-7664
▁களத்தில்	-7665
▁காக்கும்	-7666
▁கொண்டும்	-7667
▁சந்திக்க	-7668
▁சமாச்சார	-7669
▁சிந்தனைய	-7670
▁சென்றேன்	-7671
▁தீர்த்து	-7672
▁நடத்தும்	-7673
▁நிபந்தனை	-7674
▁நிறுத்து	-7675
▁நுழைந்து	-7676
▁நோக்கிப்	-7677
▁பயனில்லை	-7678
▁பயன்பாடு	-7679
▁பலவிதமான	-7680
▁புரியும்	-7681
▁பெற்றனர்	-7682
▁பேசினால்	-7683
▁பொருளும்	-7684
▁போகிறான்	-7685
▁மணந்தார்	-7686
▁வயந்தகன்	-7687
▁விட்டுத்	-7688
▁விரிந்து	-7689
த்துக்கொள்	-7690
▁அடைந்தான்	-7691
▁இளைஞர்கள்	-7692
▁உலகத்தோடு	-7693
▁எல்லையில்	-7694
▁குறைந்தது	-7695
▁செயல்பாடு	-7696
▁சேர்ந்தது	-7697
▁தயாரிப்பு	-7698
▁நகைச்சுவை	-7699
▁நிலத்தில்	-7700
▁மன்னர்கள்	-7701
▁மொழிபெயர்	-7702
▁வெளிப்புற	-7703
▁வெளியேற்ற	-7704
▁அவருக்குத்	-7705
▁ஆங்கிலேயர்	-7706
▁ஒருவனுக்கு	-7707
▁கதாபாத்திர	-7708
▁காப்பாற்று	-7709
▁சமூகத்தின்	-7710
▁சிவபெருமான	-7711
▁நல்லவர்கள்	-7712
▁பெறுகின்றன	-7713
▁மேற்கொண்டு	-7714
▁ரூபாய்க்கு	-7715
▁வந்தவர்கள்	-7716
▁வழங்கினார்	-7717
▁விளக்குகள்	-7718
▁கட்டுப்பாடு	-7719
▁செய்யுங்கள்	-7720
▁படுக்கையில்	-7721
▁பெற்றோர்கள்	-7722
▁முழுவதையும்	-7723
▁விஞ்ஞானிகள்	-7724
▁வைத்திருந்த	-7725
▁நடைபெறுகிறது	-7726
▁பொருட்படுத்த	-7727
▁எழுதியுள்ளார்	-7728
▁வழங்கப்பட்டது	-7729
▁அமைந்திருந்தது	-7730
▁செய்யப்பட்டார்	-7731
im	-7732
ஜன	-7733
தூ	-7734
ஹா	-7735
ோப	-7736
ட்ஜ	-7737
ட்ர	-7738
மறை	-7739
மாற	-7740
வனு	-7741
வேத	-7742
ினோ	-7743
ிஸ்	-7744
ேசு	-7745
ொளி	-7746
▁நவ	-7747
கரிய	-7748
கால்	-7749
செல்	-7750
டியா	-7751
டில்	-7752
தியே	-7753
னிக்	-7754
ராக்	-7755
வுத்	-7756
வுஸ்	-7757
ஷ்டி	-7758
ஸ்டு	-7759
ாளன்	-7760
ியாய	-7761
▁அண்	-7762
▁இமய	-7763
▁ஊடு	-7764
▁கோட	-7765
▁சீர	-7766
▁டால	-7767
▁தால	-7768
▁நனை	-7769
▁நாழ	-7770
▁நிச	-7771
▁பகி	-7772
▁பண்	-7773
▁பாஷ	-7774
▁யூக	-7775
▁லார	-7776
▁வாள	-7777
கட்கு	-7778
ங்கின	-7779
சரின்	-7780
மிடம்	-7781
முற்ற	-7782
ர்தல்	-7783
லைகள்	-7784
ழந்தை	-7785
ஸ்தான	-7786
ாக்கு	-7787
ேரில்	-7788
ையாகி	-7789
▁அணிக	-7790
▁அபாய	-7791
▁அறவே	-7792
▁ஈன்ற	-7793
▁கையா	-7794
▁புஷ்	-7795
▁பென்	-7796
▁மிகை	-7797
▁வரவு	-7798
▁வருக	-7799
▁வார்	-7800
▁வெண்	-7801
▁வேணு	-7802
▁வேதா	-7803
ட்டால்	-7804
ப்பந்த	-7805
ப்பாள்	-7806
ர்தான்	-7807
லேண்ட்	-7808
ளியும்	-7809
வந்தது	-7810
விலேயே	-7811
ஸுக்கு	-7812
ஸ்தான்	-7813
ிந்திய	-7814
ையாகத்	-7815
▁ஆயத்த	-7816
▁இறக்க	-7817
▁ஊக்கு	-7818
▁எளிது	-7819
▁எழில்	-7820
▁குறள்	-7821
▁தட்டு	-7822
▁தத்தை	-7823
▁தனித்	-7824
▁துணிய	-7825
▁துறவு	-7826
▁நடராஜ	-7827
▁நல்லா	-7828
▁பிளவு	-7829
▁புலமை	-7830
▁பேரரச	-7831
▁போனது	-7832
ங்களோடு	-7833
த்துவார	-7834
மிருந்த	-7835
வீர்கள்	-7836
ாரையும்	-7837
ினின்று	-7838
ின்றேன்	-7839
ின்றோம்	-7840
்க்கும்	-7841
▁அகற்று	-7842
▁அரசியல	-7843
▁அவரைத்	-7844
▁ஆக்கம்	-7845
▁இடமும்	-7846
▁எவ்வித	-7847
▁ஒதுக்க	-7848
▁கண்களை	-7849
▁கெடும்	-7850
▁சம்மதி	-7851
▁சினிமா	-7852
▁சைக்கி	-7853
▁தங்கம்	-7854
▁நடைபாத	-7855
▁நன்றாய	-7856
▁நர்த்த	-7857
▁நாடும்	-7858
▁நீக்கி	-7859
▁நீட்டி	-7860
▁நீண்டு	-7861
▁புஸ்தக	-7862
▁மணந்து	-7863
▁மூச்சை	-7864
▁ராஜாஜி	-7865
▁வில்லி	-7866
ப்பெறும்	-7867
ில்லாமல்	-7868
ுக்குரிய	-7869
▁இன்ஸ்பெ	-7870
▁இரத்தம்	-7871
▁இழுத்து	-7872
▁எல்லாமே	-7873
▁கலிபோர்	-7874
▁காலத்து	-7875
▁குடியேற	-7876
▁கேட்பது	-7877
▁சரிதான்	-7878
▁தாழ்த்த	-7879
▁திருச்ச	-7880
▁துல்லிய	-7881
▁தேர்தல்	-7882
▁தைரியம்	-7883
▁நடித்து	-7884
▁நாட்டம்	-7885
▁நாற்கால	-7886
▁பழங்கால	-7887
▁புதுப்ப	-7888
▁முன்பாக	-7889
▁மொத்தம்	-7890
▁வரவேற்க	-7891
▁வாசலில்	-7892
▁விரிவாக	-7893
ப்பற்றிக்	-7894
வதற்குரிய	-7895
வர்களிடம்	-7896
▁அன்றிரவு	-7897
▁அழுத்தம்	-7898
▁இருத்தல்	-7899
▁இறுதியாக	-7900
▁இவ்விடம்	-7901
▁உருவாகிய	-7902
▁உள்ளத்தை	-7903
▁கம்பெனிய	-7904
▁கலாச்சார	-7905
▁குழப்பம்	-7906
▁கோயிலின்	-7907
▁சட்டத்தை	-7908
▁சிறப்பான	-7909
▁செய்தியை	-7910
▁சொல்லித்	-7911
▁தனித்துவ	-7912
▁தீர்ந்து	-7913
▁நான்தான்	-7914
▁நிறைந்து	-7915
▁பெருமையை	-7916
▁போய்விடு	-7917
▁முதலாவது	-7918
▁வரலாற்றை	-7919
▁அடைந்தனர்	-7920
▁இயலவில்லை	-7921
▁இழுத்துக்	-7922
▁எண்ணிக்கை	-7923
▁கொடுத்தது	-7924
▁சட்டென்று	-7925
▁தெரிவித்த	-7926
▁தொன்னூற்ற	-7927
▁பெண்களும்	-7928
▁முழுமையான	-7929
▁வில்லியம்	-7930
த்திலிருந்த	-7931
ாளர்களுக்கு	-7932
ிலிருக்கும்	-7933
▁அவளுக்குக்	-7934
▁இங்கிலாந்த	-7935
▁இடத்திலும்	-7936
▁இருவரையும்	-7937
▁உணர்ந்தான்	-7938
▁உயர்நிலைப்	-7939
▁உள்ளத்திலே	-7940
▁எச்சரிக்கை	-7941
▁கூறிவிட்டு	-7942
▁கொண்டுள்ளன	-7943
▁செங்குட்டு	-7944
▁சொல்கிறோம்	-7945
▁புத்திசாலி	-7946
▁பெரும்பான்	-7947
▁மனப்பான்மை	-7948
▁மாளிகையில்	-7949
▁வரலாற்றில்	-7950
▁வருவார்கள்	-7951
▁வீரர்களும்	-7952
▁இந்தியாவின்	-7953
▁இருக்கிறோம்	-7954
▁இவையெல்லாம்	-7955
▁சந்தர்ப்பம்	-7956
▁பார்த்ததும்	-7957
▁விரும்புகிற	-7958
▁ஹரிச்சந்திர	-7959
ங்களையெல்லாம்	-7960
▁என்னவென்றால்	-7961
▁நூற்றாண்டில்	-7962
▁விரும்பினால்	-7963
▁வீட்டுக்குப்	-7964
▁அப்பொழுதுதான்	-7965
▁இந்நாடகத்தில்	-7966
▁இருந்தால்தான்	-7967
▁கட்டுப்படுத்த	-7968
▁நாடகங்களுக்கு	-7969
▁பிடிக்கவில்லை	-7970
▁வேண்டுமென்பது	-7971
▁வேண்டுமானாலும்	-7972
லீ	-7973
ஷய	-7974
ஹ்	-7975
▁,	-7976
மது	-7977
மிர	-7978
வனா	-7979
வேச	-7980
ாத்	-7981
ாவள	-7982
ுங்	-7983
▁ஏள	-7984
▁ஒட	-7985
▁ஒழ	-7986
▁ரை	-7987
டைத்	-7988
ண்டே	-7989
தானா	-7990
தேவி	-7991
நெறி	-7992
ன்பி	-7993
பிக்	-7994
மனித	-7995
மன்ன	-7996
ம்பா	-7997
ற்றே	-7998
லாதி	-7999
ல்ஸ்	-8000
வகைய	-8001
வரிட	-8002
ஷ்ணு	-8003
ஸ்தி	-8004
ிலர்	-8005
ோகம்	-8006
▁உதி	-8007
▁உதை	-8008
▁உமை	-8009
▁சதி	-8010
▁நரி	-8011
▁பில	-8012
▁மவு	-8013
டையது	-8014
போன்ற	-8015
ழுத்த	-8016
வாரம்	-8017
விடப்	-8018
ாய்ச்	-8019
ாளும்	-8020
ெலாம்	-8021
▁அயல்	-8022
▁அவரு	-8023
▁இளமை	-8024
▁ஒன்ப	-8025
▁கரகோ	-8026
▁காதை	-8027
▁கூவு	-8028
▁செழு	-8029
▁சோனா	-8030
▁நந்த	-8031
▁பகல்	-8032
▁பராம	-8033
▁பழகி	-8034
▁பிரம	-8035
▁போகு	-8036
▁மதிய	-8037
▁மனோஹ	-8038
▁மாசு	-8039
▁மேரி	-8040
▁வயிற	-8041
▁வேலி	-8042
க்காரி	-8043
டைவில்	-8044
த்தூர்	-8045
ப்பிலே	-8046
ய்யும்	-8047
ர்ப்பு	-8048
ழ்வார்	-8049
வதாகத்	-8050
வேணும்	-8051
ிகிறது	-8052
▁அகன்ற	-8053
▁அன்பே	-8054
▁இராது	-8055
▁உப்பு	-8056
▁எஜமான	-8057
▁எதிரி	-8058
▁ஏந்தி	-8059
▁ஒழுகு	-8060
▁காய்க	-8061
▁சில்ல	-8062
▁தந்தி	-8063
▁தீண்ட	-8064
▁துறைய	-8065
▁தொங்க	-8066
▁பட்டண	-8067
▁பணியை	-8068
▁புருஷ	-8069
▁பொறிய	-8070
▁மரத்த	-8071
▁மானுட	-8072
▁மாரிய	-8073
▁ராஜகோ	-8074
▁லாபம்	-8075
▁வண்டு	-8076
▁வரவழை	-8077
▁வெண்ப	-8078
▁வேகம்	-8079
க்கொள்க	-8080
ங்களையே	-8081
னுக்காக	-8082
ப்பள்ளி	-8083
ப்பொருள	-8084
மடைந்து	-8085
ர்களைச்	-8086
வற்றில்	-8087
ியர்கள்	-8088
▁அதனைச்	-8089
▁ஆபத்து	-8090
▁இருண்ட	-8091
▁இவைகள்	-8092
▁உரியது	-8093
▁ஒட்டிய	-8094
▁கடமையை	-8095
▁காரில்	-8096
▁கூத்து	-8097
▁சிற்றூ	-8098
▁சோம்பே	-8099
▁ஜார்ஜ்	-8100
▁தொட்டு	-8101
▁நாடகப்	-8102
▁நீக்கு	-8103
▁நூற்று	-8104
▁பணத்தை	-8105
▁பதிப்ப	-8106
▁பரிசோத	-8107
▁பின்தொ	-8108
▁பிரம்ம	-8109
▁முதற்க	-8110
▁யாதொரு	-8111
▁யாருமே	-8112
▁யில்லை	-8113
▁ரத்தின	-8114
▁லட்சம்	-8115
▁வரிகள்	-8116
▁வல்லமை	-8117
▁வித்தை	-8118
க்கென்று	-8119
வேயில்லை	-8120
ாதீர்கள்	-8121
▁அன்போடு	-8122
▁அறிவார்	-8123
▁ஆயிற்றே	-8124
▁இயற்கைய	-8125
▁இயற்றிய	-8126
▁இருக்கை	-8127
▁இவருடைய	-8128
▁உதவியாக	-8129
▁உறவினர்	-8130
▁ஒதுங்கி	-8131
▁ஒப்பந்த	-8132
▁கண்ணிர்	-8133
▁குடிக்க	-8134
▁குப்பன்	-8135
▁குறைவான	-8136
▁கொண்டேய	-8137
▁சார்லஸ்	-8138
▁சிங்கம்	-8139
▁தவறுகள்	-8140
▁தியாகம்	-8141
▁நடராஜன்	-8142
▁பணக்கார	-8143
▁பயணிகள்	-8144
▁பின்புற	-8145
▁பின்வரு	-8146
▁பீட்டர்	-8147
▁பெரியது	-8148
▁மனைவியை	-8149
▁முருகனை	-8150
▁விழித்த	-8151
க்களையும்	-8152
ிருப்பதாக	-8153
▁அதன்மீது	-8154
▁அதைப்போல	-8155
▁அத்தியாய	-8156
▁அன்புடன்	-8157
▁அரசர்கள்	-8158
▁அறிமுகம்	-8159
▁இடத்திலே	-8160
▁இன்னமும்	-8161
▁இறைவனைப்	-8162
▁எப்படிச்	-8163
▁கடவுளின்	-8164
▁காற்றில்	-8165
▁சார்ந்து	-8166
▁செயல்படு	-8167
▁சொந்தமான	-8168
▁தற்காலிக	-8169
▁தாக்குதல	-8170
▁பொழுதுபோ	-8171
▁மூங்கில்	-8172
▁மேற்கொள்	-8173
▁யாத்திரை	-8174
▁வழக்கமான	-8175
▁விவரிக்க	-8176
▁இதெல்லாம்	-8177
▁இந்நாடகம்	-8178
▁உங்களிடம்	-8179
▁ஒருவருக்க	-8180
▁காய்ச்சல்	-8181
▁காரணங்கள்	-8182
▁காரியத்தை	-8183
▁குளிர்ந்த	-8184
▁சொல்கிறது	-8185
▁தணிகாசலம்	-8186
▁தலைவர்கள்	-8187
▁தவிர்த்து	-8188
▁திருவள்ளு	-8189
▁தெளிவாகத்	-8190
▁நாளடைவில்	-8191
▁படுத்துக்	-8192
▁பொருந்திய	-8193
▁முருகனைப்	-8194
▁மேற்கூறிய	-8195
▁வடிவங்கள்	-8196
▁வரைக்கும்	-8197
▁விருந்தின	-8198
▁விஷயங்களை	-8199
▁வெப்பநிலை	-8200
▁இருந்ததால்	-8201
▁செய்தாலும்	-8202
▁செல்கிறோம்	-8203
▁பார்த்தோம்	-8204
▁புத்தகத்தை	-8205
▁பொதுமக்கள்	-8206
▁போட்டியில்	-8207
▁வரவேண்டும்	-8208
▁வீட்டிலேயே	-8209
▁வெளிநாட்டு	-8210
வேண்டுமென்று	-8211
▁அருணகிரிநாத	-8212
▁அவ்வளவுதான்	-8213
▁இங்கிருந்து	-8214
▁கிராமத்தில்	-8215
▁கேட்டார்கள்	-8216
▁கொண்டுவந்து	-8217
▁திரும்பவும்	-8218
▁தென்னிந்திய	-8219
▁பெண்களுக்கு	-8220
▁பெற்றவர்கள்	-8221
▁முன்னேற்றம்	-8222
▁இருக்கின்றது	-8223
▁கருத்துக்கள்	-8224
▁கிடைக்கின்றன	-8225
▁சாஸ்திரியார்	-8226
▁ஹெர்க்குலிஸ்	-8227
ப்படுத்துகிறது	-8228
ப்பட்டிருந்தது	-8229
▁மாற்றப்பட்டது	-8230
▁எடுத்துக்கொண்ட	-8231
▁வேண்டியதாயிற்று	-8232
ig	-8233
ir	-8234
ry	-8235
சல	-8236
கக்	-8237
தின	-8238
நேர	-8239
மிய	-8240
ழகு	-8241
வனோ	-8242
வரா	-8243
ாளா	-8244
▁எல	-8245
▁ஒர	-8246
▁டூ	-8247
என்ன	-8248
கிரி	-8249
ங்ஙன	-8250
த்தர	-8251
த்தவ	-8252
புரா	-8253
பொரு	-8254
ப்பல	-8255
மடைய	-8256
மலர்	-8257
ய்யா	-8258
வண்ட	-8259
ூட்ட	-8260
ெட்ட	-8261
ெய்த	-8262
▁அவச	-8263
▁இலா	-8264
▁ஏடு	-8265
▁ஐரி	-8266
▁கசி	-8267
▁கோழ	-8268
▁நலி	-8269
▁நீய	-8270
▁புன	-8271
▁பொழ	-8272
▁மாச	-8273
▁ராய	-8274
▁வகி	-8275
க்கண்	-8276
க்ஸ்ப	-8277
ங்கர்	-8278
ணுக்க	-8279
ண்டல்	-8280
தைவிட	-8281
நிலைய	-8282
மாவது	-8283
ம்போல	-8284
ய்ந்த	-8285
ழியன்	-8286
வருமே	-8287
விடத்	-8288
விதம்	-8289
ாடும்	-8290
ாதார்	-8291
ாவைக்	-8292
ினாய்	-8293
ினிலே	-8294
ிரியை	-8295
▁அழகி	-8296
▁ஆத்ம	-8297
▁உமார	-8298
▁கயில	-8299
▁காலி	-8300
▁குழி	-8301
▁க்கு	-8302
▁சுமை	-8303
▁செம்	-8304
▁டிரை	-8305
▁பாரு	-8306
▁முறு	-8307
▁மோர்	-8308
▁வேறே	-8309
▁ஸ்வீ	-8310
ட்டித்	-8311
தியைக்	-8312
த்தாய்	-8313
த்திப்	-8314
ப்படம்	-8315
ப்பதன்	-8316
ப்பள்ள	-8317
மாயின்	-8318
மைக்கு	-8319
ழ்ச்சி	-8320
வாங்கு	-8321
விடாது	-8322
வைத்து	-8323
▁அக்கோ	-8324
▁அன்றி	-8325
▁அன்றே	-8326
▁ஆகியன	-8327
▁ஆட்சே	-8328
▁ஈடுபட	-8329
▁உபதேச	-8330
▁உயர்வ	-8331
▁ஏலக்க	-8332
▁ஒப்பி	-8333
▁கன்று	-8334
▁கயிறு	-8335
▁கிணறு	-8336
▁ஞாபகம	-8337
▁நடனம்	-8338
▁நிதான	-8339
▁நிலவு	-8340
▁மணவில	-8341
▁மார்க	-8342
▁மாறிய	-8343
▁மூச்ச	-8344
▁மையம்	-8345
▁வடக்க	-8346
▁வாட்ட	-8347
▁வாதம்	-8348
னாகவும்	-8349
றுகிறது	-8350
வாகவும்	-8351
ானாலும்	-8352
ாவையும்	-8353
▁அமலாதி	-8354
▁அவரால்	-8355
▁இத்தால	-8356
▁உடலும்	-8357
▁என்னமோ	-8358
▁கலிங்க	-8359
▁கைக்கு	-8360
▁சித்தா	-8361
▁தீவில்	-8362
▁தென்மே	-8363
▁நாடுகள	-8364
▁பிரதேச	-8365
▁மருந்த	-8366
▁மிகமிக	-8367
▁மீதும்	-8368
▁முதலாள	-8369
▁முன்னு	-8370
▁மேற்கோ	-8371
▁ரெயில்	-8372
▁வழிவகு	-8373
▁விக்டோ	-8374
▁விம்மி	-8375
▁விளைவி	-8376
▁விவகார	-8377
▁ஹென்றி	-8378
க்கிறோம்	-8379
டுத்துக்	-8380
த்துவிடு	-8381
மாயிற்று	-8382
மென்றும்	-8383
மொழியில்	-8384
லாந்தின்	-8385
லுக்குத்	-8386
▁அம்பிகை	-8387
▁அறியும்	-8388
▁அழுதான்	-8389
▁எட்டிப்	-8390
▁எல்லாக்	-8391
▁எழுப்பி	-8392
▁ஒதுக்கி	-8393
▁ஒருவேளை	-8394
▁கட்டளைய	-8395
▁கிராமம்	-8396
▁குளிர்க	-8397
▁கூடியது	-8398
▁கொண்டாட	-8399
▁கொள்ளக்	-8400
▁சிலம்பு	-8401
▁சூத்திர	-8402
▁செய்வர்	-8403
▁தனித்து	-8404
▁தனியார்	-8405
▁தன்னைக்	-8406
▁தீர்ப்ப	-8407
▁தெளிவான	-8408
▁தேசபக்த	-8409
▁நாடுகள்	-8410
▁நீதிபதி	-8411
▁பணிபுரி	-8412
▁பாக்கிய	-8413
▁பின்தொட	-8414
▁பிறகும்	-8415
▁புகுந்த	-8416
▁பெருமித	-8417
▁பேய்கள்	-8418
▁மொழிகள்	-8419
▁மொழிபெய	-8420
▁யோசிக்க	-8421
▁விலக்கு	-8422
த்துகிறது	-8423
த்துடனும்	-8424
ப்பார்த்த	-8425
ிக்கிறோம்	-8426
▁அதுபோலவே	-8427
▁இருப்பர்	-8428
▁உலகுக்கு	-8429
▁எப்படிக்	-8430
▁ஒவ்வொன்ற	-8431
▁கன்பூஷிய	-8432
▁காட்சியை	-8433
▁காட்டில்	-8434
▁கிறிஸ்தவ	-8435
▁குடித்து	-8436
▁சந்தித்த	-8437
▁சமாதானம்	-8438
▁செய்யாது	-8439
▁செய்வார்	-8440
▁செய்வேன்	-8441
▁ஜப்பானிய	-8442
▁ஞாயிற்று	-8443
▁தயாரிக்க	-8444
▁திடுக்கி	-8445
▁நின்றார்	-8446
▁நோக்கிக்	-8447
▁பாடினார்	-8448
▁பெண்ணும்	-8449
▁பெரியவன்	-8450
▁பெரியார்	-8451
▁யாருக்கு	-8452
▁வாழ்நாள்	-8453
▁விளையாடி	-8454
▁விஷயத்தை	-8455
▁வைத்தால்	-8456
விலிருந்து	-8457
ிகளுக்குப்	-8458
▁ஆகியவற்றை	-8459
▁ஊருக்குப்	-8460
▁எடுத்துரை	-8461
▁கடமைகளைச்	-8462
▁குளிர்ச்ச	-8463
▁கேட்கலாம்	-8464
▁கொடுப்பது	-8465
▁செய்கின்ற	-8466
▁சொல்லுகிற	-8467
▁தரிசித்து	-8468
▁திராவிடர்	-8469
▁தொடங்கும்	-8470
▁நகரத்தில்	-8471
▁நினைப்பது	-8472
▁போய்விட்ட	-8473
▁மனைவியும்	-8474
▁வருகிறாள்	-8475
▁வரையிலும்	-8476
▁வளர்ந்தது	-8477
களையெல்லாம்	-8478
▁அதன்பேரில்	-8479
▁அவளுக்குத்	-8480
▁ஆடப்பட்டது	-8481
▁என்றார்கள்	-8482
▁கடம்பர்கள்	-8483
▁கண்ணகியின்	-8484
▁காட்டினான்	-8485
▁கெடுக்கும்	-8486
▁கொள்கிறார்	-8487
▁சம்ஸ்கிருத	-8488
▁சென்னைக்கு	-8489
▁சொன்னாலும்	-8490
▁சொல்லுக்கு	-8491
▁தெரிந்தால்	-8492
▁நாடகத்தின்	-8493
▁நியூயார்க்	-8494
▁மலையிலுள்ள	-8495
▁முகத்துவார	-8496
▁வற்புறுத்த	-8497
▁வாழ்ந்தார்	-8498
▁விட்டாலும்	-8499
▁விளையாடும்	-8500
▁அப்பாற்பட்ட	-8501
▁இங்கிலாந்து	-8502
▁ஒவ்வொன்றும்	-8503
▁குழந்தைக்கு	-8504
▁கோயில்களில்	-8505
▁போலிருந்தது	-8506
▁வசிக்கிறார்	-8507
▁வெற்றிகரமாக	-8508
▁இருக்கவில்லை	-8509
▁இருப்பவர்கள்	-8510
▁இருவருக்கும்	-8511
▁ஒப்புக்கொள்ள	-8512
▁திரும்பினார்	-8513
▁தொடக்கத்தில்	-8514
▁தொடங்குகிறது	-8515
▁போக்குவரத்து	-8516
▁விருப்பப்படி	-8517
▁விளையாட்டில்	-8518
▁ஆயிரக்கணக்கான	-8519
▁எல்லாருக்கும்	-8520
▁பொருள்களையும்	-8521
ப்பட்டிருக்கும்	-8522
▁பார்க்கும்போது	-8523
▁வந்திருக்கிறது	-8524
▁எடுத்துக்கொண்டு	-8525
▁ஒருவருக்கொருவர்	-8526
!!	-8527
!.	-8528
சப	-8529
ஜு	-8530
வொ	-8531
ொல	-8532
ோர	-8533
ers	-8534
ion	-8535
தரா	-8536
பன்	-8537
வரோ	-8538
ஸ்ய	-8539
ாவோ	-8540
▁இக	-8541
▁மள	-8542
▁ரச	-8543
▁வத	-8544
சனம்	-8545
சாலை	-8546
ஞ்ச்	-8547
ட்சை	-8548
த்தூ	-8549
ன்கள	-8550
ன்றே	-8551
ருகா	-8552
வாளி	-8553
ாவதி	-8554
▁ஆரோ	-8555
▁ஆவல	-8556
▁எறி	-8557
▁கமி	-8558
▁கெட	-8559
▁சென	-8560
▁தூண	-8561
▁பரீ	-8562
▁ப்ர	-8563
▁மேன	-8564
▁லாப	-8565
▁வசத	-8566
▁வலை	-8567
சனின்	-8568
ட்புற	-8569
ணத்தை	-8570
ண்ணம்	-8571
தென்ப	-8572
த்திட	-8573
த்தொட	-8574
னியர்	-8575
ப்பரே	-8576
ம்பிர	-8577
யன்றி	-8578
யுள்ள	-8579
ராகக்	-8580
ரியன்	-8581
ரியல்	-8582
ருவம்	-8583
ர்தம்	-8584
வராய்	-8585
வாதம்	-8586
வைக்க	-8587
ாதேவி	-8588
ானும்	-8589
ாரைப்	-8590
ாவதாக	-8591
ில்லி	-8592
ூர்ப்	-8593
▁அசுவ	-8594
▁ஆட்க	-8595
▁உலகள	-8596
▁ஊற்ற	-8597
▁ஏறிய	-8598
▁கடைய	-8599
▁கரைய	-8600
▁காரோ	-8601
▁கிரக	-8602
▁கைதி	-8603
▁கொதி	-8604
▁கோபி	-8605
▁சரவண	-8606
▁சாக்	-8607
▁சாவி	-8608
▁சூது	-8609
▁செது	-8610
▁ஜன்ன	-8611
▁டியூ	-8612
▁நின்	-8613
▁நூலை	-8614
▁நெய்	-8615
▁பரவி	-8616
▁பாரச	-8617
▁போதை	-8618
▁மீறி	-8619
▁மும்	-8620
▁மெக்	-8621
▁மேனி	-8622
▁மேலா	-8623
▁விசு	-8624
▁வெல்	-8625
க்கட்ட	-8626
க்காது	-8627
க்கிச்	-8628
சியும்	-8629
டைந்து	-8630
ணியின்	-8631
த்திடு	-8632
மடைந்த	-8633
யர்ந்த	-8634
ள்ளேன்	-8635
ையானது	-8636
▁அட்டை	-8637
▁அத்தன	-8638
▁அறுவை	-8639
▁ஆக்கு	-8640
▁ஆழமான	-8641
▁இக்கு	-8642
▁இயற்ற	-8643
▁இரக்க	-8644
▁உந்து	-8645
▁கடமைய	-8646
▁கார்ட	-8647
▁சமயக்	-8648
▁சற்றே	-8649
▁சலுகை	-8650
▁சுகம்	-8651
▁சேற்ற	-8652
▁தனிமை	-8653
▁துயர்	-8654
▁துவார	-8655
▁நாதர்	-8656
▁நிம்ம	-8657
▁நிரூப	-8658
▁புதல்	-8659
▁புளிய	-8660
▁பூரணி	-8661
▁பொதும	-8662
▁பொற்ப	-8663
▁மானம்	-8664
▁மூட்ட	-8665
▁மேற்ச	-8666
▁வசந்த	-8667
▁வாசவத	-8668
▁வீற்ற	-8669
க்கத்தை	-8670
க்களைத்	-8671
ங்குவது	-8672
த்தன்மை	-8673
முறைகள்	-8674
ர்த்திய	-8675
வற்றைப்	-8676
ிட்டார்	-8677
ிலையில்	-8678
ையானால்	-8679
▁அக்கறை	-8680
▁அதுவரை	-8681
▁அன்றைய	-8682
▁அமைத்த	-8683
▁அரிஸ்ட	-8684
▁அரும்ப	-8685
▁ஆக்கிர	-8686
▁உதவும்	-8687
▁எதிரான	-8688
▁ஐக்கிய	-8689
▁கட்டமை	-8690
▁கிளம்ப	-8691
▁கையிலே	-8692
▁சிகரம்	-8693
▁செய்தன	-8694
▁தத்தம்	-8695
▁தாத்தா	-8696
▁நம்பிய	-8697
▁நாக்கு	-8698
▁நூலில்	-8699
▁பயப்பட	-8700
▁புலனாக	-8701
▁பொறாமை	-8702
▁மற்றைய	-8703
▁மீன்பி	-8704
▁முன்கூ	-8705
▁யென்று	-8706
▁லூயிஸ்	-8707
▁வரப்போ	-8708
▁வராமல்	-8709
க்கங்கள்	-8710
த்தோடும்	-8711
ப்பிற்கு	-8712
மாட்டார்	-8713
லாந்தில்	-8714
வாயில்லை	-8715
விட்டாய்	-8716
ிருக்கக்	-8717
ிருப்பதை	-8718
ிவிட்டது	-8719
▁அச்சுறு	-8720
▁அடியோடு	-8721
▁அதுபோல்	-8722
▁அருளால்	-8723
▁அளவிலான	-8724
▁அழைப்பு	-8725
▁அவசரமாக	-8726
▁இனங்கள்	-8727
▁இரத்தின	-8728
▁இருளில்	-8729
▁ஊழ்வினை	-8730
▁என்னைச்	-8731
▁என்றனர்	-8732
▁எல்லாத்	-8733
▁கணிசமான	-8734
▁கண்டறிய	-8735
▁கதாநாயக	-8736
▁கரகோஷம்	-8737
▁காய்ச்ச	-8738
▁கார்த்த	-8739
▁குறிப்ப	-8740
▁கொள்ளத்	-8741
▁சின்னம்	-8742
▁சிரித்த	-8743
▁சூழ்ச்ச	-8744
▁தலைக்கு	-8745
▁நிரந்தர	-8746
▁நூல்களை	-8747
▁பதினேழு	-8748
▁பயிர்த்	-8749
▁புன்னகை	-8750
▁பேசியது	-8751
▁மலர்ந்த	-8752
▁மிருகம்	-8753
▁முத்திர	-8754
▁முரட்டு	-8755
▁லக்ஷ்மி	-8756
▁வண்டியை	-8757
▁வருவான்	-8758
▁வாங்கிய	-8759
▁வாயிலாக	-8760
வேண்டியது	-8761
ாளர்களின்	-8762
ிருப்பான்	-8763
▁அடைந்தது	-8764
▁அறியாமல்	-8765
▁அவற்றைக்	-8766
▁அவற்றைப்	-8767
▁இக்கோயில	-8768
▁இப்படித்	-8769
▁இயங்கும்	-8770
▁ஒருவரும்	-8771
▁ஒளவையார்	-8772
▁காரணங்கள	-8773
▁கிறிஸ்து	-8774
▁கெட்டுப்	-8775
▁சுந்தரம்	-8776
▁செருக்கு	-8777
▁தன்னிடம்	-8778
▁தீவிரமாக	-8779
▁நடந்தால்	-8780
▁நாடகங்கள	-8781
▁பட்டியல்	-8782
▁பயக்கும்	-8783
▁பரிமாற்ற	-8784
▁புகைப்பட	-8785
▁பொருட்டு	-8786
▁மந்திரம்	-8787
▁முறையும்	-8788
▁மேற்கில்	-8789
▁யானையின்	-8790
▁வரிசையாக	-8791
▁விட்டோம்	-8792
▁வேண்டிக்	-8793
ற்றுக்கும்	-8794
வர்களையும்	-8795
விடுகின்றன	-8796
▁அங்கத்தின	-8797
▁அடித்துக்	-8798
▁அமைப்பில்	-8799
▁அறைக்குள்	-8800
▁இருந்தவர்	-8801
▁இருப்பவன்	-8802
▁உயிருக்கு	-8803
▁எப்போதுமே	-8804
▁கட்சியின்	-8805
▁குதிரைகள்	-8806
▁கூறவில்லை	-8807
▁சர்க்கார்	-8808
▁சிந்தாமணி	-8809
▁தருகிறேன்	-8810
▁துன்பமும்	-8811
▁தேர்தலில்	-8812
▁நடிக்கும்	-8813
▁படித்துக்	-8814
▁பட்டியலிட	-8815
▁பிரச்சினை	-8816
▁பேராசிரிய	-8817
▁மாதத்தில்	-8818
▁முரண்பாடு	-8819
▁முழுமையாக	-8820
▁வந்தவுடன்	-8821
▁வளர்ச்சிய	-8822
▁வீடுகளில்	-8823
ங்களெல்லாம்	-8824
த்திற்குரிய	-8825
ரிக்கப்பட்ட	-8826
ாவிலிருந்து	-8827
▁அவளுக்குப்	-8828
▁இறைவனுக்கு	-8829
▁என்னவென்று	-8830
▁ஒருவருக்கு	-8831
▁ஓரிடத்தில்	-8832
▁கண்களுக்கு	-8833
▁காலங்களில்	-8834
▁கிராமப்புற	-8835
▁கொண்டுதான்	-8836
▁செட்டியார்	-8837
▁சேர்ந்தவர்	-8838
▁சொற்பொழிவு	-8839
▁தனித்தனியே	-8840
▁நாட்டுக்கு	-8841
▁நாள்தோறும்	-8842
▁பனிக்கட்டி	-8843
▁புறப்படும்	-8844
▁மற்றவர்களை	-8845
▁முதன்மையாக	-8846
டியிலிருந்து	-8847
▁ஆசிரியர்கள்	-8848
▁இதிலிருந்து	-8849
▁இயங்குகிறது	-8850
▁உடற்பயிற்சி	-8851
▁கொள்ளுங்கள்	-8852
▁கொள்வதில்லை	-8853
▁செல்லுகிறது	-8854
▁குறிப்பிட்டு	-8855
▁சமுதாயத்தில்	-8856
▁செய்யப்பட்டு	-8857
▁சொல்லிவிட்டு	-8858
▁தொழிலாளர்கள்	-8859
▁தோன்றுகின்றன	-8860
▁பார்க்கிறான்	-8861
▁பார்ப்பதற்கு	-8862
▁வளர்ச்சிக்கு	-8863
▁வாழ்க்கையும்	-8864
▁கூறுகிறார்கள்	-8865
▁போலிருக்கிறது	-8866
▁வந்திருந்தனர்	-8867
▁வருடங்களுக்கு	-8868
▁அறிமுகப்படுத்த	-8869
▁பார்த்துவிட்டு	-8870
au	-8871
ck	-8872
தீ	-8873
தொ	-8874
னெ	-8875
ீட	-8876
▁p	-8877
▁s	-8878
est	-8879
கத்	-8880
குண	-8881
சான	-8882
டக்	-8883
ப்ர	-8884
ரீர	-8885
லாய	-8886
வெள	-8887
ாமு	-8888
ாரு	-8889
ைட்	-8890
ோல்	-8891
▁Sh	-8892
▁ஈய	-8893
▁எண	-8894
▁ஏத	-8895
▁கஜ	-8896
▁ஷெ	-8897
?...	-8898
கார்	-8899
கிரு	-8900
ம்பழ	-8901
ளைச்	-8902
வாறே	-8903
ாணம்	-8904
ாதம்	-8905
ுமாக	-8906
▁அவி	-8907
▁ஆக்	-8908
▁ஆவண	-8909
▁உலா	-8910
▁எட்	-8911
▁ஏசு	-8912
▁கோள	-8913
▁சரா	-8914
▁பனை	-8915
▁மேய	-8916
▁ராத	-8917
▁வடு	-8918
▁விற	-8919
ட்டாக	-8920
ண்டம்	-8921
த்தகு	-8922
த்தர்	-8923
புரிக	-8924
ப்புர	-8925
ராகப்	-8926
ள்ளம்	-8927
ாரைத்	-8928
ிக்கோ	-8929
ிறாள்	-8930
▁அதிய	-8931
▁அரேப	-8932
▁ஆடல்	-8933
▁இராச	-8934
▁இருள	-8935
▁இவரே	-8936
▁இஷ்ட	-8937
▁ஈட்ட	-8938
▁உடலு	-8939
▁உவமை	-8940
▁களவு	-8941
▁காபி	-8942
▁கேட்	-8943
▁கேவல	-8944
▁கைம்	-8945
▁கொளு	-8946
▁க்ரீ	-8947
▁சாதக	-8948
▁தியே	-8949
▁தோள்	-8950
▁நடைய	-8951
▁நலன்	-8952
▁நீயே	-8953
▁பன்ற	-8954
▁பிளே	-8955
▁புடை	-8956
▁பேதை	-8957
▁மணல்	-8958
▁மெலி	-8959
▁மேய்	-8960
▁வராத	-8961
▁வளாக	-8962
▁வாடக	-8963
▁வாணி	-8964
▁வாயு	-8965
▁விசய	-8966
கங்கள்	-8967
சியின்	-8968
டினாள்	-8969
தல்லவா	-8970
ந்திடு	-8971
பெரும்	-8972
ர்க்கே	-8973
றும்பு	-8974
றையின்	-8975
ற்றிப்	-8976
லைந்து	-8977
வதாகக்	-8978
ஸ்ட்ரா	-8979
ியாகப்	-8980
ுணர்வு	-8981
ெடுக்க	-8982
▁அதையே	-8983
▁அரிசி	-8984
▁அவ்வள	-8985
▁ஆண்டி	-8986
▁ஆண்மை	-8987
▁ஆதரவு	-8988
▁இம்மூ	-8989
▁உண்ணு	-8990
▁ஐரிஷ்	-8991
▁கண்ணை	-8992
▁கன்னி	-8993
▁காமம்	-8994
▁காவிர	-8995
▁குஞ்ச	-8996
▁கூடாத	-8997
▁கொற்ற	-8998
▁சம்பவ	-8999
▁சினம்	-9000
▁தாமஸ்	-9001
▁நடுவே	-9002
▁நாவலா	-9003
▁பன்றி	-9004
▁பயன்த	-9005
▁பற்பல	-9006
▁பாசம்	-9007
▁பாதாள	-9008
▁பாலம்	-9009
▁பிரயோ	-9010
▁பிறகே	-9011
▁புலைய	-9012
▁மல்லா	-9013
▁மாண்ட	-9014
▁மூடிய	-9015
▁வாழத்	-9016
▁வாழ்ப	-9017
▁வேந்த	-9018
▁ஸ்ரீர	-9019
படுத்து	-9020
ப்படாது	-9021
ப்பற்று	-9022
ப்பூர்வ	-9023
மையாகப்	-9024
வதுதான்	-9025
ிட்டான்	-9026
ினாலேயே	-9027
்கிறார்	-9028
▁அம்சம்	-9029
▁அருளிய	-9030
▁அளந்து	-9031
▁இறங்கு	-9032
▁இஸ்லாம	-9033
▁உயரமான	-9034
▁உரைத்த	-9035
▁உரையாட	-9036
▁எண்பது	-9037
▁ஓட்டம்	-9038
▁கணக்கி	-9039
▁கரும்ப	-9040
▁கவனமாக	-9041
▁காண்பி	-9042
▁சக்திய	-9043
▁சபாபதி	-9044
▁சாட்சி	-9045
▁செத்து	-9046
▁செலவழி	-9047
▁தங்கமண	-9048
▁தலையாய	-9049
▁தாழ்வு	-9050
▁திங்கள	-9051
▁தொகுதி	-9052
▁தொந்தர	-9053
▁தொலைபே	-9054
▁தொழுது	-9055
▁நகரின்	-9056
▁நாயகம்	-9057
▁நாயக்க	-9058
▁படகில்	-9059
▁படிந்த	-9060
▁பயனும்	-9061
▁பூசாரி	-9062
▁மடங்கு	-9063
▁யாஸ்மி	-9064
▁வாகனம்	-9065
▁விஷ்ணு	-9066
▁வேண்டா	-9067
கின்றோம்	-9068
ட்சியில்	-9069
ப்பக்கம்	-9070
ப்படுவர்	-9071
ப்பாட்டை	-9072
வராகவும்	-9073
▁அங்குப்	-9074
▁அடுக்கு	-9075
▁அடைத்து	-9076
▁அரவிந்த	-9077
▁அளித்து	-9078
▁அழுதாள்	-9079
▁இல்லாது	-9080
▁உமாரின்	-9081
▁எல்லாச்	-9082
▁ஒருவராக	-9083
▁ஒளிந்து	-9084
▁கடினமான	-9085
▁கண்டக்ட	-9086
▁கதிரவன்	-9087
▁கறுப்பு	-9088
▁கவுண்டி	-9089
▁காணாமல்	-9090
▁கால்நடை	-9091
▁கிடந்தன	-9092
▁கிழக்கே	-9093
▁கூப்பிட	-9094
▁கொட்டகை	-9095
▁சாம்பல்	-9096
▁சிகிச்ச	-9097
▁சிரிக்க	-9098
▁சிலப்பத	-9099
▁சூரபன்ம	-9100
▁செல்வர்	-9101
▁சொல்லப்	-9102
▁ஞானாம்ப	-9103
▁தன்னைச்	-9104
▁தழுவிக்	-9105
▁திருமால	-9106
▁துக்கம்	-9107
▁தோட்டம்	-9108
▁நிறையப்	-9109
▁பணிந்து	-9110
▁பண்பாடு	-9111
▁பயன்படு	-9112
▁பயிரிடு	-9113
▁பழமையான	-9114
▁பெருநகர	-9115
▁வம்சாவள	-9116
▁வயிற்றை	-9117
▁வழிபட்ட	-9118
▁விசாரணை	-9119
▁விதிகள்	-9120
▁வெற்றிய	-9121
க்கூடியது	-9122
ிக்கிறாள்	-9123
▁அடையலாம்	-9124
▁அதற்குச்	-9125
▁அறிவுடைய	-9126
▁ஆக்டர்கள	-9127
▁உன்னிடம்	-9128
▁என்பதைச்	-9129
▁காட்டிக்	-9130
▁கும்பகோண	-9131
▁குற்றச்ச	-9132
▁குழுவில்	-9133
▁செய்வான்	-9134
▁தாங்கிக்	-9135
▁திரிந்து	-9136
▁தேர்ச்சி	-9137
▁தேர்ந்து	-9138
▁தொகுப்பு	-9139
▁நகருக்கு	-9140
▁நமக்கும்	-9141
▁நிலக்கரி	-9142
▁படத்தில்	-9143
▁பல்கலைக்	-9144
▁பெருகும்	-9145
▁பெற்றான்	-9146
▁பெற்றாள்	-9147
▁பேருந்து	-9148
▁பொறுப்பை	-9149
▁போர்த்து	-9150
▁போற்றும்	-9151
▁மக்களால்	-9152
▁மனிதனும்	-9153
▁மார்பில்	-9154
▁மீனாட்சி	-9155
▁முற்றும்	-9156
▁ராஜராஜன்	-9157
▁வருகின்ற	-9158
▁வழிகளில்	-9159
▁வாங்கித்	-9160
▁வாங்கும்	-9161
▁வேலையில்	-9162
▁அரசாங்கம்	-9163
▁அரசியலில்	-9164
▁அளிக்கும்	-9165
▁இடையிடையே	-9166
▁உலகத்தின்	-9167
▁எடுக்கும்	-9168
▁காட்டியது	-9169
▁காணவில்லை	-9170
▁குறிக்கோள	-9171
▁சந்தையில்	-9172
▁சம்பந்தர்	-9173
▁சிதம்பரனா	-9174
▁செயற்பாடு	-9175
▁தமிழ்நாடு	-9176
▁துன்பத்தை	-9177
▁நடிகர்கள்	-9178
▁நூல்களில்	-9179
▁பதினொன்று	-9180
▁பிடித்தது	-9181
▁பிரசித்தி	-9182
▁பொருட்களை	-9183
▁போகவில்லை	-9184
▁போனார்கள்	-9185
▁போவதில்லை	-9186
▁மொழிகளில்	-9187
▁வழியில்லை	-9188
▁விளக்கும்	-9189
விடுவார்கள்	-9190
ாவிட்டாலும்	-9191
ியிலிருந்து	-9192
▁இடத்துக்கு	-9193
▁இந்துக்கள்	-9194
▁இல்லாததால்	-9195
▁எழுதியுள்ள	-9196
▁ஏற்பாடுகள்	-9197
▁கட்டத்தில்	-9198
▁கவனித்துக்	-9199
▁கொண்டுபோய்	-9200
▁சுதந்திரம்	-9201
▁சேர்ந்தனர்	-9202
▁திட்டங்கள்	-9203
▁நாச்சியார்	-9204
▁நாட்டிற்கு	-9205
▁பட்டியலில்	-9206
▁பரவாயில்லை	-9207
▁பொய்கையில்	-9208
▁பொருத்தமான	-9209
▁மக்களாட்சி	-9210
▁மட்டுமன்று	-9211
▁வருகின்றது	-9212
▁வாழ்வுக்கு	-9213
▁ஆகியவற்றில்	-9214
▁இடங்களிலும்	-9215
▁கடற்கரையில்	-9216
▁கொண்டவர்கள்	-9217
▁செய்துகொள்ள	-9218
▁தனித்துவமான	-9219
▁பொருள்களின்	-9220
▁முயற்சியில்	-9221
▁அனைவருக்கும்	-9222
▁அப்படிப்பட்ட	-9223
▁இருப்பதில்லை	-9224
▁குருமூர்த்தி	-9225
▁தொடர்ச்சியான	-9226
▁நூற்றாண்டின்	-9227
▁பள்ளிக்கூடம்	-9228
▁பொழுதுபோக்கு	-9229
▁அமெரிக்காவின்	-9230
▁அமெரிக்காவில்	-9231
▁அவர்களுக்குக்	-9232
▁இருக்கின்றனர்	-9233
▁சம்பந்தப்பட்ட	-9234
▁பார்க்கவில்லை	-9235
▁அறியப்படுகிறது	-9236
▁குழந்தைகளுக்கு	-9237
▁கொண்டிருந்தேன்	-9238
▁வழங்கப்படுகிறது	-9239
ab	-9240
li	-9241
ts	-9242
இய	-9243
கட	-9244
கல	-9245
தெ	-9246
பத	-9247
சித	-9248
பெற	-9249
யற்	-9250
லக்	-9251
வணை	-9252
வேல	-9253
ாவண	-9254
ொடி	-9255
்கோ	-9256
▁எஃ	-9257
▁சய	-9258
...!	-9259
கசிய	-9260
சார்	-9261
டைப்	-9262
ம்ப்	-9263
ழகம்	-9264
வனாய	-9265
வானா	-9266
வுட்	-9267
ஷ்டை	-9268
ாமம்	-9269
ாரர்	-9270
ிகர்	-9271
▁Mar	-9272
▁இரை	-9273
▁இவள	-9274
▁ஊறு	-9275
▁எகி	-9276
▁சலி	-9277
▁சூற	-9278
▁செள	-9279
▁செவ	-9280
▁தடி	-9281
▁பலக	-9282
▁பளி	-9283
▁பூண	-9284
▁மோத	-9285
▁ஸ்ம	-9286
▁ஸ்வ	-9287
களிலே	-9288
ச்சிற	-9289
ச்செய	-9290
னைகள்	-9291
ப்பெய	-9292
மைந்த	-9293
ய்யர்	-9294
றையான	-9295
வதோடு	-9296
வியாக	-9297
வைகளை	-9298
ாவைச்	-9299
ாவைத்	-9300
ிக்கே	-9301
ிருக்	-9302
ுற்று	-9303
▁ஃபிர	-9304
▁அகம்	-9305
▁ஊன்ற	-9306
▁ஒலிய	-9307
▁கனடா	-9308
▁கலவர	-9309
▁கேளு	-9310
▁சுலப	-9311
▁தபால	-9312
▁தாரா	-9313
▁தாழி	-9314
▁தீது	-9315
▁துகள	-9316
▁தேவி	-9317
▁நஷ்ட	-9318
▁நிலவ	-9319
▁நூலக	-9320
▁பாகு	-9321
▁பேஸ்	-9322
▁மணமக	-9323
▁மீரா	-9324
▁யாம்	-9325
▁ஹால்	-9326
டியின்	-9327
ட்டிங்	-9328
ட்டிலே	-9329
ட்டேன்	-9330
ட்பட்ட	-9331
த்திலோ	-9332
நோக்கி	-9333
ந்தரம்	-9334
னியும்	-9335
பத்திர	-9336
ழையும்	-9337
வனுடைய	-9338
வரிடம்	-9339
வருடைய	-9340
விட்டே	-9341
ாதிரிய	-9342
ிகளோடு	-9343
▁அங்ஙன	-9344
▁அடிகள	-9345
▁அன்பை	-9346
▁அலெக்	-9347
▁அவ்வு	-9348
▁இழக்க	-9349
▁இழிவு	-9350
▁உம்மை	-9351
▁உயர்த	-9352
▁எதையோ	-9353
▁ஒருவன	-9354
▁குமரே	-9355
▁சுவாச	-9356
▁செஞ்ச	-9357
▁செப்ப	-9358
▁டாக்ட	-9359
▁தகப்ப	-9360
▁தனிப்	-9361
▁தலைவன	-9362
▁தும்ப	-9363
▁தேசம்	-9364
▁தேவர்	-9365
▁தொந்த	-9366
▁தொப்ப	-9367
▁நீளம்	-9368
▁பதின்	-9369
▁பிரமி	-9370
▁பிழைய	-9371
▁புவிய	-9372
▁மகாரா	-9373
▁மண்டல	-9374
▁முனைய	-9375
▁மூவர்	-9376
▁மென்ப	-9377
▁ரஞ்சி	-9378
▁வக்கீ	-9379
▁வடகிழ	-9380
▁வரைபட	-9381
▁வளமான	-9382
▁வழிநட	-9383
▁வாணிக	-9384
▁விடக்	-9385
ஃபீல்ட்	-9386
க்கமும்	-9387
ணர்ச்சி	-9388
திகளில்	-9389
ப்பிள்ள	-9390
முடியாத	-9391
ல்களின்	-9392
ிகளிடம்	-9393
▁அக்கிர	-9394
▁அனுதாப	-9395
▁அறவுரை	-9396
▁அளவற்ற	-9397
▁ஆட்கள்	-9398
▁ஆட்சிய	-9399
▁ஆத்திக	-9400
▁ஆர்ப்ப	-9401
▁இடங்கள	-9402
▁இணைக்க	-9403
▁இதென்ன	-9404
▁இரகசிய	-9405
▁இலக்கு	-9406
▁இளங்கோ	-9407
▁இவைகளை	-9408
▁உதவியை	-9409
▁உழைப்ப	-9410
▁எகிப்த	-9411
▁எந்திர	-9412
▁எறிந்த	-9413
▁ஏழைகள்	-9414
▁ஐரோப்ப	-9415
▁கனகசபை	-9416
▁கருவறை	-9417
▁காப்பு	-9418
▁குப்பை	-9419
▁கூறிப்	-9420
▁கொலம்ப	-9421
▁சமையல்	-9422
▁சான்றோ	-9423
▁சேரும்	-9424
▁சோர்வு	-9425
▁ஜெனரல்	-9426
▁தகுதிய	-9427
▁தமக்கு	-9428
▁துணிவு	-9429
▁தெய்வீ	-9430
▁நஷ்டம்	-9431
▁பகலில்	-9432
▁பகைவர்	-9433
▁படத்தை	-9434
▁படைக்க	-9435
▁பணிகளை	-9436
▁பரிணாம	-9437
▁பலப்பல	-9438
▁பாடிக்	-9439
▁பாரசீக	-9440
▁பார்க்	-9441
▁புறநான	-9442
▁பெங்கள	-9443
▁பெருகி	-9444
▁பெறாது	-9445
▁பொங்கி	-9446
▁மாட்டு	-9447
▁முதற்ப	-9448
▁முதுகு	-9449
▁முறையே	-9450
▁முறையை	-9451
▁மூட்டை	-9452
▁ரோஜாச்	-9453
▁வருவதை	-9454
▁வலுவான	-9455
▁வள்ளிய	-9456
▁வானிலை	-9457
▁வித்து	-9458
▁விநியோ	-9459
க்கிற்கு	-9460
த்தியும்	-9461
லுக்குக்	-9462
▁அங்குச்	-9463
▁அங்கும்	-9464
▁அணியும்	-9465
▁அலைந்து	-9466
▁அவனுடன்	-9467
▁அவர்களே	-9468
▁ஆட்சேபி	-9469
▁இங்கும்	-9470
▁இப்பள்ள	-9471
▁இயல்பான	-9472
▁ஒவ்வோர்	-9473
▁கடையில்	-9474
▁கட்டிப்	-9475
▁கவர்ந்த	-9476
▁கஷ்டமான	-9477
▁குற்றால	-9478
▁கொள்ளைய	-9479
▁சிறப்பி	-9480
▁சிறப்பை	-9481
▁சுதந்தர	-9482
▁சுவையான	-9483
▁சூழ்ந்த	-9484
▁தமிழ்க்	-9485
▁தமிழ்ச்	-9486
▁தவறாமல்	-9487
▁தியானம்	-9488
▁திருக்க	-9489
▁திருமதி	-9490
▁தீர்ந்த	-9491
▁நாடகமாக	-9492
▁நிறையக்	-9493
▁நிலைகள்	-9494
▁நெஞ்சம்	-9495
▁படகுகள்	-9496
▁படுக்கை	-9497
▁பணியில்	-9498
▁பயனுள்ள	-9499
▁பரம்பரை	-9500
▁பள்ளியை	-9501
▁பேசினர்	-9502
▁பொன்வான	-9503
▁மகாத்மா	-9504
▁முகத்தை	-9505
▁மூங்கில	-9506
▁வியாழன்	-9507
▁விரிந்த	-9508
▁வைப்பது	-9509
த்தவர்கள்	-9510
ப்பட்டேன்	-9511
ர்களிடையே	-9512
வர்க்கும்	-9513
▁அங்கங்கே	-9514
▁அச்சமயம்	-9515
▁அடுத்தது	-9516
▁அறுபத்து	-9517
▁அளவிற்கு	-9518
▁ஆத்திரம்	-9519
▁இனிமையான	-9520
▁உண்டாக்க	-9521
▁உதாரணமாக	-9522
▁உனக்குப்	-9523
▁உறுதியான	-9524
▁உள்ளிட்ட	-9525
▁என்னென்ன	-9526
▁கற்பிக்க	-9527
▁காண்போம்	-9528
▁காமாட்சி	-9529
▁குதித்து	-9530
▁குதிரைப்	-9531
▁கைப்பற்ற	-9532
▁கோடையில்	-9533
▁சட்டமன்ற	-9534
▁சீதாவும்	-9535
▁செய்வோம்	-9536
▁செலுத்தி	-9537
▁தற்காலம்	-9538
▁திருமால்	-9539
▁தொடங்கின	-9540
▁நிகழ்ந்த	-9541
▁நிலங்கள்	-9542
▁நெடுஞ்செ	-9543
▁பள்ளிகள்	-9544
▁பெரியவர்	-9545
▁பொறுத்து	-9546
▁பொறுப்பே	-9547
▁மக்களைப்	-9548
▁மனத்திலே	-9549
▁மீதமுள்ள	-9550
▁முன்னாலே	-9551
▁முன்னோடி	-9552
▁வரலாறும்	-9553
▁வீழ்ச்சி	-9554
▁வீழ்ந்து	-9555
▁வேலைக்கு	-9556
ப்படுகின்ற	-9557
▁அண்மையில்	-9558
▁ஆகையினால்	-9559
▁ஆக்டர்கள்	-9560
▁ஆச்சரியம்	-9561
▁இருநூற்று	-9562
▁இருப்பவர்	-9563
▁இருப்பார்	-9564
▁எண்ணங்கள்	-9565
▁எண்ணினேன்	-9566
▁கண்ணுக்கு	-9567
▁கல்வெட்டு	-9568
▁குடியேறிய	-9569
▁குடியேற்ற	-9570
▁சித்திரம்	-9571
▁பகுதியின்	-9572
▁பாதுகாக்க	-9573
▁புரியாமல்	-9574
▁பெரும்பால	-9575
▁போராட்டம்	-9576
▁மாதிரியாக	-9577
▁முடிவுகள்	-9578
▁யாழ்ப்பாண	-9579
▁வழங்கியது	-9580
▁வேண்டுமென	-9581
முடியவில்லை	-9582
▁அயர்லாந்து	-9583
▁உருவத்தில்	-9584
▁கன்பூஷியஸ்	-9585
▁காரியங்கள்	-9586
▁குழந்தையாக	-9587
▁கேட்டவுடன்	-9588
▁சிறுவர்கள்	-9589
▁சுற்றிலும்	-9590
▁சொந்தமானது	-9591
▁திருவாரூர்	-9592
▁நன்மைக்காக	-9593
▁நினைக்கும்	-9594
▁நினைவுக்கு	-9595
▁நிறைவேற்றி	-9596
▁பருவத்தில்	-9597
▁பாராட்டும்	-9598
▁புகழ்பெற்ற	-9599
▁பொருந்தும்	-9600
▁மருத்துவம்	-9601
▁விடுகின்றன	-9602
▁அங்கத்தினர்	-9603
▁அடிப்படையான	-9604
▁அரண்மனையில்	-9605
▁ஒன்றுமில்லை	-9606
▁கூறினார்கள்	-9607
▁கொள்வார்கள்	-9608
▁தென்கிழக்கு	-9609
▁நடைபாதையில்	-9610
▁நடைமுறையில்	-9611
▁நாட்களுக்கு	-9612
▁நீர்வீழ்ச்ச	-9613
▁வைத்தார்கள்	-9614
▁இருந்திருக்க	-9615
▁உலகத்திலுள்ள	-9616
▁போய்விட்டார்	-9617
▁மக்களுக்கும்	-9618
▁விரும்பினான்	-9619
▁விளையாடினார்	-9620
▁அழும்பில்வேள்	-9621
▁அவர்களுக்கும்	-9622
▁ஆந்தைக்கண்ணன்	-9623
▁ஆராய்ச்சியில்	-9624
▁குடும்பத்தின்	-9625
▁நிறுவப்பட்டது	-9626
▁பேசுகிறார்கள்	-9627
▁வெள்ளிக்கிழமை	-9628
▁நட்சத்திரங்கள்	-9629
▁வாங்கிக்கொண்டு	-9630
▁வந்திருக்கிறார்	-9631
ep	-9632
os	-9633
யை	-9634
ுந	-9635
ூத	-9636
ேர	-9637
▁o	-9638
all	-9639
ell	-9640
ent	-9641
ine	-9642
man	-9643
காவ	-9644
கிர	-9645
சல்	-9646
ர்ப	-9647
ர்ய	-9648
வதோ	-9649
ூல்	-9650
ெண்	-9651
ெறி	-9652
ோதி	-9653
▁டா	-9654
▁பள	-9655
▁வோ	-9656
▁ஷோ	-9657
aint	-9658
சிக்	-9659
சின்	-9660
ச்சோ	-9661
ண்பக	-9662
தின்	-9663
த்தக	-9664
நிறு	-9665
பட்ச	-9666
மகன்	-9667
மதிய	-9668
முனி	-9669
ரசர்	-9670
விவர	-9671
வையை	-9672
ாடம்	-9673
ினிய	-9674
ேஷன்	-9675
ொழிய	-9676
▁ஃபி	-9677
▁அநீ	-9678
▁அனி	-9679
▁அலி	-9680
▁அவா	-9681
▁இதன	-9682
▁உத்	-9683
▁சாள	-9684
▁திச	-9685
▁தைய	-9686
▁புட	-9687
▁போர	-9688
▁லோக	-9689
காட்ட	-9690
டங்கு	-9691
ட்கள்	-9692
திகளை	-9693
த்யன்	-9694
ந்தக்	-9695
னாகப்	-9696
ன்ஸ்ட	-9697
பிறகு	-9698
ரித்த	-9699
லாண்ட	-9700
வனைப்	-9701
வாக்க	-9702
வீனம்	-9703
வைத்த	-9704
ானார்	-9705
ிறான்	-9706
ுடியோ	-9707
▁இவனை	-9708
▁உப்ப	-9709
▁கவிய	-9710
▁குழை	-9711
▁கோது	-9712
▁சக்ர	-9713
▁சாம்	-9714
▁தலம்	-9715
▁தார்	-9716
▁நக்க	-9717
▁நேரு	-9718
▁பழமை	-9719
▁பிக்	-9720
▁புவன	-9721
▁போன்	-9722
▁மதுர	-9723
▁மனக்	-9724
▁மரக்	-9725
▁மர்ம	-9726
▁மறைய	-9727
▁மாயை	-9728
▁முணு	-9729
▁மேற்	-9730
▁லீக்	-9731
▁வக்க	-9732
▁வாடி	-9733
▁வெய்	-9734
▁வெளு	-9735
▁ஸ்டீ	-9736
▁ஸ்டே	-9737
ஃபோர்ட	-9738
கர்கள்	-9739
குதியை	-9740
ட்டிச்	-9741
ண்ணும்	-9742
த்திரு	-9743
த்தீன்	-9744
நாளில்	-9745
நிலையை	-9746
பெற்று	-9747
மிடையே	-9748
ருத்து	-9749
ற்றைப்	-9750
லாகும்	-9751
வியைப்	-9752
ாததால்	-9753
ாமலேயே	-9754
ோட்டம்	-9755
▁அத்தை	-9756
▁அலைவு	-9757
▁அழுகை	-9758
▁ஆட்டி	-9759
▁இசைக்	-9760
▁இணங்க	-9761
▁இயற்ப	-9762
▁இவ்வே	-9763
▁உகந்த	-9764
▁உண்டோ	-9765
▁உள்ளு	-9766
▁ஊரார்	-9767
▁ஊரிலே	-9768
▁எக்ஸ்	-9769
▁எவ்வா	-9770
▁கலகம்	-9771
▁குழாய	-9772
▁கூத்த	-9773
▁சமகால	-9774
▁சிறுப	-9775
▁ஜின்க	-9776
▁தயங்க	-9777
▁தலைகீ	-9778
▁தழுவி	-9779
▁தீட்ட	-9780
▁துண்ட	-9781
▁துருவ	-9782
▁தெருவ	-9783
▁தெற்க	-9784
▁தேவதை	-9785
▁நச்சு	-9786
▁நியதி	-9787
▁நிழல்	-9788
▁பயமாக	-9789
▁பாகம்	-9790
▁பித்த	-9791
▁பேசத்	-9792
▁போகப்	-9793
▁போலிஸ	-9794
▁மாங்க	-9795
▁வருகை	-9796
▁வாசனை	-9797
▁விடைய	-9798
▁விற்ற	-9799
க்கோட்ட	-9800
ந்தமிழ்	-9801
ப்பகுதி	-9802
ப்பதால்	-9803
விடுவது	-9804
வுடனேயே	-9805
ாருக்கு	-9806
ிகளுடன்	-9807
ைக்குச்	-9808
▁அணிகள்	-9809
▁அந்நிய	-9810
▁இசைக்க	-9811
▁இன்பத்	-9812
▁இராமன்	-9813
▁இழுக்க	-9814
▁இவரும்	-9815
▁உச்சிய	-9816
▁உருவான	-9817
▁ஊதியம்	-9818
▁எங்கேய	-9819
▁எனவும்	-9820
▁எல்லைய	-9821
▁எளிதாக	-9822
▁ஒருசில	-9823
▁ஒருத்த	-9824
▁கலப்பு	-9825
▁காற்றை	-9826
▁சாரங்க	-9827
▁சிரமம்	-9828
▁சுண்ணா	-9829
▁ஞாயிறு	-9830
▁டேவிட்	-9831
▁தின்று	-9832
▁தேடிப்	-9833
▁தேயிலை	-9834
▁நகரமான	-9835
▁நடுத்த	-9836
▁நினைவூ	-9837
▁நீதான்	-9838
▁பகதூர்	-9839
▁படைவீர	-9840
▁பட்டாள	-9841
▁பலவகைய	-9842
▁பள்ளம்	-9843
▁பள்ளிய	-9844
▁பாக்கி	-9845
▁பாடிப்	-9846
▁பாரதிய	-9847
▁பெருமூ	-9848
▁பேச்சை	-9849
▁போரின்	-9850
▁மனதில்	-9851
▁மனிதகு	-9852
▁முட்டை	-9853
▁முல்லை	-9854
▁முழுமை	-9855
▁மைக்கே	-9856
▁யாகும்	-9857
▁வஞ்சனை	-9858
▁வட்டார	-9859
▁வருடம்	-9860
▁வருவாய	-9861
▁வியப்ப	-9862
▁விவரம்	-9863
க்குள்ளே	-9864
னியாவின்	-9865
ர்களுடைய	-9866
ர்க்கில்	-9867
ர்க்குப்	-9868
வதற்குத்	-9869
விட்டுக்	-9870
ிருவரும்	-9871
்களிலும்	-9872
▁அறிக்கை	-9873
▁அவதாரம்	-9874
▁அவருடன்	-9875
▁அவர்தம்	-9876
▁இடைவெளி	-9877
▁இனியும்	-9878
▁இயக்குந	-9879
▁இவ்வாறே	-9880
▁உடையார்	-9881
▁உதாரணம்	-9882
▁உன்னைத்	-9883
▁உயிரும்	-9884
▁உயிரோடு	-9885
▁எதுவுமே	-9886
▁என்னோடு	-9887
▁ஏரியில்	-9888
▁ஒன்றைப்	-9889
▁கடமைகள்	-9890
▁கல்யாணி	-9891
▁காலமும்	-9892
▁கையாண்ட	-9893
▁கொள்ளாத	-9894
▁கோரிக்க	-9895
▁சம்பளம்	-9896
▁சாதிக்க	-9897
▁சாம்பிய	-9898
▁சிறந்து	-9899
▁சுமந்து	-9900
▁செய்வதே	-9901
▁தந்தார்	-9902
▁தமிழகம்	-9903
▁தரிசனம்	-9904
▁தலைப்பு	-9905
▁தேவந்தி	-9906
▁நம்மால்	-9907
▁நாட்டின	-9908
▁பக்கமாக	-9909
▁படையெடு	-9910
▁பயனுடைய	-9911
▁பயிற்று	-9912
▁பரவியது	-9913
▁பிந்தைய	-9914
▁புரண்டு	-9915
▁புரோகித	-9916
▁பெருஞ்ச	-9917
▁பெருத்த	-9918
▁பொருளாக	-9919
▁மண்ணில்	-9920
▁முன்னரே	-9921
▁முன்னேற	-9922
▁வக்கீல்	-9923
▁வணங்கிய	-9924
▁விபத்து	-9925
▁விரிவடை	-9926
▁ஷேக்ஸ்ப	-9927
▁ஸ்டேஷன்	-9928
க்கொள்கிற	-9929
ட்டுகிறது	-9930
புரத்தில்	-9931
ப்பாகவும்	-9932
ல்களுக்கு	-9933
விடவில்லை	-9934
ுக்கிடையே	-9935
ெடுத்துக்	-9936
▁அடைகிறது	-9937
▁அதியமான்	-9938
▁அலுவலகம்	-9939
▁அவன்தான்	-9940
▁ஆக்கிரமி	-9941
▁இடையிலான	-9942
▁இன்பமும்	-9943
▁இப்பெயர்	-9944
▁உலகிற்கு	-9945
▁குறியீடு	-9946
▁கேட்டுப்	-9947
▁கைம்மாறு	-9948
▁கொண்டாடு	-9949
▁சந்தோஷம்	-9950
▁சான்றோர்	-9951
▁சுதேசிக்	-9952
▁சுற்றிச்	-9953
▁செய்யாதே	-9954
▁சொல்லிப்	-9955
▁தீர்ப்பு	-9956
▁துரைசாமி	-9957
▁தொழிலில்	-9958
▁நமக்குப்	-9959
▁நல்லதல்ல	-9960
▁நாளுக்கு	-9961
▁நிலையும்	-9962
▁பறக்கும்	-9963
▁பேசினாள்	-9964
▁பேச்சைக்	-9965
▁போட்டால்	-9966
▁மலைகளின்	-9967
▁மாபெரும்	-9968
▁மாற்றிக்	-9969
▁மாலையில்	-9970
▁முத்திரை	-9971
▁மூன்றும்	-9972
▁மூர்த்தி	-9973
▁மேற்பார்	-9974
▁வந்தபோது	-9975
▁விடுமுறை	-9976
▁வியப்பாக	-9977
▁வெளியிடு	-9978
▁வெளியீடு	-9979
▁ஸ்டுடியோ	-9980
போதெல்லாம்	-9981
ப்பதற்கும்	-9982
்களுக்கும்	-9983
▁அமைத்துக்	-9984
▁அரசனுக்கு	-9985
▁அழைத்தார்	-9986
▁அவர்களைச்	-9987
▁அவர்களோடு	-9988
▁உயரத்தில்	-9989
▁என்கிறாள்	-9990
▁எழுதினேன்	-9991
▁ஒன்றையும்	-9992
▁கேளுங்கள்	-9993
▁கொண்டுள்ள	-9994
▁கோலத்தில்	-9995
▁சிலருக்கு	-9996
▁சுற்றுப்ப	-9997
▁திருவுருவ	-9998
▁நன்மையும்	-9999
▁நர்த்தனம்	-10000
▁நெருக்கடி	-10001
▁பிரிவுகள்	-10002
▁பொறுத்தது	-10003
▁மாறுகிறது	-10004
▁வளர்கிறது	-10005
▁வேலைக்கார	-10006
ரிடமிருந்து	-10007
ிருக்கிறாய்	-10008
▁அதைப்பற்றி	-10009
▁அனைவரையும்	-10010
▁இடத்திலேயே	-10011
▁உடம்புக்கு	-10012
▁எந்தவிதமான	-10013
▁கட்டுரைகள்	-10014
▁காண்கிறான்	-10015
▁கிடக்கிறது	-10016
▁கூறுகிறாள்	-10017
▁கூறும்போது	-10018
▁கொடுத்தான்	-10019
▁திட்டங்களை	-10020
▁தோட்டங்கள்	-10021
▁நாடகத்தைப்	-10022
▁நினைத்துப்	-10023
▁நினைத்தேன்	-10024
▁நிற்கின்றன	-10025
▁பாடல்களில்	-10026
▁பாடல்களும்	-10027
▁மக்களிடையே	-10028
▁முன்னூற்று	-10029
▁முயற்சிகள்	-10030
▁வாழ்க்கைப்	-10031
▁வாழ்க்கையே	-10032
ப்படுத்துவது	-10033
ப்படுவார்கள்	-10034
▁இல்லையானால்	-10035
▁உண்மையிலேயே	-10036
▁கம்யூனிஸ்டு	-10037
▁குடியிருப்ப	-10038
▁திருவிளையாட	-10039
▁தேவைப்படும்	-10040
▁பாத்திரத்தை	-10041
▁பொருள்களும்	-10042
▁மருத்துவமனை	-10043
▁வந்துவிடும்	-10044
▁வேண்டுமென்ப	-10045
▁அபிப்பிராயம்	-10046
▁ஆரம்பித்தார்	-10047
▁உருவாக்கியது	-10048
▁கருத்துக்களை	-10049
▁கொடுங்கோளுர்	-10050
▁சந்தேகமில்லை	-10051
▁செய்யக்கூடிய	-10052
▁நிகழ்ச்சிகளை	-10053
▁புறப்பட்டான்	-10054
▁பைத்தியக்கார	-10055
▁விரும்பினார்	-10056
▁வெளியிட்டார்	-10057
▁அழைக்கின்றனர்	-10058
▁இலக்கியத்தில்	-10059
▁உருவாக்கினார்	-10060
▁செங்குட்டுவன்	-10061
▁செயல்படுகிறது	-10062
▁சொல்லுவார்கள்	-10063
▁தணிகாசலத்தின்	-10064
▁நெடுஞ்செழியன்	-10065
▁பெற்றிருந்தது	-10066
▁ஆண்டுகளுக்குப்	-10067
▁கொண்டிருந்தால்	-10068
▁துவக்கப்பட்டது	-10069
▁தொடங்கினார்கள்	-10070
▁பிரதிநிதித்துவ	-10071
▁வைத்திருந்தார்	-10072
ey	-10073
ணா	-10074
ளூ	-10075
son	-10076
ton	-10077
ஜிய	-10078
த்ர	-10079
பக்	-10080
மகள	-10081
யான	-10082
ரக்	-10083
றாக	-10084
விக	-10085
ஸ்வ	-10086
ாமோ	-10087
ாயோ	-10088
ாளோ	-10089
ிணை	-10090
ுடு	-10091
▁Br	-10092
▁கப	-10093
▁தண	-10094
▁பௌ	-10095
▁று	-10096
▁லு	-10097
கைக்	-10098
க்ஷி	-10099
டிச்	-10100
ட்ரி	-10101
தமான	-10102
நாடக	-10103
னவாக	-10104
ன்டு	-10105
ன்னி	-10106
பாடி	-10107
மனம்	-10108
மிக்	-10109
ர்ஸ்	-10110
ல்லே	-10111
ழில்	-10112
ழ்வு	-10113
வடிவ	-10114
வளாக	-10115
வாரா	-10116
விஸ்	-10117
வீர்	-10118
ஷிப்	-10119
ஸ்வர	-10120
ிடத்	-10121
ிதம்	-10122
ீரர்	-10123
ுமான	-10124
ெனவே	-10125
ேகர்	-10126
்தல்	-10127
▁ஆலை	-10128
▁ஆளா	-10129
▁உழு	-10130
▁எல்	-10131
▁ஏழ்	-10132
▁கலெ	-10133
▁கவச	-10134
▁கவர	-10135
▁க்ஷ	-10136
▁சகு	-10137
▁ஜமீ	-10138
▁தசா	-10139
▁தர்	-10140
▁தளப	-10141
▁தொக	-10142
▁நரக	-10143
▁நிஜ	-10144
▁நேச	-10145
▁பறை	-10146
▁மலி	-10147
குமார	-10148
டலில்	-10149
ண்ணன்	-10150
த்திற	-10151
ந்தப்	-10152
னையாக	-10153
ன்களை	-10154
ய்தல்	-10155
ரங்கு	-10156
ர்மன்	-10157
றையாக	-10158
வனந்த	-10159
வித்த	-10160
வியது	-10161
ாளில்	-10162
ியிலே	-10163
ிருந்	-10164
ிலுமே	-10165
ில்லா	-10166
▁அள்ள	-10167
▁அழகை	-10168
▁ஆவல்	-10169
▁இருத	-10170
▁ஈரம்	-10171
▁உனது	-10172
▁உரும	-10173
▁உலகை	-10174
▁உல்ல	-10175
▁எஃகு	-10176
▁எஞ்ச	-10177
▁ஓடிய	-10178
▁குலோ	-10179
▁சடப்	-10180
▁சாது	-10181
▁சாவு	-10182
▁சில்	-10183
▁செறி	-10184
▁ஜூன்	-10185
▁டான்	-10186
▁தாள்	-10187
▁திளை	-10188
▁பாணி	-10189
▁பிரய	-10190
▁பூவை	-10191
▁மனது	-10192
▁மாதே	-10193
▁முயல	-10194
▁மூளை	-10195
▁ரயில	-10196
▁வயசு	-10197
▁வாதா	-10198
▁விறு	-10199
▁விறை	-10200
▁ஸ்மி	-10201
குப்பு	-10202
க்கோல்	-10203
ச்சின்	-10204
ஞ்சிக்	-10205
டக்கம்	-10206
ட்டைக்	-10207
தல்கள்	-10208
தினால்	-10209
த்தினை	-10210
பட்டது	-10211
ப்பிள்	-10212
மையோடு	-10213
ம்பின்	-10214
ம்பெண்	-10215
ய்ந்து	-10216
ருக்கே	-10217
ர்களான	-10218
ர்க்கை	-10219
வதற்கே	-10220
ாதலால்	-10221
்களைச்	-10222
▁Saint	-10223
▁அண்ட்	-10224
▁அந்தி	-10225
▁அப்பு	-10226
▁அயில்	-10227
▁ஆடிக்	-10228
▁ஆயுள்	-10229
▁ஆவான்	-10230
▁இக்கா	-10231
▁இதையே	-10232
▁இனத்த	-10233
▁இரங்க	-10234
▁இஸ்லா	-10235
▁உத்தம	-10236
▁உனக்க	-10237
▁உயரிய	-10238
▁உருளை	-10239
▁உலகிய	-10240
▁எனில்	-10241
▁என்றோ	-10242
▁எருது	-10243
▁ஒற்று	-10244
▁கணவனை	-10245
▁கல்கி	-10246
▁களிறு	-10247
▁கழுதை	-10248
▁காஞ்ச	-10249
▁காயம்	-10250
▁கின்ற	-10251
▁கிரெள	-10252
▁கிளப்	-10253
▁குப்ப	-10254
▁கூறக்	-10255
▁சம்பள	-10256
▁சாபம்	-10257
▁சுபாவ	-10258
▁டென்ன	-10259
▁தின்ப	-10260
▁தின்ற	-10261
▁தேவகி	-10262
▁நன்கொ	-10263
▁நிதிய	-10264
▁நிர்ண	-10265
▁பட்டை	-10266
▁பண்டி	-10267
▁புண்ப	-10268
▁புஷ்க	-10269
▁பூட்ட	-10270
▁பெயரே	-10271
▁பெய்த	-10272
▁பொங்க	-10273
▁மணக்க	-10274
▁மதில்	-10275
▁மற்று	-10276
▁ராயல்	-10277
▁வசனம்	-10278
▁வஞ்சக	-10279
▁வாசம்	-10280
▁வாஸ்த	-10281
▁விசிற	-10282
▁விடிய	-10283
▁விரிய	-10284
▁வேறுப	-10285
▁ஹோட்ட	-10286
க்காகத்	-10287
க்காகப்	-10288
ங்குவர்	-10289
ச்சிக்க	-10290
டித்தல்	-10291
னத்தில்	-10292
மாகிறது	-10293
ராஜ்யம்	-10294
ர்ச்சிய	-10295
ல்களும்	-10296
வில்லாத	-10297
ாமையால்	-10298
ாலையில்	-10299
ால்தானே	-10300
ிட்டுக்	-10301
ினையும்	-10302
▁அதற்கே	-10303
▁அநேகர்	-10304
▁அப்பன்	-10305
▁அரங்கே	-10306
▁அருவரு	-10307
▁அவரின்	-10308
▁ஆடுவது	-10309
▁ஆதாரம்	-10310
▁ஆப்பரே	-10311
▁இசையமை	-10312
▁உடனேயே	-10313
▁ஊர்வசி	-10314
▁கடிகார	-10315
▁கட்சிய	-10316
▁கூத்தா	-10317
▁கொட்டை	-10318
▁சகோதரி	-10319
▁சமநிலை	-10320
▁சரவணப்	-10321
▁சராசரி	-10322
▁சிங்கள	-10323
▁செங்கோ	-10324
▁தசைகள்	-10325
▁தூங்கி	-10326
▁தொன்று	-10327
▁நன்மைய	-10328
▁நரம்பு	-10329
▁நாங்கள	-10330
▁நிகழ்க	-10331
▁நீலகிர	-10332
▁பிறக்க	-10333
▁புதுப்	-10334
▁பெண்ணே	-10335
▁பேரின்	-10336
▁பொய்யா	-10337
▁பொழுதே	-10338
▁போக்கி	-10339
▁போச்சு	-10340
▁போராடு	-10341
▁மாணவர்	-10342
▁முதலான	-10343
▁வடமொழி	-10344
▁வாயிற்	-10345
▁விடாதே	-10346
▁விடுபட	-10347
▁விநாடி	-10348
▁விந்தை	-10349
▁விரதம்	-10350
க்கொன்று	-10351
த்தினார்	-10352
த்துக்கே	-10353
ப்படுதல்	-10354
ர்ந்தார்	-10355
லுக்குப்	-10356
விட்டதாக	-10357
வித்தான்	-10358
ைக்குரிய	-10359
▁அகங்கார	-10360
▁அகத்திய	-10361
▁அதிர்வெ	-10362
▁அறிவுடை	-10363
▁அலட்சிய	-10364
▁அவமானம்	-10365
▁ஆடினோம்	-10366
▁இங்குச்	-10367
▁இந்நூல்	-10368
▁இறுதிச்	-10369
▁உணர்கிற	-10370
▁உன்னைச்	-10371
▁உலகமும்	-10372
▁உள்ளவன்	-10373
▁உழைத்து	-10374
▁என்பவன்	-10375
▁என்றாலே	-10376
▁ஐநூற்று	-10377
▁கற்பனைய	-10378
▁கவனித்த	-10379
▁குறைக்க	-10380
▁கெட்டது	-10381
▁கைகளில்	-10382
▁கொண்டவை	-10383
▁சற்றும்	-10384
▁சேரலாம்	-10385
▁தட்டிக்	-10386
▁தனிமனித	-10387
▁திறம்பட	-10388
▁தென்றல்	-10389
▁தெளிந்த	-10390
▁தேவைகளை	-10391
▁தேவைகள்	-10392
▁தொடுத்த	-10393
▁நிற்பது	-10394
▁நேரத்தை	-10395
▁நேரமும்	-10396
▁பறவைகள்	-10397
▁பாடலின்	-10398
▁பிற்கால	-10399
▁பூக்கள்	-10400
▁பெண்களை	-10401
▁பெருகிய	-10402
▁பொறிகள்	-10403
▁போதுமான	-10404
▁மறுமொழி	-10405
▁மிக்கது	-10406
▁முழுவது	-10407
▁ரயிலில்	-10408
▁விரிவான	-10409
களுக்குத்	-10410
க்கும்படி	-10411
னிடத்தில்	-10412
ிருப்பேன்	-10413
ும்படியாக	-10414
▁அதனாலேயே	-10415
▁அன்றாடம்	-10416
▁அயோக்கிய	-10417
▁அரங்கில்	-10418
▁அறியலாம்	-10419
▁அல்லாமல்	-10420
▁அவர்தான்	-10421
▁அவைகளைப்	-10422
▁இத்துடன்	-10423
▁இஸ்லாமிய	-10424
▁உங்களைப்	-10425
▁உயர்நிலை	-10426
▁ஏற்றுமதி	-10427
▁ஐயமில்லை	-10428
▁ஓடிவந்து	-10429
▁கடலுக்கு	-10430
▁குறுக்கே	-10431
▁குறும்பு	-10432
▁கூறினால்	-10433
▁கெடுத்து	-10434
▁கொஞ்சமாக	-10435
▁கொள்வோம்	-10436
▁சந்திரன்	-10437
▁சிதம்பரன	-10438
▁சீதாவின்	-10439
▁சொல்வார்	-10440
▁சோர்ந்து	-10441
▁டிக்கெட்	-10442
▁தண்டனையை	-10443
▁தனக்குத்	-10444
▁தனித்தனி	-10445
▁நாட்டுத்	-10446
▁நினைப்பு	-10447
▁நேரடியாக	-10448
▁பக்கத்து	-10449
▁படகர்கள்	-10450
▁பண்புகள்	-10451
▁பாட்டிலே	-10452
▁பிரச்சோத	-10453
▁பொருந்து	-10454
▁பொருளைத்	-10455
▁பொருளைப்	-10456
▁மதிப்பிட	-10457
▁மரத்தில்	-10458
▁முழக்கம்	-10459
▁மேடையின்	-10460
▁வருத்தம்	-10461
▁வழக்கில்	-10462
▁வழியாகச்	-10463
▁விளக்கிய	-10464
▁வென்றார்	-10465
▁வெளியேறி	-10466
▁வேலையும்	-10467
த்துக்குத்	-10468
ப்பதற்குக்	-10469
வதற்கில்லை	-10470
விடுகிறான்	-10471
▁அசுரர்கள்	-10472
▁அடிக்கும்	-10473
▁அதெல்லாம்	-10474
▁அநுபவிக்க	-10475
▁அமைகின்றன	-10476
▁அறிந்தேன்	-10477
▁அறுநூற்று	-10478
▁அழைத்துப்	-10479
▁இதைத்தான்	-10480
▁இயற்கையான	-10481
▁இல்லாதவன்	-10482
▁எங்களுடைய	-10483
▁என்கிறோம்	-10484
▁என்னையும்	-10485
▁காணப்பட்ட	-10486
▁கிழக்குப்	-10487
▁குளத்தில்	-10488
▁சடங்குகள்	-10489
▁செயல்முறை	-10490
▁செய்வதில்	-10491
▁தலைப்பில்	-10492
▁தலைமையில்	-10493
▁திருவனந்த	-10494
▁நடிப்பார்	-10495
▁நாடகமானது	-10496
▁நிறத்தில்	-10497
▁படிக்கும்	-10498
▁படைப்பிரி	-10499
▁பாய்கிறது	-10500
▁பின்வரும்	-10501
▁பிரிவினர்	-10502
▁பிறந்தவர்	-10503
▁பெண்களின்	-10504
▁போயிருந்த	-10505
▁மகிழ்ந்து	-10506
▁முக்கியக்	-10507
▁விடுங்கள்	-10508
▁வேகத்தில்	-10509
▁ஸ்டேஷனில்	-10510
கின்றார்கள்	-10511
ங்களுக்குச்	-10512
ூரிலிருந்து	-10513
▁அப்படியும்	-10514
▁அளிக்கிறது	-10515
▁அவர்களுடன்	-10516
▁ஆண்டவனுடைய	-10517
▁இருந்தபோது	-10518
▁உள்ளவர்கள்	-10519
▁கூறுகிறேன்	-10520
▁கொள்கிறாள்	-10521
▁கொள்வதற்கு	-10522
▁சுண்ணாம்பு	-10523
▁தெலுங்கில்	-10524
▁நடத்தினார்	-10525
▁நாட்டிலும்	-10526
▁நிகழ்வுகள்	-10527
▁நிற்கிறாள்	-10528
▁பத்தொன்பது	-10529
▁பாராளுமன்ற	-10530
▁பெருமையும்	-10531
▁பெறுகிறார்	-10532
▁பெறுவதற்கு	-10533
▁பொருத்தமாக	-10534
▁மருத்துவர்	-10535
▁மாதங்களில்	-10536
▁விக்டோரியா	-10537
▁வெளியிட்டு	-10538
ிருக்கவில்லை	-10539
▁அனுப்பினார்	-10540
▁எல்லைக்குள்	-10541
▁கட்டிடங்கள்	-10542
▁கம்பெனியின்	-10543
▁காரியத்தைச்	-10544
▁செய்வதில்லை	-10545
▁சொல்லுங்கள்	-10546
▁நுழைந்ததும்	-10547
▁பெரும்பகுதி	-10548
▁போகிறார்கள்	-10549
▁மாகாணத்தின்	-10550
ங்களிலிருந்து	-10551
ப்படுத்தினார்	-10552
▁அணிந்திருந்த	-10553
▁இவ்விடத்தில்	-10554
▁செய்யப்பட்டன	-10555
▁சொல்லும்போது	-10556
▁தொடர்புடையது	-10557
▁பார்க்கிலும்	-10558
▁மகிழ்ச்சியாக	-10559
▁மற்றவர்களைப்	-10560
▁வம்சாவளியைச்	-10561
▁விட்டுவிட்டு	-10562
ர்களிடமிருந்து	-10563
▁எதிர்பார்த்து	-10564
▁எல்லார்க்கும்	-10565
▁சுட்டிக்காட்ட	-10566
▁தேர்ந்தெடுத்த	-10567
▁பயன்படுகின்றன	-10568
▁பாதிக்கப்பட்ட	-10569
▁பிற்காலத்தில்	-10570
▁வைத்துக்கொண்ட	-10571
▁வெளியிடப்பட்டது	-10572
hi	-10573
கத	-10574
சீ	-10575
பள	-10576
வற	-10577
ூல	-10578
ோன	-10579
▁b	-10580
ity	-10581
பாக	-10582
மல்	-10583
மேக	-10584
ரும	-10585
ளாக	-10586
வேட	-10587
வ்ய	-10588
ானை	-10589
ொள்	-10590
கர்ய	-10591
குறை	-10592
சைக்	-10593
சைப்	-10594
டெட்	-10595
தாரி	-10596
தார்	-10597
திக்	-10598
திவு	-10599
தோர்	-10600
நோய்	-10601
ந்தொ	-10602
மானி	-10603
மிகு	-10604
ராய்	-10605
ரிஸ்	-10606
ர்ரி	-10607
லாக்	-10608
லியா	-10609
வலோக	-10610
வாது	-10611
வொரு	-10612
ெனத்	-10613
ொன்ன	-10614
ொருள	-10615
்கண்	-10616
▁கணை	-10617
▁காள	-10618
▁சரண	-10619
▁ஜான	-10620
▁தணி	-10621
▁மடை	-10622
▁மலே	-10623
▁மல்	-10624
க்கதை	-10625
க்கிட	-10626
சுரம்	-10627
சொல்ல	-10628
தானம்	-10629
னுப்ப	-10630
பர்ட்	-10631
மட்டு	-10632
மண்ட்	-10633
மானிய	-10634
முடன்	-10635
றுகள்	-10636
வதையே	-10637
ாதாரண	-10638
ாமில்	-10639
ினுள்	-10640
ேனும்	-10641
ொன்றை	-10642
்டில்	-10643
▁அக்ர	-10644
▁அவளே	-10645
▁ஆடம்	-10646
▁ஆபாச	-10647
▁இயலு	-10648
▁இவளை	-10649
▁உதடு	-10650
▁உரம்	-10651
▁ஒளரே	-10652
▁கணவன	-10653
▁கரடி	-10654
▁கலகல	-10655
▁களிம	-10656
▁காஃப	-10657
▁காரி	-10658
▁கில்	-10659
▁கூரை	-10660
▁கைகள	-10661
▁கொசு	-10662
▁கோவி	-10663
▁சப்த	-10664
▁சாரண	-10665
▁சேமி	-10666
▁ஜாக்	-10667
▁ஜோடி	-10668
▁தன்ம	-10669
▁தாமத	-10670
▁நளின	-10671
▁பட்ச	-10672
▁பதிய	-10673
▁பயனை	-10674
▁பளபள	-10675
▁பானை	-10676
▁பாப்	-10677
▁பாமர	-10678
▁பாவி	-10679
▁பிரு	-10680
▁புண்	-10681
▁பொதி	-10682
▁மகாம	-10683
▁மல்ல	-10684
▁மழலை	-10685
▁மாது	-10686
▁மாயா	-10687
▁மியூ	-10688
▁மெழு	-10689
▁மேடு	-10690
▁மைக்	-10691
▁வரம்	-10692
▁வாழு	-10693
▁வீசி	-10694
▁வைகு	-10695
களாகப்	-10696
கையின்	-10697
க்குடி	-10698
சுவரர்	-10699
டித்தன	-10700
டியிலே	-10701
டுக்கு	-10702
ட்டைப்	-10703
ணர்ச்ச	-10704
ண்டாம்	-10705
த்துள்	-10706
னுக்கே	-10707
பிரான்	-10708
ப்பாதை	-10709
ப்பைச்	-10710
ர்க்கா	-10711
றித்து	-10712
றினான்	-10713
வாசகர்	-10714
வார்கள	-10715
வினால்	-10716
வின்றி	-10717
வையில்	-10718
ஸ்டிக்	-10719
ாகிறது	-10720
ும்படி	-10721
ையுள்ள	-10722
▁அணுகி	-10723
▁அலுவல	-10724
▁ஆக்கி	-10725
▁இந்தா	-10726
▁இந்தி	-10727
▁இப்பு	-10728
▁இரசிக	-10729
▁இல்லற	-10730
▁ஈட்டு	-10731
▁உடற்க	-10732
▁எதைச்	-10733
▁எப்போ	-10734
▁ஏதேதோ	-10735
▁ஏறும்	-10736
▁ஓங்கி	-10737
▁கட்டள	-10738
▁கருவு	-10739
▁கழிவு	-10740
▁காப்ப	-10741
▁கூடச்	-10742
▁கூடத்	-10743
▁கூறின	-10744
▁கூற்ற	-10745
▁சஞ்சீ	-10746
▁சாக்க	-10747
▁சிப்ப	-10748
▁சீதார	-10749
▁செத்த	-10750
▁செந்ந	-10751
▁செம்ம	-10752
▁செயலை	-10753
▁டிரம்	-10754
▁தண்டி	-10755
▁தனிக்	-10756
▁தனிச்	-10757
▁தபால்	-10758
▁திறம்	-10759
▁தேவான	-10760
▁நடனமா	-10761
▁நம்மா	-10762
▁நாளாக	-10763
▁நீந்த	-10764
▁நெற்ற	-10765
▁பயில்	-10766
▁பிறரை	-10767
▁பூழிய	-10768
▁போர்ட	-10769
▁மஞ்சு	-10770
▁மலையை	-10771
▁மின்க	-10772
▁மீட்க	-10773
▁மூலமே	-10774
▁மெக்க	-10775
▁மேலான	-10776
▁மைந்த	-10777
▁ரத்து	-10778
▁வம்பு	-10779
▁விசால	-10780
ங்காரம்	-10781
ங்கியது	-10782
ந்திரம்	-10783
புறமும்	-10784
மார்கள்	-10785
மையுடைய	-10786
வற்றுள்	-10787
ாற்போல்	-10788
ையிலேயே	-10789
▁அடிவார	-10790
▁அணிவகு	-10791
▁அண்ணாம	-10792
▁அதிகப்	-10793
▁அன்றாட	-10794
▁அமைப்ப	-10795
▁அரங்கு	-10796
▁அவசரம்	-10797
▁அவளால்	-10798
▁ஆந்திர	-10799
▁ஆரியம்	-10800
▁இடுக்க	-10801
▁இதனைத்	-10802
▁ஈடுபடு	-10803
▁உடுத்த	-10804
▁உணவும்	-10805
▁உல்லாச	-10806
▁என்பவை	-10807
▁எழுதப்	-10808
▁ஏற்றது	-10809
▁ஏழாவது	-10810
▁கண்டறி	-10811
▁கருதிய	-10812
▁கல்லறை	-10813
▁குங்கு	-10814
▁கூடாதா	-10815
▁கொட்டி	-10816
▁சென்றன	-10817
▁சொல்வத	-10818
▁தசாப்த	-10819
▁தடையாக	-10820
▁தலைவலி	-10821
▁தழுவிய	-10822
▁தாமும்	-10823
▁திண்மை	-10824
▁திரட்ட	-10825
▁தேடித்	-10826
▁நாளைக்	-10827
▁நிரூபி	-10828
▁நிர்வக	-10829
▁பாடகர்	-10830
▁பாட்டை	-10831
▁புலால்	-10832
▁பூட்டி	-10833
▁பெட்ரோ	-10834
▁பெருகு	-10835
▁பெளத்த	-10836
▁பொதுப்	-10837
▁மனநிலை	-10838
▁மயங்கி	-10839
▁மறைமுக	-10840
▁மற்றக்	-10841
▁மாடலன்	-10842
▁முடியு	-10843
▁மூக்கு	-10844
▁மென்று	-10845
▁வரைந்த	-10846
▁விட்டே	-10847
▁வீசும்	-10848
▁வெளியூ	-10849
▁வேட்கை	-10850
▁வேட்டு	-10851
▁ஹாக்கி	-10852
ப்பாளராக	-10853
மையிலும்	-10854
ர்ந்தான்	-10855
வர்களைத்	-10856
வாழ்க்கை	-10857
விட்டோம்	-10858
ிருத்தல்	-10859
▁அங்குக்	-10860
▁அமர்த்த	-10861
▁அறியாது	-10862
▁ஆதரிக்க	-10863
▁இங்கேயே	-10864
▁இணைப்பு	-10865
▁இதையும்	-10866
▁இருப்பு	-10867
▁இல்லையோ	-10868
▁ஈர்ப்பு	-10869
▁உடைந்து	-10870
▁உயிரைப்	-10871
▁உயிர்கள	-10872
▁என்பதாக	-10873
▁என்பான்	-10874
▁ஏமாற்றி	-10875
▁ஒத்திசை	-10876
▁ஒருவரான	-10877
▁கண்டனர்	-10878
▁கண்ணைக்	-10879
▁கதிர்வீ	-10880
▁கருணாகர	-10881
▁கல்லில்	-10882
▁கவர்ச்ச	-10883
▁காரணமான	-10884
▁சகோதரன்	-10885
▁சபையோர்	-10886
▁சின்னப்	-10887
▁சுழன்று	-10888
▁சுவரில்	-10889
▁சேவைகள்	-10890
▁சொல்வதை	-10891
▁தங்கும்	-10892
▁தணிகாசல	-10893
▁தானாகவே	-10894
▁தாழ்வான	-10895
▁திருவிழ	-10896
▁தொடரில்	-10897
▁நல்லவன்	-10898
▁நித்திய	-10899
▁படிந்து	-10900
▁பலவற்றை	-10901
▁பெயரைச்	-10902
▁பெறுதல்	-10903
▁பேசுகிற	-10904
▁பொங்கல்	-10905
▁போடுவது	-10906
▁மற்றோர்	-10907
▁மின்னணு	-10908
▁மின்னல்	-10909
▁முதலாம்	-10910
▁முன்னணி	-10911
▁முன்னமே	-10912
▁மெளனமாக	-10913
▁மேற்படி	-10914
▁ரகசியம்	-10915
▁ராமசாமி	-10916
▁லத்தீன்	-10917
▁வசதிகள்	-10918
▁வஞ்சிமா	-10919
▁வழியும்	-10920
▁வாசிக்க	-10921
▁விதிகளை	-10922
▁வீழ்ந்த	-10923
▁வேதாந்த	-10924
காலத்தில்	-10925
த்திருந்த	-10926
மையாகவும்	-10927
ர்த்தியான	-10928
வற்றையும்	-10929
▁அட்லாண்ட	-10930
▁அந்தரங்க	-10931
▁அப்பெண்ண	-10932
▁அர்ப்பணி	-10933
▁அவைகளில்	-10934
▁இருப்பதே	-10935
▁இவற்றின்	-10936
▁உத்தியோக	-10937
▁எந்தவொரு	-10938
▁என்கிறது	-10939
▁எழுப்பிய	-10940
▁ஏற்றவாறு	-10941
▁ஒழுங்காக	-10942
▁கட்டாயம்	-10943
▁கணக்குப்	-10944
▁கவர்ச்சி	-10945
▁குறுக்கு	-10946
▁குலோத்து	-10947
▁குழுவின்	-10948
▁கூறுவார்	-10949
▁கேட்டனர்	-10950
▁கொண்டவன்	-10951
▁கோப்பெரு	-10952
▁சத்தியம்	-10953
▁சரியாகப்	-10954
▁சிக்கலான	-10955
▁சித்திரை	-10956
▁சுந்தரர்	-10957
▁ஜாக்கிரத	-10958
▁தளர்ந்து	-10959
▁தவிர்த்த	-10960
▁தாங்கும்	-10961
▁திசையில்	-10962
▁திருக்கர	-10963
▁திருக்கு	-10964
▁தோழர்களே	-10965
▁தோழர்கள்	-10966
▁நகரங்கள்	-10967
▁நடவடிக்க	-10968
▁நெறியில்	-10969
▁நேரிடும்	-10970
▁படைத்தலை	-10971
▁பிரகாரம்	-10972
▁பிழைப்பு	-10973
▁பூர்த்தி	-10974
▁பெண்ணைப்	-10975
▁பெருங்கு	-10976
▁பேச்சில்	-10977
▁பேருக்கு	-10978
▁பொருளைக்	-10979
▁போகிறார்	-10980
▁மனத்தின்	-10981
▁மாதங்கள்	-10982
▁மாறுபாடு	-10983
▁முஸ்லிம்	-10984
▁மேற்குப்	-10985
▁வருமானம்	-10986
▁விழிப்பு	-10987
▁வீரர்களை	-10988
▁வெண்ணெய்	-10989
▁வெறுப்பு	-10990
▁வெற்றியை	-10991
▁வெற்றிலை	-10992
▁வெளியேறு	-10993
▁வெளிவந்த	-10994
▁வைத்தனர்	-10995
க்கெல்லாம்	-10996
த்துக்குள்	-10997
ாயிருந்தது	-10998
▁அரசியலார்	-10999
▁அருகிலேயே	-11000
▁அழைத்தனர்	-11001
▁அழைத்தான்	-11002
▁ஆங்காங்கே	-11003
▁ஆசிரியராக	-11004
▁இனிக்கும்	-11005
▁உண்மைதான்	-11006
▁எரிபொருள்	-11007
▁எழுநூற்று	-11008
▁காரணமாகவே	-11009
▁கூடத்தில்	-11010
▁கூட்டுறவு	-11011
▁கொஞ்சமும்	-11012
▁கொள்ளுதல்	-11013
▁சந்தித்து	-11014
▁செய்யவும்	-11015
▁தாவரங்கள்	-11016
▁நினைவுகள்	-11017
▁பயங்கரமான	-11018
▁பல்லாண்டு	-11019
▁பிடிவாதம்	-11020
▁பிரதிஷ்டை	-11021
▁புலவர்கள்	-11022
▁போலத்தான்	-11023
▁மக்களிடம்	-11024
▁மனைவிக்கு	-11025
▁மனைவியின்	-11026
▁மாதவியின்	-11027
▁முக்கியம்	-11028
▁முதிர்ந்த	-11029
▁மேற்சொன்ன	-11030
▁வயிற்றில்	-11031
▁விளக்கிக்	-11032
▁விளைகிறது	-11033
▁வெள்ளையர்	-11034
▁வைக்கிறது	-11035
க்காலத்தில்	-11036
த்தைப்பற்றி	-11037
ாயிருக்கும்	-11038
▁அமைப்புகள்	-11039
▁இடத்தையும்	-11040
▁உணர்ச்சியை	-11041
▁உத்தியோகம்	-11042
▁எல்லோருடைய	-11043
▁ஏற்பட்டால்	-11044
▁காட்சிக்கு	-11045
▁காட்சியைக்	-11046
▁காரியங்களை	-11047
▁கூட்டங்கள்	-11048
▁கொள்கிறோம்	-11049
▁சிரித்துக்	-11050
▁சிறைப்பட்ட	-11051
▁செல்கிறார்	-11052
▁செல்கிறாள்	-11053
▁சேர்க்கும்	-11054
▁தங்கம்மாள்	-11055
▁திருப்திகர	-11056
▁துப்பாக்கி	-11057
▁தேர்ந்தெடு	-11058
▁தோன்றினார்	-11059
▁நினைத்தான்	-11060
▁பாதிரியார்	-11061
▁பொறுத்துக்	-11062
▁போகும்போது	-11063
▁வடிவத்தில்	-11064
▁வரலாற்றின்	-11065
▁வளர்த்துக்	-11066
▁விக்கிரமன்	-11067
▁விடுகிறார்	-11068
▁விழித்துக்	-11069
▁விஷயத்தில்	-11070
▁வேட்டையாடு	-11071
ப்பிலிருந்து	-11072
▁அகப்பட்டுக்	-11073
▁அமலாதித்யன்	-11074
▁அறிவித்தான்	-11075
▁ஆகியவற்றின்	-11076
▁இந்நாடகத்தை	-11077
▁இந்நிலையில்	-11078
▁உருவாக்கும்	-11079
▁ஏற்படுத்திய	-11080
▁கருதப்படும்	-11081
▁குழந்தையும்	-11082
▁செயல்படுத்த	-11083
▁செய்தித்தாள	-11084
▁செய்திருக்க	-11085
▁செய்பவர்கள்	-11086
▁செய்வதற்காக	-11087
▁தமிழ்நாட்டு	-11088
▁நடந்துகொண்ட	-11089
▁நின்றுகொண்ட	-11090
▁நேரத்திற்கு	-11091
▁பின்வருமாறு	-11092
▁பிராமணர்கள்	-11093
▁பெரியோர்கள்	-11094
▁பொருள்களைப்	-11095
▁போன்றவர்கள்	-11096
▁முதலியவற்றை	-11097
▁முயற்சியும்	-11098
▁விளங்கினார்	-11099
▁வேடிக்கையாக	-11100
▁அறிந்துகொள்ள	-11101
▁அழைக்கப்பட்ட	-11102
▁எழுந்திருக்க	-11103
▁காரியங்களைச்	-11104
▁குடும்பங்கள்	-11105
▁குறும்பர்கள்	-11106
▁கொடுங்கோளூர்	-11107
▁பகுத்தறிவின்	-11108
▁பக்கவாட்டில்	-11109
▁பெரும்பாலோர்	-11110
▁மேற்கொண்டார்	-11111
▁இன்றியமையாதது	-11112
▁உறுதிப்படுத்த	-11113
▁எண்ணிக்கையில்	-11114
▁குற்றச்சாட்டு	-11115
▁கொடுத்தார்கள்	-11116
▁கொண்டிருப்பது	-11117
▁கொள்ளவேண்டும்	-11118
▁தமிழ்நாட்டின்	-11119
▁நடைபெறுகின்றன	-11120
▁விடுகிறார்கள்	-11121
▁வைத்துக்கொள்ள	-11122
▁இடத்திலிருந்து	-11123
▁இருந்தபோதிலும்	-11124
▁உண்டாக்குகிறது	-11125
▁வாழ்க்கைக்குத்	-11126
▁இருந்திருந்தால்	-11127
▁இல்லாவிட்டாலும்	-11128
nd	-11129
ot	-11130
ud	-11131
இர	-11132
மள	-11133
ீஷ	-11134
ord	-11135
இரு	-11136
தேவ	-11137
னாய	-11138
மரு	-11139
ாதை	-11140
ிச்	-11141
ிடை	-11142
ூரை	-11143
ேனா	-11144
ேர்	-11145
்டி	-11146
▁ஊழ	-11147
▁ஒய	-11148
▁மஹ	-11149
ount	-11150
கண்ட	-11151
கம்ப	-11152
கின்	-11153
கோல்	-11154
ச்சல	-11155
ச்சூ	-11156
தாக்	-11157
நிறை	-11158
நீதி	-11159
னிங்	-11160
போன்	-11161
மால்	-11162
மாஸ்	-11163
மைக்	-11164
ர்கோ	-11165
றிச்	-11166
வனம்	-11167
வரான	-11168
வாசி	-11169
வெல்	-11170
ஹாம்	-11171
ிலிய	-11172
▁ஃபோ	-11173
▁அளவ	-11174
▁இயை	-11175
▁எனை	-11176
▁எஸ்	-11177
▁ஏர்	-11178
▁ஒன்	-11179
▁சகி	-11180
▁சண்	-11181
▁ஜெய	-11182
▁தளி	-11183
▁நால	-11184
▁பிழ	-11185
▁பூஜ	-11186
▁பேண	-11187
▁மகு	-11188
▁மிள	-11189
▁ராச	-11190
▁ரிஷ	-11191
▁லலி	-11192
▁லாக	-11193
▁ஹாஸ	-11194
ation	-11195
க்கின	-11196
ங்கன்	-11197
சியம்	-11198
ஞ்சல்	-11199
டைகள்	-11200
ட்டைய	-11201
ப்டன்	-11202
ப்பணி	-11203
மாற்ற	-11204
ம்படி	-11205
லக்ட்	-11206
லானது	-11207
ளைகள்	-11208
வண்டி	-11209
வரால்	-11210
வர்ட்	-11211
வாற்ற	-11212
வாவது	-11213
வெல்ல	-11214
ாதான்	-11215
ானிஷ்	-11216
ானேன்	-11217
ின்று	-11218
ெனின்	-11219
்களாக	-11220
▁அரண்	-11221
▁அலகு	-11222
▁அளவே	-11223
▁அவனோ	-11224
▁அவிழ	-11225
▁ஆடைய	-11226
▁ஆவது	-11227
▁இதைய	-11228
▁உழவு	-11229
▁ஏவல்	-11230
▁கவித	-11231
▁காளி	-11232
▁கிரீ	-11233
▁கைகொ	-11234
▁கொடை	-11235
▁கோள்	-11236
▁கோழை	-11237
▁சிநே	-11238
▁சுவி	-11239
▁சென்	-11240
▁செவ்	-11241
▁சேது	-11242
▁சோமா	-11243
▁ஜீவர	-11244
▁தலைச	-11245
▁தாது	-11246
▁தாவி	-11247
▁துர்	-11248
▁தூண்	-11249
▁நச்ச	-11250
▁நயம்	-11251
▁நாகர	-11252
▁படாத	-11253
▁பொசு	-11254
▁போலே	-11255
▁மடைய	-11256
▁மணப்	-11257
▁மாணவ	-11258
▁மானே	-11259
▁மாமி	-11260
▁மீதி	-11261
▁முள்	-11262
▁மேக்	-11263
▁மேரு	-11264
▁ராக்	-11265
▁லீவு	-11266
▁வரச்	-11267
▁விர்	-11268
▁வீரா	-11269
▁வோம்	-11270
சுவரன்	-11271
டுவார்	-11272
ட்டாள்	-11273
ட்டியை	-11274
ட்டைத்	-11275
ணிந்து	-11276
தேயாம்	-11277
த்தொகை	-11278
மல்லவா	-11279
மாட்சி	-11280
மாய்க்	-11281
முத்து	-11282
ருயிர்	-11283
றினாள்	-11284
லானான்	-11285
ழியில்	-11286
வனிடம்	-11287
ாக்கள்	-11288
ிகாரம்	-11289
ியுடன்	-11290
▁அரசனை	-11291
▁அவமான	-11292
▁இனிது	-11293
▁இல்லே	-11294
▁உருவக	-11295
▁ஊட்டி	-11296
▁ஊரும்	-11297
▁எங்கோ	-11298
▁எழும்	-11299
▁ஏறிக்	-11300
▁ஏறிப்	-11301
▁கண்ணே	-11302
▁கதிர்	-11303
▁கரையை	-11304
▁கல்லை	-11305
▁கிளிய	-11306
▁குலம்	-11307
▁சிறித	-11308
▁சீராக	-11309
▁சுடர்	-11310
▁சூரன்	-11311
▁செயலா	-11312
▁தண்டு	-11313
▁தராது	-11314
▁நஞ்சை	-11315
▁நந்தி	-11316
▁நளினி	-11317
▁நாணம்	-11318
▁நிபுண	-11319
▁நுகர்	-11320
▁பழுது	-11321
▁பாடலை	-11322
▁பிணம்	-11323
▁பிரகா	-11324
▁பிரணவ	-11325
▁புயல்	-11326
▁பேரழக	-11327
▁மண்டு	-11328
▁மரக்க	-11329
▁மலைத்	-11330
▁மீறிய	-11331
▁ராஜன்	-11332
▁ராஜ்ய	-11333
▁ரிச்ச	-11334
▁வசதிய	-11335
▁வானம்	-11336
▁வியாத	-11337
▁வியாப	-11338
▁விவேக	-11339
▁வெங்க	-11340
▁வெண்க	-11341
▁ஹவுஸ்	-11342
க்காட்ட	-11343
க்கிழமை	-11344
டிக்கைய	-11345
த்தன்று	-11346
த்திறன்	-11347
த்துள்ள	-11348
மலையின்	-11349
மலையில்	-11350
மையுடன்	-11351
ல்லாமல்	-11352
ள்கிறது	-11353
வதுண்டு	-11354
வதுபோல்	-11355
விடாமல்	-11356
ாவதற்கு	-11357
ின்றாள்	-11358
ின்றிக்	-11359
ிற்குள்	-11360
ைக்குத்	-11361
்ட்டின்	-11362
▁அகல்யா	-11363
▁அங்குல	-11364
▁அணுக்க	-11365
▁அநியாய	-11366
▁அப்புற	-11367
▁அம்மன்	-11368
▁அறுவடை	-11369
▁அவளைச்	-11370
▁ஆன்மீக	-11371
▁ஆவலோடு	-11372
▁இளஞ்சி	-11373
▁இளவரசி	-11374
▁உடைந்த	-11375
▁உரைநடை	-11376
▁என்றன்	-11377
▁ஐன்ஸ்ட	-11378
▁கட்டம்	-11379
▁கண்காண	-11380
▁கண்ணிய	-11381
▁கர்னல்	-11382
▁கழிக்க	-11383
▁கவிஞன்	-11384
▁காக்கை	-11385
▁காப்பி	-11386
▁காலமாக	-11387
▁கிள்ளி	-11388
▁குரங்க	-11389
▁கையும்	-11390
▁கொன்றை	-11391
▁சிட்டி	-11392
▁சீட்டு	-11393
▁செப்பு	-11394
▁செம்மை	-11395
▁செயின்	-11396
▁செய்வோ	-11397
▁தாங்கு	-11398
▁திடீர்	-11399
▁திரிபு	-11400
▁துவக்க	-11401
▁தென்னை	-11402
▁தேடிச்	-11403
▁தொழிலை	-11404
▁நடந்தன	-11405
▁நலங்கி	-11406
▁நாயுடு	-11407
▁நீரின்	-11408
▁பரம்பர	-11409
▁பரிதாப	-11410
▁பிறவிய	-11411
▁பிளாக்	-11412
▁புகார்	-11413
▁புத்தா	-11414
▁பெரியா	-11415
▁பொருளே	-11416
▁போகாது	-11417
▁போன்றே	-11418
▁மணமகன்	-11419
▁மனோபாவ	-11420
▁மாண்பு	-11421
▁மார்பு	-11422
▁மிதமான	-11423
▁முக்கோ	-11424
▁ராஜராஜ	-11425
▁ரேடியோ	-11426
▁லண்டன்	-11427
▁வசூலாக	-11428
▁வரம்பு	-11429
▁வல்லுந	-11430
▁வெயில்	-11431
▁வேதனைய	-11432
க்கார்ட்	-11433
க்கோட்டை	-11434
ங்களாகப்	-11435
த்தியின்	-11436
படுகிறது	-11437
ப்பட்டவை	-11438
ப்பாய்வு	-11439
ப்போகும்	-11440
ப்போக்கு	-11441
ர்க்குக்	-11442
வருகிறது	-11443
விடுவான்	-11444
வுக்குச்	-11445
வுக்குள்	-11446
ிரண்டும்	-11447
▁அகமுடைய	-11448
▁அக்காள்	-11449
▁அசாதாரண	-11450
▁அட்டவணை	-11451
▁அதேபோல்	-11452
▁அரசனும்	-11453
▁அருச்சு	-11454
▁அவையில்	-11455
▁இருப்பா	-11456
▁இளவரசர்	-11457
▁இவரிடம்	-11458
▁உடைத்து	-11459
▁உண்மைப்	-11460
▁உதகமண்ட	-11461
▁உபகாரம்	-11462
▁எறும்பு	-11463
▁ஒளியின்	-11464
▁கார்கள்	-11465
▁குடிபெய	-11466
▁குத்தகை	-11467
▁கொள்ளச்	-11468
▁சமவெளிய	-11469
▁சிலரும்	-11470
▁சில்லறை	-11471
▁சுத்தம்	-11472
▁சொந்தம்	-11473
▁சொர்க்க	-11474
▁ஜூனியர்	-11475
▁தலைமுறை	-11476
▁தாங்கிய	-11477
▁தெரிகிற	-11478
▁நம்மைக்	-11479
▁நினைவாக	-11480
▁நுணுக்க	-11481
▁பாட்டிய	-11482
▁புகழைப்	-11483
▁பெயரோடு	-11484
▁பெரிதாக	-11485
▁போகாமல்	-11486
▁போன்றவை	-11487
▁போய்விட	-11488
▁போலீஸ்க	-11489
▁மலர்கள்	-11490
▁மலையும்	-11491
▁மீன்கள்	-11492
▁முகமும்	-11493
▁முடிவடை	-11494
▁முறையான	-11495
▁யாத்திர	-11496
▁ரங்கநாத	-11497
▁வந்தவன்	-11498
▁வருவார்	-11499
▁வர்த்தக	-11500
▁வளர்ப்ப	-11501
▁வாக்கிய	-11502
▁விதிவில	-11503
▁வியந்து	-11504
▁விளங்கி	-11505
▁வேந்தன்	-11506
படுகின்றன	-11507
மாகத்தான்	-11508
ாகிவிடும்	-11509
ாட்டிற்கு	-11510
ிக்கின்றன	-11511
ும்பொழுது	-11512
▁அதிர்ஷ்ட	-11513
▁அந்தமான்	-11514
▁அப்படித்	-11515
▁அற்புதம்	-11516
▁அழைக்கப்	-11517
▁ஆரம்பகால	-11518
▁ஆரோக்கிய	-11519
▁ஆற்றலும்	-11520
▁இடமில்லை	-11521
▁இதற்குச்	-11522
▁இனிமையாக	-11523
▁இன்றுவரை	-11524
▁இவனுக்கு	-11525
▁உண்மைகளை	-11526
▁உரிமையாள	-11527
▁என்பதாம்	-11528
▁ஏற்படாது	-11529
▁ஐந்தாவது	-11530
▁கதைகளில்	-11531
▁கிடைக்கு	-11532
▁கின்றனர்	-11533
▁கிளர்ச்ச	-11534
▁குன்றின்	-11535
▁கொண்டோம்	-11536
▁கொள்வார்	-11537
▁சிந்தாமண	-11538
▁சிரித்து	-11539
▁தங்கம்மா	-11540
▁தேவாலயம்	-11541
▁தொந்தரவு	-11542
▁நகராட்சி	-11543
▁நகர்ந்து	-11544
▁நாட்டிலே	-11545
▁நாட்டுச்	-11546
▁நின்றனர்	-11547
▁நோய்க்கு	-11548
▁பக்குவம்	-11549
▁படுகிறது	-11550
▁பற்றியது	-11551
▁புனிதமான	-11552
▁பெருங்கட	-11553
▁பெற்றவன்	-11554
▁பொருளில்	-11555
▁பொழுதும்	-11556
▁போக்கில்	-11557
▁மகிழ்ந்த	-11558
▁மனைவியர்	-11559
▁மாணவர்கள	-11560
▁முனையில்	-11561
▁முன்னுரை	-11562
▁ராதாவும்	-11563
▁லண்டனில்	-11564
▁வருங்கால	-11565
▁விடுவார்	-11566
▁விருப்பு	-11567
▁விலைக்கு	-11568
▁வைத்தாள்	-11569
ங்களிலுள்ள	-11570
த்துறையில்	-11571
ாகிவிட்டது	-11572
ிருப்பதைக்	-11573
▁அகப்பட்டு	-11574
▁அதிகரிக்க	-11575
▁அறிவுக்கு	-11576
▁அளித்தான்	-11577
▁அழிக்கும்	-11578
▁ஆகியோரின்	-11579
▁இயந்திரம்	-11580
▁இவ்விரண்ட	-11581
▁எக்ஸ்ட்ரா	-11582
▁எண்ணினான்	-11583
▁எழுத்துப்	-11584
▁ஒன்றுக்கு	-11585
▁ஓடுகின்றன	-11586
▁கலைஞர்கள்	-11587
▁கிளர்ச்சி	-11588
▁கேள்விகள்	-11589
▁கொடுக்கிற	-11590
▁சபையோரால்	-11591
▁சிக்கலில்	-11592
▁சின்னண்ணா	-11593
▁சிறப்புப்	-11594
▁செம்பியன்	-11595
▁தண்ணீரில்	-11596
▁தந்தையும்	-11597
▁தமிழ்மொழி	-11598
▁தற்காப்பு	-11599
▁துப்பாக்க	-11600
▁தென்படும்	-11601
▁தேசத்தில்	-11602
▁தொடர்ச்சி	-11603
▁நடித்தேன்	-11604
▁நிகழ்ந்து	-11605
▁நூல்களைப்	-11606
▁பகிர்ந்து	-11607
▁பகுதியும்	-11608
▁பக்தர்கள்	-11609
▁பன்னிரண்ட	-11610
▁பாய்ந்தது	-11611
▁மாதிரிகள்	-11612
▁மாற்றியமை	-11613
▁முடியாமற்	-11614
▁முதலியோர்	-11615
▁முப்பத்து	-11616
▁வசிக்கும்	-11617
▁வடிவமைக்க	-11618
▁வாடிக்கைய	-11619
▁வாய்ந்தது	-11620
▁விசாரிக்க	-11621
னிடமிருந்து	-11622
ர்களுக்குக்	-11623
ுக்கிடையில்	-11624
▁அதிர்ஷ்டம்	-11625
▁அத்தனையும்	-11626
▁அறிவார்ந்த	-11627
▁அவனுக்கும்	-11628
▁இம்மாதிரிய	-11629
▁இயற்கையின்	-11630
▁இருப்பதும்	-11631
▁இருப்பதைப்	-11632
▁உள்ளடக்கிய	-11633
▁ஒன்றிரண்டு	-11634
▁காணப்பட்டன	-11635
▁காரணமாகும்	-11636
▁கூறப்படும்	-11637
▁கேட்கிறான்	-11638
▁கேட்பதற்கு	-11639
▁கொடுத்தாள்	-11640
▁சட்டத்தின்	-11641
▁சம்பந்தமான	-11642
▁செய்கிறாள்	-11643
▁செல்கின்றன	-11644
▁திருமுருகா	-11645
▁தொடர்கிறது	-11646
▁நிகழ்ந்தது	-11647
▁நிற்கிறார்	-11648
▁நெருங்கிப்	-11649
▁நோக்கினால்	-11650
▁பிள்ளையின்	-11651
▁புள்ளிவிவர	-11652
▁பேசுகிறான்	-11653
▁பொருந்தாது	-11654
▁போருக்குப்	-11655
▁மற்றொருவன்	-11656
▁முடித்துக்	-11657
▁முருகனுடைய	-11658
▁வடமொழியில்	-11659
▁வந்திருக்க	-11660
▁வழக்கப்படி	-11661
▁வாய்ப்புக்	-11662
▁வாழ்வாங்கு	-11663
▁விடுகிறாள்	-11664
▁விளையாடிக்	-11665
வர்களெல்லாம்	-11666
▁அடுத்தடுத்த	-11667
▁இரண்டாயிரம்	-11668
▁எண்ணுகிறேன்	-11669
▁ஏற்படவில்லை	-11670
▁கம்பெனியில்	-11671
▁காரணங்களால்	-11672
▁குழந்தையைப்	-11673
▁சந்திக்கும்	-11674
▁சுற்றுப்புற	-11675
▁தினந்தோறும்	-11676
▁நல்லவர்களாக	-11677
▁நிற்கவில்லை	-11678
▁நிலையத்தில்	-11679
▁பார்க்கவும்	-11680
▁பேசினார்கள்	-11681
▁மகிழ்ந்தனர்	-11682
▁மண்டபத்தில்	-11683
▁மாநிலத்தில்	-11684
▁வெள்ளத்தில்	-11685
▁ஷேக்ஸ்பியர்	-11686
ங்களிலெல்லாம்	-11687
▁அடுத்தபடியாக	-11688
▁இப்பகுதியில்	-11689
▁ஏற்றுக்கொண்ட	-11690
▁காட்டுகின்றன	-11691
▁காந்தியடிகள்	-11692
▁குழந்தைகளின்	-11693
▁சக்கரவர்த்தி	-11694
▁செல்லும்போது	-11695
▁தொடர்ச்சியாக	-11696
▁புத்தகத்தில்	-11697
▁புலப்படுத்து	-11698
▁பெறுகின்றனர்	-11699
▁முன்னிலையில்	-11700
▁வெளிப்படையாக	-11701
▁வைத்துக்கொள்	-11702
▁வைத்துவிட்டு	-11703
▁இல்லையென்றால்	-11704
▁ஏற்படுத்தியது	-11705
▁ஒன்றுக்கொன்று	-11706
▁சேர்ந்தவர்கள்	-11707
▁புரிந்துகொள்ள	-11708
▁வந்துவிட்டால்	-11709
▁வாழ்த்துக்கள்	-11710
▁எடுத்துக்கொள்ள	-11711
▁சொல்லிக்கொண்டே	-11712
▁வாழ்க்கையையும்	-11713
▁கொடுக்கப்பட்டது	-11714
▁வந்திருக்கிறேன்	-11715
ce	-11716
ut	-11717
ஜெ	-11718
டீ	-11719
▁ண	-11720
ack	-11721
ist	-11722
ong	-11723
சனா	-11724
பலி	-11725
பிய	-11726
போக	-11727
மாண	-11728
ராம	-11729
வத்	-11730
வால	-11731
ஷேக	-11732
ஸ்ச	-11733
ாகோ	-11734
ாங்	-11735
ாண்	-11736
ிரம	-11737
ுவை	-11738
▁ஏவ	-11739
▁ஓஹ	-11740
▁டய	-11741
▁மௌ	-11742
▁ல்	-11743
▁ஷி	-11744
...?	-11745
கிற்	-11746
சுவை	-11747
சேர்	-11748
டின்	-11749
டிஷ்	-11750
தாஸ்	-11751
நாய்	-11752
னமாக	-11753
னுள்	-11754
பதிய	-11755
பிடி	-11756
ப்ஸ்	-11757
மலைய	-11758
முதல	-11759
முழு	-11760
மென்	-11761
ரிங்	-11762
ரேல்	-11763
றித்	-11764
றையை	-11765
லையை	-11766
ளிக்	-11767
ழந்த	-11768
வலம்	-11769
வளம்	-11770
வியல	-11771
விளை	-11772
ாற்ற	-11773
ாவளி	-11774
ீதம்	-11775
ெதிர	-11776
்கார	-11777
▁அசோ	-11778
▁ஆகா	-11779
▁ஆணவ	-11780
▁ஆபர	-11781
▁ஆப்	-11782
▁இதர	-11783
▁உணவ	-11784
▁உறி	-11785
▁ஊரு	-11786
▁கூல	-11787
▁சனி	-11788
▁சலன	-11789
▁சேத	-11790
▁டன்	-11791
▁டவு	-11792
▁டைர	-11793
▁தனு	-11794
▁பரத	-11795
▁பலா	-11796
▁பிஷ	-11797
▁வசன	-11798
▁வடப	-11799
▁வாண	-11800
ஃப்ட்	-11801
காலம்	-11802
க்காத	-11803
ங்கக்	-11804
ண்யம்	-11805
தரும்	-11806
தாட்ட	-11807
ன்றன்	-11808
போலத்	-11809
முகன்	-11810
றாமல்	-11811
றியாக	-11812
றைகள்	-11813
ற்சில	-11814
ற்பால	-11815
ளத்தை	-11816
ள்ளாக	-11817
வப்பு	-11818
வரைப்	-11819
வற்று	-11820
வாசம்	-11821
விடச்	-11822
வுடைய	-11823
ாதீர்	-11824
ானின்	-11825
ாரைக்	-11826
ாவார்	-11827
ினைச்	-11828
ிறார்	-11829
ிலின்	-11830
ூட்டு	-11831
ென்ஸ்	-11832
ெல்லோ	-11833
ையாமை	-11834
ையையே	-11835
▁அடடா	-11836
▁அய்ய	-11837
▁அலைய	-11838
▁ஆதாய	-11839
▁ஆளுந	-11840
▁ஆவேச	-11841
▁இனித	-11842
▁இலாப	-11843
▁உளர்	-11844
▁எனதா	-11845
▁எரிக	-11846
▁எஸ்ட	-11847
▁ஏக்க	-11848
▁கஞ்ச	-11849
▁கனல்	-11850
▁கயமை	-11851
▁காசி	-11852
▁காணு	-11853
▁காரை	-11854
▁கியூ	-11855
▁கெய்	-11856
▁கோளா	-11857
▁சக்க	-11858
▁சத்ய	-11859
▁சரித	-11860
▁சலசல	-11861
▁சொரி	-11862
▁டெலி	-11863
▁திமி	-11864
▁தேனை	-11865
▁நாடே	-11866
▁நில்	-11867
▁நூலா	-11868
▁படபட	-11869
▁பரமே	-11870
▁பரிப	-11871
▁பரும	-11872
▁பற்க	-11873
▁பிரீ	-11874
▁பூஜ்	-11875
▁பூரி	-11876
▁மறதி	-11877
▁யமன்	-11878
▁வாஷி	-11879
▁விசே	-11880
▁வேறெ	-11881
▁ஸார்	-11882
ங்காங்	-11883
சையின்	-11884
ச்சாரி	-11885
டங்கள்	-11886
ட்டியே	-11887
ண்டில்	-11888
நாளும்	-11889
ந்தைக்	-11890
ந்நூறு	-11891
ப்படுப	-11892
ப்பூர்	-11893
மாதிரி	-11894
மானதாக	-11895
மானார்	-11896
மாளிகை	-11897
மியின்	-11898
மையற்ற	-11899
மையாய்	-11900
ர்களது	-11901
றுக்கு	-11902
லிலேயே	-11903
ல்தான்	-11904
வதுபோல	-11905
வுக்கர	-11906
ாதாரம்	-11907
ாதிபதி	-11908
ாலுள்ள	-11909
ிகளிலே	-11910
ிகின்ற	-11911
ிக்கிட	-11912
ினுடைய	-11913
ில்கள்	-11914
ூர்த்த	-11915
▁அந்தோ	-11916
▁அறிவே	-11917
▁அவமதி	-11918
▁அஸ்தி	-11919
▁ஆசையை	-11920
▁ஆடுகள	-11921
▁ஆணும்	-11922
▁ஆளும்	-11923
▁இச்சை	-11924
▁இடமாக	-11925
▁உருவெ	-11926
▁உறங்க	-11927
▁உலகமே	-11928
▁உழுது	-11929
▁என்னு	-11930
▁எய்து	-11931
▁எளிமை	-11932
▁ஏளனம்	-11933
▁ஏழைக்	-11934
▁ஒய்வு	-11935
▁கடும்	-11936
▁கணவர்	-11937
▁கணினி	-11938
▁கத்தி	-11939
▁காணப்	-11940
▁காணாத	-11941
▁குமரி	-11942
▁குவிய	-11943
▁கெளரவ	-11944
▁கோலாக	-11945
▁சமாளி	-11946
▁செப்ட	-11947
▁செம்ப	-11948
▁சேவைய	-11949
▁திரைய	-11950
▁திறனை	-11951
▁துணைய	-11952
▁துறவி	-11953
▁தொகைய	-11954
▁தோழன்	-11955
▁நினைவ	-11956
▁நிலப்	-11957
▁நேரிட	-11958
▁பர்வத	-11959
▁பலவகை	-11960
▁பழமொழ	-11961
▁பழையா	-11962
▁பாசறை	-11963
▁பாடத்	-11964
▁பியான	-11965
▁புதின	-11966
▁பெறுக	-11967
▁பேசக்	-11968
▁பேசின	-11969
▁பொட்ட	-11970
▁மணவாள	-11971
▁மாவீர	-11972
▁மிகத்	-11973
▁முடைய	-11974
▁முல்ல	-11975
▁மெத்த	-11976
▁மேஜர்	-11977
▁மேடைய	-11978
▁வாரிய	-11979
▁விநோத	-11980
▁விறகு	-11981
▁விவாக	-11982
▁வீசிய	-11983
▁வீதம்	-11984
▁வெறிய	-11985
▁வைசிய	-11986
ஃபோர்ட்	-11987
க்காகவே	-11988
க்காலம்	-11989
ங்களேன்	-11990
ட்டத்தை	-11991
த்தனமான	-11992
த்திடம்	-11993
த்தியம்	-11994
ந்தனார்	-11995
பார்த்த	-11996
ப்பெயர்	-11997
ப்போலவே	-11998
மெரிக்க	-11999
ம்பிக்க	-12000
யிருந்த	-12001
ர்த்தது	-12002
விருந்த	-12003
ிகளாகப்	-12004
ிருப்பா	-12005
ொன்றில்	-12006
▁அச்சிட	-12007
▁அஞ்ஞான	-12008
▁அநேகம்	-12009
▁அபூர்வ	-12010
▁அம்பிக	-12011
▁அல்லன்	-12012
▁அழகில்	-12013
▁அவரைச்	-12014
▁அவ்வித	-12015
▁ஆறுகள்	-12016
▁ஆழ்த்த	-12017
▁இதனைக்	-12018
▁இன்பக்	-12019
▁இயல்பை	-12020
▁இரவும்	-12021
▁இறக்கு	-12022
▁இளைஞர்	-12023
▁உண்டான	-12024
▁உயிரிய	-12025
▁ஊசலின்	-12026
▁என்னடா	-12027
▁எலக்ட்	-12028
▁எவ்வாற	-12029
▁கடந்தே	-12030
▁கடற்கர	-12031
▁கர்த்த	-12032
▁கற்கள்	-12033
▁காலால்	-12034
▁காலைப்	-12035
▁கூறித்	-12036
▁சண்டைய	-12037
▁சாமான்	-12038
▁சியாங்	-12039
▁சிறுகு	-12040
▁சிறுமை	-12041
▁சொற்கள	-12042
▁ஜமீன்த	-12043
▁தற்செய	-12044
▁தலையசை	-12045
▁திறக்க	-12046
▁தீட்டு	-12047
▁தீமையை	-12048
▁துறந்த	-12049
▁தூக்கு	-12050
▁தொப்பி	-12051
▁தோண்டி	-12052
▁தோளில்	-12053
▁நடத்தை	-12054
▁நேரும்	-12055
▁பஞ்சாய	-12056
▁பண்ணிய	-12057
▁பயின்ற	-12058
▁பரந்து	-12059
▁பராமரி	-12060
▁பின்னே	-12061
▁பூவும்	-12062
▁பெருமா	-12063
▁பொறுமை	-12064
▁போர்க்	-12065
▁மற்றப்	-12066
▁மிக்கு	-12067
▁மில்லை	-12068
▁முணுமு	-12069
▁மூலிகை	-12070
▁மேற்பர	-12071
▁வணிகர்	-12072
▁வருவர்	-12073
▁வாத்து	-12074
▁வானில்	-12075
▁வாழ்வே	-12076
▁வாழ்வோ	-12077
▁வாஸ்தவ	-12078
▁விண்மீ	-12079
▁விரட்ட	-12080
▁வெளிப்	-12081
▁வேங்கட	-12082
▁ஸ்மித்	-12083
களுக்கான	-12084
ச்சென்று	-12085
திக்கும்	-12086
த்தாரும்	-12087
ப்பதனால்	-12088
ப்பொழுது	-12089
ழுக்கும்	-12090
வதற்குள்	-12091
வனத்தில்	-12092
வனாகவும்	-12093
வேண்டாம்	-12094
வைக்கும்	-12095
▁அங்குத்	-12096
▁அதனுடைய	-12097
▁அதற்கான	-12098
▁அந்நாடக	-12099
▁அன்பைப்	-12100
▁அமைப்பை	-12101
▁அருகிலே	-12102
▁அலங்கரி	-12103
▁ஆரம்பம்	-12104
▁இத்தாலி	-12105
▁இன்பமாக	-12106
▁இப்போதே	-12107
▁இரும்பொ	-12108
▁உயிரின்	-12109
▁உரியவன்	-12110
▁உருக்கு	-12111
▁உருவில்	-12112
▁எண்ணிச்	-12113
▁எண்ணும்	-12114
▁எதிரொலி	-12115
▁எழுப்பு	-12116
▁கடிந்து	-12117
▁கணக்கிட	-12118
▁கதையின்	-12119
▁கற்றார்	-12120
▁களிப்பு	-12121
▁களைப்பு	-12122
▁காப்பிய	-12123
▁காலியாக	-12124
▁கிறிஸ்ட	-12125
▁குடிகார	-12126
▁கூடியவை	-12127
▁கொடிகள்	-12128
▁சக்தியை	-12129
▁சிறியது	-12130
▁சிவகங்க	-12131
▁சூப்பர்	-12132
▁செய்வதை	-12133
▁செல்வச்	-12134
▁சொற்களை	-12135
▁சொல்லத்	-12136
▁சோவியத்	-12137
▁தந்தையா	-12138
▁தன்னோடு	-12139
▁திருவடி	-12140
▁திருவாச	-12141
▁துணைவிய	-12142
▁துரியன்	-12143
▁தெய்வப்	-12144
▁தொடரின்	-12145
▁தொட்டபெ	-12146
▁நகரத்தை	-12147
▁நடுத்தர	-12148
▁நடுநிலை	-12149
▁நல்லவர்	-12150
▁நிபுணர்	-12151
▁நீட்டிய	-12152
▁பண்டைக்	-12153
▁பந்தயம்	-12154
▁பயன்கள்	-12155
▁பாடுவது	-12156
▁பாராமல்	-12157
▁பிரிட்ட	-12158
▁பிழைக்க	-12159
▁புகழும்	-12160
▁பூர்வீக	-12161
▁பெண்மணி	-12162
▁பெறாமல்	-12163
▁போனதும்	-12164
▁போலவும்	-12165
▁மகன்கள்	-12166
▁மகிழ்வி	-12167
▁மன்னவன்	-12168
▁மாந்தர்	-12169
▁மீதுள்ள	-12170
▁முத்தம்	-12171
▁லிங்கத்	-12172
▁லீலாவதி	-12173
▁வசதியாக	-12174
▁வந்தாய்	-12175
▁வந்தோம்	-12176
▁வருந்தி	-12177
▁வளைத்து	-12178
▁வாழலாம்	-12179
▁விடுகிற	-12180
▁விடுவர்	-12181
▁விமர்சக	-12182
▁விலக்கி	-12183
▁விளக்கே	-12184
▁விளக்கை	-12185
▁வீழ்த்த	-12186
▁வென்றது	-12187
▁வெப்பம்	-12188
▁வேண்டாத	-12189
▁வைக்கப்	-12190
ங்கள்தான்	-12191
ப்பதிலும்	-12192
ப்புகளில்	-12193
மடைந்தார்	-12194
வர்களாகவே	-12195
▁அகப்பட்ட	-12196
▁அச்சிட்ட	-12197
▁அடக்கிக்	-12198
▁அடிகளார்	-12199
▁அமைச்சன்	-12200
▁இடைக்கால	-12201
▁இந்திரிய	-12202
▁இப்பகுதி	-12203
▁இருப்பிட	-12204
▁இல்லாமற்	-12205
▁உணர்த்து	-12206
▁உதவிக்கு	-12207
▁உயர்த்து	-12208
▁உருவானது	-12209
▁உள்ளமும்	-12210
▁ஐம்பத்து	-12211
▁ஒலித்தது	-12212
▁ஒளிபரப்ப	-12213
▁கண்களும்	-12214
▁கண்ணகியை	-12215
▁கந்தபுரா	-12216
▁கலெக்டர்	-12217
▁கவர்ந்து	-12218
▁கஸ்தூரிய	-12219
▁குற்றவாள	-12220
▁குவிந்து	-12221
▁கூட்டமாக	-12222
▁கூட்டிக்	-12223
▁கூவினான்	-12224
▁கேட்டுத்	-12225
▁கைவிட்டு	-12226
▁சங்கீதம்	-12227
▁சமுத்திர	-12228
▁சுல்தான்	-12229
▁செத்துப்	-12230
▁செப்புச்	-12231
▁செய்தவன்	-12232
▁செய்தோம்	-12233
▁தனக்குப்	-12234
▁தாய்க்கு	-12235
▁தீமையும்	-12236
▁துறவிகள்	-12237
▁தூக்கிச்	-12238
▁தூங்கிக்	-12239
▁தேங்காய்	-12240
▁தொழிலாளி	-12241
▁நக்கீரர்	-12242
▁நன்மைகள்	-12243
▁நாட்களாக	-12244
▁நாநூற்று	-12245
▁நாலைந்து	-12246
▁நுட்பமான	-12247
▁பங்கேற்க	-12248
▁பரிசோதனை	-12249
▁பிரயத்தன	-12250
▁பிரயாணம்	-12251
▁புதுப்பி	-12252
▁புதைந்து	-12253
▁புன்முறு	-12254
▁பூமியின்	-12255
▁பூமியில்	-12256
▁பெயர்க்க	-12257
▁பெய்யும்	-12258
▁போட்டுப்	-12259
▁போருக்கு	-12260
▁மக்களில்	-12261
▁மனத்தைப்	-12262
▁முயல்கிற	-12263
▁முற்றுப்	-12264
▁மொழியின்	-12265
▁யாராலும்	-12266
▁யாரேனும்	-12267
▁யோசித்து	-12268
▁வண்டிகள்	-12269
▁வரவேற்பு	-12270
▁வலியனும்	-12271
▁வழக்கறிஞ	-12272
▁வழக்குரை	-12273
▁வழிபடும்	-12274
▁வழியாகப்	-12275
▁வாய்க்கு	-12276
▁விஞ்ஞானி	-12277
▁விதியின்	-12278
▁விற்பனைய	-12279
▁வீட்டிலே	-12280
▁ஸ்பானிஷ்	-12281
ங்களுக்கான	-12282
திலிருந்து	-12283
த்தாருக்கு	-12284
த்திரங்கள்	-12285
ப்பாளர்கள்	-12286
வதற்கென்று	-12287
ின்றார்கள்	-12288
▁அதிகமாகக்	-12289
▁அமுதவல்லி	-12290
▁அமைத்தார்	-12291
▁அருணகிரிய	-12292
▁அறிகிறான்	-12293
▁அறிவறிந்த	-12294
▁அளித்தனர்	-12295
▁அளித்தார்	-12296
▁ஆட்டக்கார	-12297
▁ஆன்மாவின்	-12298
▁இக்கோயில்	-12299
▁இணைக்கும்	-12300
▁இருந்தோம்	-12301
▁இலட்சியம்	-12302
▁இல்லையேல்	-12303
▁இழுத்துச்	-12304
▁இவர்களைப்	-12305
▁உண்டாக்கி	-12306
▁உயிரையும்	-12307
▁உருவங்கள்	-12308
▁உருவாக்கி	-12309
▁எடுத்தான்	-12310
▁எதிர்வினை	-12311
▁எழுதியவர்	-12312
▁எழுத்தில்	-12313
▁கட்டிலில்	-12314
▁கருத்தில்	-12315
▁காட்சிகளை	-12316
▁காலத்தின்	-12317
▁கிடைக்காத	-12318
▁கிருஷ்ணன்	-12319
▁குழுவினர்	-12320
▁கொள்கைகள்	-12321
▁சந்திப்பு	-12322
▁சார்ந்தது	-12323
▁சித்தாந்த	-12324
▁செய்வதும்	-12325
▁சொல்லலாமா	-12326
▁தலைமையகம்	-12327
▁திராவிடம்	-12328
▁திரும்பப்	-12329
▁தீர்மானம்	-12330
▁தோற்றமும்	-12331
▁நடைபெற்று	-12332
▁நம்பியும்	-12333
▁பகுதிக்கு	-12334
▁பகைவர்கள்	-12335
▁பண்பாட்டு	-12336
▁பதிமூன்று	-12337
▁பனிக்கட்ட	-12338
▁பள்ளியின்	-12339
▁பாரதியார்	-12340
▁பின்பற்றி	-12341
▁பின்புறம்	-12342
▁பிறந்தால்	-12343
▁பிறருக்கு	-12344
▁புளியந்தோ	-12345
▁பெயருக்கு	-12346
▁பேசவில்லை	-12347
▁மன்னிப்பு	-12348
▁மின்சாரம்	-12349
▁வழிபாட்டு	-12350
▁வாசவதத்தை	-12351
▁வானத்தில்	-12352
▁விதத்தில்	-12353
▁விளைவிக்க	-12354
ப்பகுதியில்	-12355
ர்களுக்குத்	-12356
▁அதுவரையில்	-12357
▁அமைச்சரின்	-12358
▁ஆகவேண்டும்	-12359
▁இயக்கங்கள்	-12360
▁இராஜேந்திர	-12361
▁இருப்பதைக்	-12362
▁உயிர்களும்	-12363
▁எனதாருயிர்	-12364
▁ஏற்படுத்து	-12365
▁கடவுளுக்கு	-12366
▁கண்டிப்பாக	-12367
▁கண்ணகியும்	-12368
▁கருத்துகளை	-12369
▁கருத்துகள்	-12370
▁கும்பகோணம்	-12371
▁கூறுகிறான்	-12372
▁கேட்டாலும்	-12373
▁கொடுத்துப்	-12374
▁கொண்டாலும்	-12375
▁கொள்கின்றன	-12376
▁சமவெளியில்	-12377
▁சாமர்த்திய	-12378
▁சிந்தித்து	-12379
▁செய்கிறோம்	-12380
▁சொல்கிறான்	-12381
▁சொல்கிறேன்	-12382
▁சொல்வதற்கு	-12383
▁திருப்பிக்	-12384
▁திரும்பிச்	-12385
▁துன்பங்களை	-12386
▁நினைத்தால்	-12387
▁நினைவிற்கு	-12388
▁நிலையிலேயே	-12389
▁படிக்கட்டு	-12390
▁பயிற்சிகள்	-12391
▁பாடல்களைப்	-12392
▁பிரபலமானது	-12393
▁பிள்ளையும்	-12394
▁பெட்டியில்	-12395
▁பெண்ணுக்கு	-12396
▁மாரியம்மன்	-12397
▁முடியாதபடி	-12398
▁முதலாளிகள்	-12399
▁மேம்படுத்த	-12400
▁யோசித்துப்	-12401
▁வடிவமைப்பு	-12402
▁வளர்கின்றன	-12403
▁வாத்தியார்	-12404
▁வாழ்கிறான்	-12405
த்தையெல்லாம்	-12406
ப்படுத்தியது	-12407
ப்பட்டார்கள்	-12408
ப்பட்டிருந்த	-12409
ிகளையெல்லாம்	-12410
▁ஆண்டவனுக்கு	-12411
▁இத்தலத்தில்	-12412
▁எங்கிருந்து	-12413
▁எம்பெருமான்	-12414
▁கருதுகிறான்	-12415
▁கவுண்டியில்	-12416
▁காலத்துக்கு	-12417
▁குருமூர்த்த	-12418
▁கூட்டத்தார்	-12419
▁கூறுவார்கள்	-12420
▁சாப்பிடுவது	-12421
▁செல்லவில்லை	-12422
▁திட்டமிட்டு	-12423
▁நண்பர்களும்	-12424
▁நாடகங்களும்	-12425
▁நாடுகளிலும்	-12426
▁நிகழ்ச்சிகள	-12427
▁படிப்படியாக	-12428
▁பயிற்சிக்கு	-12429
▁பிச்சைக்கார	-12430
▁புத்தகங்கள்	-12431
▁பெற்றிருந்த	-12432
▁பொருள்படும்	-12433
▁போட்டிகளில்	-12434
▁முகத்திலும்	-12435
▁வார்த்தைகளை	-12436
▁விடுவதில்லை	-12437
▁வித்தியாசம்	-12438
மாயிருக்கிறது	-12439
▁அடுத்தடுத்து	-12440
▁அனுபவிக்கும்	-12441
▁அவ்விடத்தில்	-12442
▁ஆரம்பித்தனர்	-12443
▁இருந்ததில்லை	-12444
▁உணர்ச்சியும்	-12445
▁கோயிலுக்குச்	-12446
▁கோயிலுக்குப்	-12447
▁கோயிலுக்குள்	-12448
▁செய்துகொண்டு	-12449
▁செய்யப்படும்	-12450
▁தரிசிக்கலாம்	-12451
▁தூத்துக்குடி	-12452
▁தெரிவித்தனர்	-12453
▁பகுதிகளிலும்	-12454
▁பாராட்டினான்	-12455
▁புறப்பட்டனர்	-12456
▁புறப்பட்டுச்	-12457
▁வந்திருக்கிற	-12458
▁வாழ்க்கையைக்	-12459
▁விடுகின்றனர்	-12460
▁விளங்கவில்லை	-12461
▁வீட்டுக்குச்	-12462
▁அழைக்கப்படும்	-12463
▁இருபத்திரண்டு	-12464
▁கருதுகின்றனர்	-12465
▁கைவிடப்பட்டது	-12466
▁சுறுசுறுப்பாக	-12467
▁சேர்ந்தார்கள்	-12468
▁நிலையத்திற்கு	-12469
▁பெரும்பாலானவை	-12470
▁மகிழ்ச்சியில்	-12471
▁மகிழ்ச்சியோடு	-12472
▁மணிக்கெல்லாம்	-12473
▁முப்பத்தைந்து	-12474
▁வந்திருந்தார்	-12475
▁விளங்குகின்றன	-12476
▁எதிர்பார்க்கிற	-12477
▁குறிப்பிட்டார்	-12478
▁விரும்புகிறான்	-12479
▁வைத்திருந்தான்	-12480
▁சொல்லுகிறார்கள்	-12481
▁ஞாயிற்றுக்கிழமை	-12482
▁பார்க்கிறார்கள்	-12483
▁மாவட்டத்திலுள்ள	-12484
▁வரையறுக்கப்பட்ட	-12485
"-	-12486
?.	-12487
ag	-12488
ai	-12489
ee	-12490
em	-12491
ik	-12492
oh	-12493
ug	-12494
கண	-12495
மற	-12496
ளெ	-12497
ஹி	-12498
ொட	-12499
ert	-12500
ian	-12501
mer	-12502
ood	-12503
ort	-12504
ஃபெ	-12505
ஆல்	-12506
இது	-12507
களோ	-12508
சாம	-12509
சீர	-12510
ஜம்	-12511
டப்	-12512
தனை	-12513
னக்	-12514
பான	-12515
முர	-12516
ருள	-12517
லகை	-12518
வலி	-12519
வாண	-12520
ஸன்	-12521
ாகா	-12522
ாயை	-12523
ிகே	-12524
ிரெ	-12525
ீஷா	-12526
ெர்	-12527
ோமா	-12528
▁இஃ	-12529
▁ஈட	-12530
▁ஓய	-12531
▁யை	-12532
▁ரஸ	-12533
▁ரஹ	-12534
▁வொ	-12535
ston	-12536
கிப்	-12537
கில்	-12538
கைப்	-12539
க்கட	-12540
க்கத	-12541
க்ட்	-12542
ங்கல	-12543
சான்	-12544
சிங்	-12545
ட்ஜ்	-12546
ண்ணி	-12547
தேசி	-12548
தையே	-12549
நல்ல	-12550
நினை	-12551
னாம்	-12552
னாய்	-12553
னியை	-12554
பும்	-12555
யார்	-12556
ரான்	-12557
ருகு	-12558
ர்யா	-12559
லமாக	-12560
வித்	-12561
வியே	-12562
வுலக	-12563
வைன்	-12564
ஸ்கா	-12565
ஸ்டா	-12566
ாரோக	-12567
ிகூட	-12568
ிடச்	-12569
ூக்க	-12570
ெனப்	-12571
ெழுத	-12572
▁Sch	-12573
▁அடே	-12574
▁ஆமை	-12575
▁ஆவி	-12576
▁ஊமை	-12577
▁ஊரா	-12578
▁ஒறு	-12579
▁சப்	-12580
▁சோப	-12581
▁டர்	-12582
▁தகை	-12583
▁நசு	-12584
▁பித	-12585
▁மகோ	-12586
▁மீள	-12587
▁மேத	-12588
▁யோக	-12589
▁ரோம	-12590
▁வளி	-12591
▁வைத	-12592
கத்தை	-12593
கரமான	-12594
கிறதே	-12595
கைகள்	-12596
க்களே	-12597
ங்களோ	-12598
சாயம்	-12599
சியஸ்	-12600
ச்சர்	-12601
ண்டது	-12602
ண்டன்	-12603
நகரம்	-12604
னாகத்	-12605
ப்பல்	-12606
ப்பார	-12607
மாக்க	-12608
ம்புல	-12609
ற்புற	-12610
லமும்	-12611
ல்கார	-12612
ல்லன்	-12613
வியர்	-12614
வேலன்	-12615
வைகள்	-12616
ஷேகம்	-12617
ஸுடன்	-12618
ாமையே	-12619
ாவான்	-12620
ிகையை	-12621
ிக்ஸ்	-12622
ிரங்க	-12623
ிற்கே	-12624
ுள்ளே	-12625
ெனும்	-12626
ையாறு	-12627
ோவின்	-12628
்டின்	-12629
்ட்டி	-12630
▁அகழ்	-12631
▁அரிச	-12632
▁அறநெ	-12633
▁ஆகாத	-12634
▁ஊடல்	-12635
▁என்க	-12636
▁எவன்	-12637
▁ஐராவ	-12638
▁ஒழுக	-12639
▁கடிய	-12640
▁கர்ண	-12641
▁கேரள	-12642
▁கௌரவ	-12643
▁சகோத	-12644
▁சல்ல	-12645
▁சீனா	-12646
▁ஜீன்	-12647
▁ஜெர்	-12648
▁ஞானி	-12649
▁டென்	-12650
▁தடகள	-12651
▁தன்ப	-12652
▁தற்ச	-12653
▁தளம்	-12654
▁தழுவ	-12655
▁தில்	-12656
▁தீரு	-12657
▁தேவே	-12658
▁நன்க	-12659
▁நல்க	-12660
▁பகைய	-12661
▁பம்ப	-12662
▁பயில	-12663
▁பருக	-12664
▁பாலா	-12665
▁பிசா	-12666
▁பிறி	-12667
▁பிற்	-12668
▁பூணு	-12669
▁பேக்	-12670
▁பைன்	-12671
▁பையன	-12672
▁மகளை	-12673
▁மனதை	-12674
▁மன்ம	-12675
▁மாடி	-12676
▁மிரா	-12677
▁மீசை	-12678
▁யுனை	-12679
▁யும்	-12680
▁ராதா	-12681
▁ரிஷி	-12682
▁வாதி	-12683
▁வெர்	-12684
▁வேலு	-12685
▁ஹில்	-12686
கையும்	-12687
க்குறி	-12688
சுந்தர	-12689
ச்சுப்	-12690
டினேன்	-12691
ட்டுமே	-12692
ணியும்	-12693
ண்டின்	-12694
தர்கள்	-12695
போகும்	-12696
மாக்கி	-12697
மாய்ச்	-12698
முறையை	-12699
மெலாம்	-12700
மொன்று	-12701
யிலின்	-12702
யென்று	-12703
ரானார்	-12704
ராலும்	-12705
ரையைப்	-12706
லிலும்	-12707
ல்லாம்	-12708
ளிப்பு	-12709
வராகத்	-12710
ாற்போல	-12711
ிக்கச்	-12712
ெழுந்த	-12713
்களோடு	-12714
▁அகராத	-12715
▁அக்ஷய	-12716
▁அத்தி	-12717
▁அம்மை	-12718
▁அழியா	-12719
▁இசையை	-12720
▁இன்னா	-12721
▁இயேசு	-12722
▁இராவண	-12723
▁ஊட்டு	-12724
▁எழுதல	-12725
▁எஸ்கி	-12726
▁ஒட்டக	-12727
▁ஓஹியோ	-12728
▁கடக்க	-12729
▁கடத்த	-12730
▁கட்டண	-12731
▁கலக்க	-12732
▁காகம்	-12733
▁காதற்	-12734
▁காதலை	-12735
▁காலத்	-12736
▁கூடம்	-12737
▁கூடார	-12738
▁கேளாத	-12739
▁கொந்த	-12740
▁சங்கு	-12741
▁சீரிய	-12742
▁செவில	-12743
▁சேவல்	-12744
▁டச்சு	-12745
▁ததும்	-12746
▁தமிழை	-12747
▁தரிசி	-12748
▁தற்கொ	-12749
▁தானம்	-12750
▁தெளிய	-12751
▁தோழர்	-12752
▁நஞ்சு	-12753
▁நல்லன	-12754
▁நீலம்	-12755
▁நேர்வ	-12756
▁நோயாள	-12757
▁பசுமை	-12758
▁பட்டா	-12759
▁பலமாக	-12760
▁பிச்ச	-12761
▁புகழை	-12762
▁பூஞ்ச	-12763
▁பூதம்	-12764
▁பூத்த	-12765
▁போகவே	-12766
▁போதனை	-12767
▁போயின	-12768
▁போர்வ	-12769
▁மாதர்	-12770
▁மாமன்	-12771
▁மீட்ட	-12772
▁முரளி	-12773
▁மோசம்	-12774
▁மோதிர	-12775
▁வங்கி	-12776
▁வடிவு	-12777
▁வயதாக	-12778
▁வாசல்	-12779
▁விந்த	-12780
▁வினோத	-12781
▁வீணாக	-12782
▁வீதிய	-12783
▁வீமன்	-12784
▁வேலன்	-12785
▁ஸ்தாப	-12786
கிருஷ்ண	-12787
க்களால்	-12788
க்கூடம்	-12789
ச்சொல்ல	-12790
ட்சியம்	-12791
தற்குச்	-12792
த்தனமாக	-12793
த்தொடர்	-12794
த்தொன்ப	-12795
ப்படியே	-12796
ப்பதற்க	-12797
ப்பந்து	-12798
முள்ளது	-12799
ர்களுள்	-12800
லுக்காக	-12801
வாய்ந்த	-12802
ின்றிப்	-12803
ிருந்தே	-12804
ையொன்று	-12805
்களுடன்	-12806
▁அசுவகோ	-12807
▁அன்பாக	-12808
▁ஆடியது	-12809
▁ஆற்றலை	-12810
▁இதனைப்	-12811
▁இதைவிட	-12812
▁இத்தகு	-12813
▁இயலுமா	-12814
▁இழிந்த	-12815
▁ஈர்க்க	-12816
▁உணரும்	-12817
▁உணர்வை	-12818
▁உதயணனை	-12819
▁உறங்கு	-12820
▁உறைந்த	-12821
▁எனக்கே	-12822
▁ஏந்திய	-12823
▁ஒட்டம்	-12824
▁ஒருவகை	-12825
▁ஓவியம்	-12826
▁கதாநாய	-12827
▁கப்பலோ	-12828
▁கலைஞன்	-12829
▁கவரும்	-12830
▁காடுகள	-12831
▁காவலர்	-12832
▁கிரேட்	-12833
▁கும்பி	-12834
▁கூக்கு	-12835
▁கேவலம்	-12836
▁கொங்கு	-12837
▁கோடைக்	-12838
▁சாண்ட்	-12839
▁சிகாகோ	-12840
▁சிவகாம	-12841
▁சுலோசன	-12842
▁செய்யு	-12843
▁செவ்வா	-12844
▁சோதனைய	-12845
▁சௌகர்ய	-12846
▁டுன்டு	-12847
▁தண்ணீர	-12848
▁தர்மம்	-12849
▁தினசரி	-12850
▁துயில்	-12851
▁தென்பட	-12852
▁தேநீர்	-12853
▁தேவலோக	-12854
▁நடந்தே	-12855
▁நற்செய	-12856
▁நலத்தை	-12857
▁நாடகத்	-12858
▁நாயகன்	-12859
▁நார்வே	-12860
▁நீளமான	-12861
▁நெப்போ	-12862
▁பகைவரை	-12863
▁பந்தல்	-12864
▁பரிமாற	-12865
▁பல்வகை	-12866
▁பிராட்	-12867
▁புறக்க	-12868
▁பூகம்ப	-12869
▁பையில்	-12870
▁போனாள்	-12871
▁போனேன்	-12872
▁போய்த்	-12873
▁போர்ட்	-12874
▁மணலில்	-12875
▁மணிமேக	-12876
▁மறைக்க	-12877
▁மற்றவை	-12878
▁மின்னா	-12879
▁முடிவை	-12880
▁முன்வர	-12881
▁மெயில்	-12882
▁மைத்து	-12883
▁மொழியை	-12884
▁ரப்பர்	-12885
▁வருமான	-12886
▁வரையறை	-12887
▁வழிவகை	-12888
▁வாய்மை	-12889
▁விடாது	-12890
▁விதமாக	-12891
▁வினாடி	-12892
▁விலகிய	-12893
▁வீடும்	-12894
▁வெற்று	-12895
▁ஸ்டேஷன	-12896
▁ஹாலில்	-12897
களுக்காக	-12898
கின்றாள்	-12899
த்தினாலோ	-12900
ப்பாகும்	-12901
ப்பினால்	-12902
முறையும்	-12903
றுகின்றன	-12904
வர்களுள்	-12905
ாசிரியர்	-12906
ியுங்கள்	-12907
▁அஞ்சும்	-12908
▁அடக்கிய	-12909
▁அரசனின்	-12910
▁அரசுகள்	-12911
▁அறிவான்	-12912
▁அழியும்	-12913
▁அழுக்கு	-12914
▁ஆகிறான்	-12915
▁ஆண்டின்	-12916
▁ஆற்றைக்	-12917
▁இடிந்து	-12918
▁இடையிலே	-12919
▁இடையூறு	-12920
▁இதழ்கள்	-12921
▁இருக்கா	-12922
▁இறைவனது	-12923
▁உடையவள்	-12924
▁உட்பட்ட	-12925
▁உதவிகள்	-12926
▁உன்னால்	-12927
▁உழைப்பை	-12928
▁ஊக்குவி	-12929
▁என்பதன்	-12930
▁என்மேல்	-12931
▁எரியும்	-12932
▁ஏமாந்து	-12933
▁ஏமாற்று	-12934
▁ஒருங்கு	-12935
▁ஒளியில்	-12936
▁ஒளியும்	-12937
▁கரும்பு	-12938
▁கரையிலே	-12939
▁கற்பின்	-12940
▁கழுத்து	-12941
▁காப்பது	-12942
▁காயாரோக	-12943
▁கிரிக்க	-12944
▁கிழங்கு	-12945
▁கீழ்த்த	-12946
▁குமரன்ந	-12947
▁கூச்சல்	-12948
▁கூடினர்	-12949
▁கூட்டுற	-12950
▁கெடுக்க	-12951
▁கேள்விய	-12952
▁கொள்ளப்	-12953
▁சந்தனக்	-12954
▁சமைத்து	-12955
▁சம்பாதி	-12956
▁சம்மதம்	-12957
▁சற்றுக்	-12958
▁சித்தம்	-12959
▁சிருஷ்ட	-12960
▁சிலைகள்	-12961
▁செருக்க	-12962
▁சோமாஸ்க	-12963
▁ஜீவரசம்	-12964
▁தங்களது	-12965
▁தன்னலம்	-12966
▁தாங்களே	-12967
▁தாயுமான	-12968
▁திடீரென	-12969
▁திருடன்	-12970
▁துறந்து	-12971
▁தெய்வீக	-12972
▁தோய்ந்த	-12973
▁நகர்த்த	-12974
▁நதியின்	-12975
▁நிராகரி	-12976
▁நிலத்தை	-12977
▁நிலவும்	-12978
▁நீங்களே	-12979
▁நுழைந்த	-12980
▁படைத்து	-12981
▁பட்டணம்	-12982
▁பறந்தது	-12983
▁பாடலைப்	-12984
▁பாதுகாவ	-12985
▁பாதைகள்	-12986
▁பின்னரே	-12987
▁புத்திய	-12988
▁புறக்கண	-12989
▁பேரின்ப	-12990
▁பொல்லாத	-12991
▁போட்டது	-12992
▁மரணத்தை	-12993
▁மலைவாழ்	-12994
▁மாநிலம்	-12995
▁மாறுதல்	-12996
▁மிஸ்டர்	-12997
▁மொழிகளை	-12998
▁ரோமானிய	-12999
▁லக்ஷ்மண	-13000
▁வடிவேலு	-13001
▁வழியிலே	-13002
▁வாட்டர்	-13003
▁விகிதம்	-13004
▁விசேஷம்	-13005
▁விழிகள்	-13006
▁வெளிக்க	-13007
▁வேகத்தை	-13008
படுத்திக்	-13009
ப்பட்டாள்	-13010
ப்பதற்கான	-13011
ாட்டுக்கு	-13012
ாவிற்கும்	-13013
ினால்தான்	-13014
ிருக்காது	-13015
ிருக்குமோ	-13016
ையில்தான்	-13017
▁அடிமையாக	-13018
▁அப்படியா	-13019
▁அமைதியான	-13020
▁அருமையாக	-13021
▁அவற்றைத்	-13022
▁ஆகட்டும்	-13023
▁ஆண்களும்	-13024
▁இடத்தைப்	-13025
▁இறைவனின்	-13026
▁இவற்றைக்	-13027
▁உழைப்பாள	-13028
▁எட்வர்ட்	-13029
▁எதிர்மறை	-13030
▁என்றெண்ண	-13031
▁ஒப்புரவு	-13032
▁ஒருவரின்	-13033
▁ஒழுங்கமை	-13034
▁கடவுளைப்	-13035
▁கடிதத்தை	-13036
▁கனடாவின்	-13037
▁கவனித்து	-13038
▁காற்றின்	-13039
▁காற்றும்	-13040
▁குணங்கள்	-13041
▁குதிரையை	-13042
▁குறுக்கி	-13043
▁கொல்லிப்	-13044
▁கொள்கையை	-13045
▁கோவலனும்	-13046
▁சாயங்கால	-13047
▁சிற்றூர்	-13048
▁சீர்திரு	-13049
▁சென்றோம்	-13050
▁செய்தாய்	-13051
▁சைக்கிள்	-13052
▁தனக்குள்	-13053
▁தரிசிக்க	-13054
▁தவறாகும்	-13055
▁திருச்சி	-13056
▁திறமையான	-13057
▁தெளிந்து	-13058
▁தேய்த்து	-13059
▁தொங்கிக்	-13060
▁தொலைபேசி	-13061
▁நந்தனார்	-13062
▁நெறிமுறை	-13063
▁நோய்வாய்	-13064
▁பகுதிகளை	-13065
▁பணிபுரிக	-13066
▁பலவகையான	-13067
▁பாகங்களை	-13068
▁பாடல்களை	-13069
▁பாபுவும்	-13070
▁பிடிப்பு	-13071
▁பிடுங்கி	-13072
▁பிரச்சின	-13073
▁பிறருடைய	-13074
▁பெருக்கு	-13075
▁பேச்சும்	-13076
▁பேஸ்பால்	-13077
▁போக்கும்	-13078
▁போற்றிப்	-13079
▁மலைத்தொட	-13080
▁முதுகில்	-13081
▁முன்னதாக	-13082
▁முன்னோர்	-13083
▁முறைதான்	-13084
▁மையமாகக்	-13085
▁யுனைடெட்	-13086
▁ரத்தினம்	-13087
▁வாழ்வும்	-13088
▁விடிந்து	-13089
▁விண்ணுலக	-13090
▁விதிமுறை	-13091
▁விளிம்பு	-13092
▁விழாவில்	-13093
▁விவசாயம்	-13094
▁வெறுத்து	-13095
▁வெற்றிச்	-13096
▁வெள்ளைக்	-13097
த்தின்போது	-13098
த்துவிட்டு	-13099
ிக்கவில்லை	-13100
்கிறார்கள்	-13101
▁அடைந்தாள்	-13102
▁அதிகமாகப்	-13103
▁அவர்களுள்	-13104
▁ஆண்டுக்கு	-13105
▁இதயத்தில்	-13106
▁இப்பொழுதே	-13107
▁இயக்கத்தை	-13108
▁இருக்குமா	-13109
▁இரும்புத்	-13110
▁இவர்களின்	-13111
▁உண்டானால்	-13112
▁உரைத்தான்	-13113
▁உற்பத்திய	-13114
▁உலகிலுள்ள	-13115
▁உழைப்பின்	-13116
▁ஊழியர்கள்	-13117
▁என்றுதானே	-13118
▁எல்லோருமே	-13119
▁கப்பல்கள்	-13120
▁கம்பீரமான	-13121
▁கருத்தும்	-13122
▁கருப்பையா	-13123
▁காட்சியளி	-13124
▁குழந்தைப்	-13125
▁குழுக்கள்	-13126
▁சட்டையில்	-13127
▁சரியில்லை	-13128
▁சாஸ்திரம்	-13129
▁சீனத்தின்	-13130
▁செந்தமிழ்	-13131
▁சென்றதும்	-13132
▁செயலுக்கு	-13133
▁செல்வத்தை	-13134
▁செல்வமும்	-13135
▁சொல்லவும்	-13136
▁தருகின்றன	-13137
▁திங்களில்	-13138
▁திருப்திய	-13139
▁திருப்பணி	-13140
▁திருப்புக	-13141
▁துருக்கிய	-13142
▁நடத்தினர்	-13143
▁நல்வாழ்வு	-13144
▁நாகப்பட்ட	-13145
▁நாற்பத்து	-13146
▁நீங்களும்	-13147
▁படித்துப்	-13148
▁பயிற்சியை	-13149
▁பழங்குடிய	-13150
▁பழந்தமிழ்	-13151
▁பாராட்டிய	-13152
▁பிரபஞ்சம்	-13153
▁பூழியனும்	-13154
▁பைத்தியம்	-13155
▁பொருத்தம்	-13156
▁மதிப்பீடு	-13157
▁மதுரைக்கு	-13158
▁மரணத்தைப்	-13159
▁வணங்கலாம்	-13160
▁வணிகர்கள்	-13161
▁வயல்களில்	-13162
▁விளையாடிய	-13163
▁விளைவுகள்	-13164
▁விழுகிறது	-13165
ங்களுக்குக்	-13166
ங்களுக்குத்	-13167
ப்படுகிறேன்	-13168
▁அருணகிரியை	-13169
▁அறிவார்கள்	-13170
▁அவருக்குக்	-13171
▁அவருக்குச்	-13172
▁இடையிலுள்ள	-13173
▁இயற்கைக்கு	-13174
▁இருக்கீங்க	-13175
▁இருபுறமும்	-13176
▁இலங்கையில்	-13177
▁உணர்ந்தார்	-13178
▁உறவினர்கள்	-13179
▁எங்கேயாவது	-13180
▁கடமைப்பட்ட	-13181
▁கல்லறையில்	-13182
▁கிடைத்தால்	-13183
▁குழந்தைகளை	-13184
▁கூறுகின்றன	-13185
▁கேட்கிறார்	-13186
▁கேட்கிறோம்	-13187
▁கொடுத்துக்	-13188
▁சங்கத்தின்	-13189
▁சனிக்கிழமை	-13190
▁சமாச்சாரம்	-13191
▁சொந்தக்கார	-13192
▁தனித்தன்மை	-13193
▁தெய்வங்கள்	-13194
▁நடத்தினோம்	-13195
▁நடந்துகொள்	-13196
▁நீதிமன்றம்	-13197
▁நுழைந்தான்	-13198
▁பாதிக்கும்	-13199
▁பாதுகாத்து	-13200
▁பார்த்துச்	-13201
▁பார்த்துத்	-13202
▁பூங்காவில்	-13203
▁பொறுத்தவரை	-13204
▁மற்றொருவர்	-13205
▁மிருகங்கள்	-13206
▁முறையாகும்	-13207
▁ராஜகோபாலன்	-13208
▁ரெக்கார்ட்	-13209
▁வரலாற்றுப்	-13210
▁வாய்க்கும்	-13211
▁வாழ்ந்தனர்	-13212
▁விடுகிறேன்	-13213
▁விட்டுவிடு	-13214
▁விமர்சிக்க	-13215
▁விளைகின்றன	-13216
▁விளையாட்டை	-13217
▁வேண்டுகோள்	-13218
த்திலிருந்தே	-13219
▁அனுப்பினான்	-13220
▁அப்பாவுக்கு	-13221
▁அப்பொழுதும்	-13222
▁இக்கோயிலில்	-13223
▁இதையெல்லாம்	-13224
▁இப்போதுதான்	-13225
▁இல்லையென்று	-13226
▁உண்டாக்கும்	-13227
▁உலகத்திற்கு	-13228
▁ஒருமைப்பாடு	-13229
▁கருதுகிறேன்	-13230
▁கலீலியோவின்	-13231
▁காடுகளிலும்	-13232
▁காட்டவில்லை	-13233
▁குஞ்சம்மாள்	-13234
▁குறிப்புகள்	-13235
▁கூறமுடியாது	-13236
▁கேட்கவில்லை	-13237
▁கொடுக்கிறது	-13238
▁கொள்ளும்படி	-13239
▁சுற்றுப்பயண	-13240
▁செங்குத்தாக	-13241
▁செங்குத்தான	-13242
▁தமிழகத்தில்	-13243
▁தொடங்கினாள்	-13244
▁நம்மாழ்வார்	-13245
▁நாகரத்தினம்	-13246
▁பயிற்சியும்	-13247
▁பாதுகாப்பாக	-13248
▁பார்க்காமல்	-13249
▁பிரிக்கலாம்	-13250
▁புத்தகங்களை	-13251
▁மட்டும்தான்	-13252
▁மாகாணத்தில்	-13253
▁மாறிவிட்டது	-13254
▁வாழ்த்தினர்	-13255
▁விருந்தினர்	-13256
▁வேறுபாடுகள்	-13257
ிருக்கும்போது	-13258
▁ஆரம்பித்தேன்	-13259
▁இன்ஸ்பெக்டர்	-13260
▁உண்டாகவில்லை	-13261
▁எழுதப்பட்டது	-13262
▁ஏற்படுகின்றன	-13263
▁கடைப்பிடிக்க	-13264
▁காட்டுகிறார்	-13265
▁கூறிக்கொண்டே	-13266
▁கூறியுள்ளார்	-13267
▁கொடுக்கிறேன்	-13268
▁சமுதாயத்தின்	-13269
▁சூழ்நிலையில்	-13270
▁தெரிவித்தாள்	-13271
▁தேவர்களுக்கு	-13272
▁நாவலாசிரியர்	-13273
▁நினைக்கிறோம்	-13274
▁பாத்திரங்களை	-13275
▁மற்றவர்களின்	-13276
▁வீட்டிற்குள்	-13277
▁வெளியேறினார்	-13278
ப்படுத்தப்பட்ட	-13279
▁அதிகாரப்பூர்வ	-13280
▁அழிக்கப்பட்டன	-13281
▁அவர்களுக்குச்	-13282
▁எடுத்துக்கொள்	-13283
▁கண்டுபிடிப்பு	-13284
▁சீக்கிரத்தில்	-13285
▁செய்யக்கூடாது	-13286
▁செலுத்துகிறது	-13287
▁நாட்களுக்குப்	-13288
▁நிகழ்ச்சியில்	-13289
▁பயன்படுத்தும்	-13290
▁பல்கலைக்கழகம்	-13291
▁போய்விடுகிறது	-13292
▁போலிருக்கிறதே	-13293
▁மகிழ்ச்சியும்	-13294
▁மரக்கலங்களில்	-13295
▁வருஷங்களுக்கு	-13296
▁வேண்டியுள்ளது	-13297
▁அமைக்கப்பட்டது	-13298
▁அழைக்கிறார்கள்	-13299
▁இவற்றையெல்லாம்	-13300
▁உருவாக்குகிறது	-13301
▁மாதங்களுக்குப்	-13302
▁முக்கியத்துவம்	-13303
▁அழைக்கப்பட்டார்	-13304
▁ஆந்தைக்கண்ணனின்	-13305
▁கேள்விப்பட்டேன்	-13306
▁கொண்டிருக்கலாம்	-13307
▁சந்தர்ப்பத்தில்	-13308
▁நூற்றுக்கணக்கான	-13309
."	-13310
ah	-13311
ec	-13312
oo	-13313
ann	-13314
bur	-13315
enn	-13316
ich	-13317
les	-13318
ran	-13319
ஆர்	-13320
எஸ்	-13321
சப்	-13322
சாக	-13323
ஜான	-13324
தக்	-13325
தடி	-13326
தரு	-13327
தவி	-13328
படை	-13329
மில	-13330
யாக	-13331
ரர்	-13332
வதி	-13333
வேள	-13334
ஷர்	-13335
ஷல்	-13336
ாவ்	-13337
ீழ்	-13338
▁ஊட	-13339
▁ஜு	-13340
▁யே	-13341
▁ஷா	-13342
▁ஹீ	-13343
▁ஹூ	-13344
க்ஞை	-13345
க்ரோ	-13346
ங்கொ	-13347
சால்	-13348
சிரி	-13349
சையை	-13350
ட்ச்	-13351
தங்க	-13352
தந்த	-13353
திலே	-13354
துரை	-13355
நாம்	-13356
னிஷ்	-13357
ன்றை	-13358
பாணி	-13359
புகு	-13360
பெத்	-13361
போம்	-13362
மாரி	-13363
மேலே	-13364
மையா	-13365
ரசம்	-13366
ரவம்	-13367
ரியோ	-13368
ருக்	-13369
லான்	-13370
லிங்	-13371
லூர்	-13372
வடைய	-13373
வரச்	-13374
வரது	-13375
வரிச	-13376
வாடை	-13377
வானே	-13378
வாரி	-13379
விச்	-13380
வியா	-13381
வீடு	-13382
ாயுத	-13383
ாவாக	-13384
ிகம்	-13385
ிடக்	-13386
ிடப்	-13387
ினன்	-13388
ினல்	-13389
ிராக	-13390
ிலன்	-13391
ுடனே	-13392
ேசன்	-13393
ையம்	-13394
ையோர	-13395
▁...	-13396
▁ஃபு	-13397
▁அகழ	-13398
▁அபர	-13399
▁அலா	-13400
▁உடு	-13401
▁ஓரா	-13402
▁கமல	-13403
▁கரண	-13404
▁கூன	-13405
▁சபா	-13406
▁சமி	-13407
▁டப்	-13408
▁தரா	-13409
▁நரை	-13410
▁பதவ	-13411
▁மழு	-13412
▁மேக	-13413
▁ராவ	-13414
▁ரிச	-13415
▁லாய	-13416
▁வதை	-13417
▁வேழ	-13418
சக்தி	-13419
சுரர்	-13420
ச்சன்	-13421
டிவார	-13422
டையாக	-13423
ணிக்க	-13424
தலில்	-13425
தானது	-13426
தாபம்	-13427
னாகச்	-13428
பீரிய	-13429
பூர்வ	-13430
போலக்	-13431
ப்பசி	-13432
ப்பதா	-13433
ப்புல	-13434
மிங்ட	-13435
முன்ன	-13436
மென்ப	-13437
யத்தை	-13438
ர்கர்	-13439
ர்டன்	-13440
லியல்	-13441
லுக்க	-13442
ழியாக	-13443
ழ்ந்த	-13444
வஞ்சி	-13445
வந்தன	-13446
வனைத்	-13447
வாசன்	-13448
விரல்	-13449
வென்ற	-13450
ஸ்கள்	-13451
ாமின்	-13452
ாரமான	-13453
ாவசிய	-13454
ின்ஸ்	-13455
ுறும்	-13456
ொடும்	-13457
▁அதிர	-13458
▁அமில	-13459
▁அறிக	-13460
▁ஆகாய	-13461
▁இதழ்	-13462
▁உபயோ	-13463
▁ஊசல்	-13464
▁ஊர்த	-13465
▁எரிய	-13466
▁ஏந்த	-13467
▁ஒருப	-13468
▁கடுக	-13469
▁கமிஷ	-13470
▁கர்வ	-13471
▁களம்	-13472
▁காலண	-13473
▁குறள	-13474
▁கூழ்	-13475
▁கைகூ	-13476
▁கோசா	-13477
▁கோதை	-13478
▁சூடு	-13479
▁ஜாதி	-13480
▁டிரி	-13481
▁டெக்	-13482
▁டேவ்	-13483
▁தனம்	-13484
▁தரவு	-13485
▁தரைய	-13486
▁தாலி	-13487
▁தீவை	-13488
▁துறவ	-13489
▁தூள்	-13490
▁தொடை	-13491
▁தோரண	-13492
▁நங்க	-13493
▁நதிய	-13494
▁நாடோ	-13495
▁நாயை	-13496
▁நாளா	-13497
▁நிரு	-13498
▁நுகர	-13499
▁நுண்	-13500
▁நுனி	-13501
▁நொடி	-13502
▁நொறு	-13503
▁நோர்	-13504
▁பத்ம	-13505
▁பரவு	-13506
▁பஸ்ஸ	-13507
▁பாசா	-13508
▁பான்	-13509
▁பாரா	-13510
▁பாலக	-13511
▁பிறழ	-13512
▁பிறை	-13513
▁பில்	-13514
▁போப்	-13515
▁மனைய	-13516
▁மாடல	-13517
▁மானு	-13518
▁மாமர	-13519
▁மூடு	-13520
▁மூலை	-13521
▁மேஜை	-13522
▁யாட்	-13523
▁யாரை	-13524
▁யின்	-13525
▁ராவு	-13526
▁ரோடு	-13527
▁லான்	-13528
▁வடதி	-13529
▁வடமே	-13530
▁வரப்	-13531
▁வருப	-13532
▁வற்ற	-13533
▁வீணை	-13534
▁வேர்	-13535
▁வைணவ	-13536
▁ஸ்டோ	-13537
ஞ்சில்	-13538
ட்சியை	-13539
ண்டான்	-13540
த்தபடி	-13541
த்தவன்	-13542
னுக்கோ	-13543
போனால்	-13544
ப்படக்	-13545
மங்கள்	-13546
மாக்கு	-13547
மில்லா	-13548
மேலும்	-13549
மையைச்	-13550
ம்பழம்	-13551
ர்குடி	-13552
றையூர்	-13553
ற்றைக்	-13554
லானார்	-13555
ழக்கம்	-13556
வாக்கு	-13557
வாய்ப்	-13558
ார்ந்த	-13559
ினரின்	-13560
ினரும்	-13561
ெல்வம்	-13562
ையாடல்	-13563
்திறன்	-13564
▁அகலம்	-13565
▁அணிகல	-13566
▁அரக்க	-13567
▁அருளு	-13568
▁அள்ளி	-13569
▁ஆங்கே	-13570
▁ஆண்ட்	-13571
▁இனிக்	-13572
▁இன்மை	-13573
▁இவனது	-13574
▁ஊரின்	-13575
▁எதைப்	-13576
▁ஏங்கி	-13577
▁ஏறிச்	-13578
▁ஒளியை	-13579
▁கஞ்சி	-13580
▁கண்ணீ	-13581
▁களங்க	-13582
▁காண்ட	-13583
▁கானல்	-13584
▁காமன்	-13585
▁காலக்	-13586
▁குன்ன	-13587
▁குல்ல	-13588
▁கோபால	-13589
▁சரியா	-13590
▁சிறகை	-13591
▁சிறைய	-13592
▁சுகுண	-13593
▁சுயநல	-13594
▁சுவார	-13595
▁சூழல்	-13596
▁செருக	-13597
▁செலவழ	-13598
▁சொக்க	-13599
▁ஜாக்க	-13600
▁ஜில்ல	-13601
▁தானாக	-13602
▁தாமிர	-13603
▁திவ்ய	-13604
▁தோல்வ	-13605
▁நடப்ப	-13606
▁நட்பை	-13607
▁நோன்ப	-13608
▁படைக்	-13609
▁பட்டி	-13610
▁பணிவு	-13611
▁பண்டு	-13612
▁பறக்க	-13613
▁பாக்க	-13614
▁பாங்க	-13615
▁பிரசா	-13616
▁பிரசு	-13617
▁புகைய	-13618
▁பெறக்	-13619
▁பொற்க	-13620
▁போகத்	-13621
▁மக்கா	-13622
▁மண்ணை	-13623
▁மதுரா	-13624
▁மயங்க	-13625
▁மலைக்	-13626
▁மலைப்	-13627
▁மாடக்	-13628
▁மீட்ப	-13629
▁முரண்	-13630
▁மூக்க	-13631
▁வந்தே	-13632
▁வன்மை	-13633
▁வழிபட	-13634
▁வாடகை	-13635
▁விடச்	-13636
▁விதம்	-13637
கள்தான்	-13638
சித்தது	-13639
ச்செல்ல	-13640
டத்தில்	-13641
தார்த்த	-13642
பதியின்	-13643
பார்க்க	-13644
ப்பானது	-13645
ப்போன்ற	-13646
மரங்கள்	-13647
முடையது	-13648
முதலில்	-13649
ர்களோடு	-13650
ளத்தின்	-13651
வனையும்	-13652
வன்தான்	-13653
வற்றைக்	-13654
வற்றைத்	-13655
வழியில்	-13656
வாசிகள்	-13657
வார்களா	-13658
ஸ்தானம்	-13659
ாய்வுக்	-13660
ிகிறான்	-13661
ியாரும்	-13662
ிவிடும்	-13663
ுடையதாக	-13664
ெடுப்பு	-13665
▁அதனாலே	-13666
▁அதிகக்	-13667
▁அதிகத்	-13668
▁அதைவிட	-13669
▁அறிவின	-13670
▁அறிவிய	-13671
▁அறிவில	-13672
▁அற்றது	-13673
▁அளவும்	-13674
▁அவரோடு	-13675
▁அவற்று	-13676
▁ஆடம்பர	-13677
▁இந்நில	-13678
▁இப்பாட	-13679
▁உட்புற	-13680
▁உணவில்	-13681
▁உழைத்த	-13682
▁ஊர்கள்	-13683
▁எரிமலை	-13684
▁ஒப்பிட	-13685
▁ஒருவரே	-13686
▁ஒழிக்க	-13687
▁கடுக்க	-13688
▁கதைகளை	-13689
▁கயிற்ற	-13690
▁கர்ப்ப	-13691
▁கலைகள்	-13692
▁கழற்றி	-13693
▁கவலைப்	-13694
▁காலும்	-13695
▁குடுமி	-13696
▁குழாய்	-13697
▁சரக்கு	-13698
▁சாரணர்	-13699
▁சாரும்	-13700
▁சிவில்	-13701
▁சுமத்த	-13702
▁சூர்யா	-13703
▁செட்டி	-13704
▁செண்பக	-13705
▁செய்கை	-13706
▁தஞ்சாவ	-13707
▁தர்க்க	-13708
▁தலைநகர	-13709
▁தாழிவய	-13710
▁தீவின்	-13711
▁துணைக்	-13712
▁தொகையை	-13713
▁தொலைவு	-13714
▁நடுவர்	-13715
▁நாடிச்	-13716
▁நாரதர்	-13717
▁நீராடி	-13718
▁நூலின்	-13719
▁பற்கள்	-13720
▁பாட்டா	-13721
▁பாலும்	-13722
▁பாலைக்	-13723
▁பியானோ	-13724
▁பிராணி	-13725
▁புறம்ப	-13726
▁புலம்ப	-13727
▁பெண்கு	-13728
▁பொன்னே	-13729
▁பொலிவு	-13730
▁போனோம்	-13731
▁மக்கட்	-13732
▁மக்களே	-13733
▁மடிந்த	-13734
▁மனமும்	-13735
▁மன்றம்	-13736
▁மரங்கள	-13737
▁மாண்டு	-13738
▁மாறுதல	-13739
▁மிகச்ச	-13740
▁மூடிக்	-13741
▁மேன்மை	-13742
▁மையமாக	-13743
▁ரெண்டு	-13744
▁லார்ட்	-13745
▁வடித்த	-13746
▁வணிகம்	-13747
▁வாராது	-13748
▁வெளித்	-13749
▁ஸ்பிரி	-13750
க்கொள்கை	-13751
டித்தார்	-13752
ண்டாட்டி	-13753
தில்லையே	-13754
த்தினாள்	-13755
மில்லையே	-13756
யிருந்து	-13757
ர்க்கின்	-13758
ர்க்குச்	-13759
லாமென்று	-13760
வதாகவும்	-13761
வில்லையோ	-13762
ாவிலுள்ள	-13763
ிருப்பர்	-13764
ிறார்கள்	-13765
ையொருவர்	-13766
▁அடுக்கி	-13767
▁அடுப்பு	-13768
▁அதிசயம்	-13769
▁அன்பால்	-13770
▁அமைந்தன	-13771
▁அறுநூறு	-13772
▁அவளுடன்	-13773
▁ஆப்பிள்	-13774
▁ஆரவாரம்	-13775
▁இங்குத்	-13776
▁இப்பொழு	-13777
▁இருட்டு	-13778
▁இறங்கிய	-13779
▁இலட்சம்	-13780
▁இவையும்	-13781
▁உண்மையே	-13782
▁உமாவின்	-13783
▁உயிரைக்	-13784
▁உறவுகள்	-13785
▁எண்ணித்	-13786
▁என்மீது	-13787
▁என்றுமே	-13788
▁எறிந்து	-13789
▁எழுந்தன	-13790
▁எஸ்கிமோ	-13791
▁ஏரியின்	-13792
▁ஒன்றிணை	-13793
▁ஒன்றைச்	-13794
▁கச்சேரி	-13795
▁கடற்படை	-13796
▁கடைசிப்	-13797
▁கட்டணம்	-13798
▁கணவனும்	-13799
▁கண்டோம்	-13800
▁கருதும்	-13801
▁கற்கும்	-13802
▁கலக்கம்	-13803
▁கிளைகள்	-13804
▁குடியரச	-13805
▁குறுக்க	-13806
▁குள்ளன்	-13807
▁குழுவின	-13808
▁கூறுகள்	-13809
▁கூறுதல்	-13810
▁கைகளைப்	-13811
▁கொல்லன்	-13812
▁கொள்கைய	-13813
▁சஞ்சீவி	-13814
▁சதுரங்க	-13815
▁சமையற்க	-13816
▁சரியல்ல	-13817
▁சாய்ந்த	-13818
▁சுந்தரி	-13819
▁சூழலில்	-13820
▁செய்யச்	-13821
▁சொந்தக்	-13822
▁தன்னையே	-13823
▁தருவார்	-13824
▁தலையைத்	-13825
▁தியேட்ட	-13826
▁திரண்டு	-13827
▁திராட்ச	-13828
▁தீட்டிய	-13829
▁துணிந்த	-13830
▁தூக்கிய	-13831
▁தெய்வக்	-13832
▁நகரத்து	-13833
▁நடக்கிற	-13834
▁நடையில்	-13835
▁நம்மைச்	-13836
▁நல்கும்	-13837
▁நீடிக்க	-13838
▁பகிரங்க	-13839
▁பட்டுப்	-13840
▁பண்ணிக்	-13841
▁பண்பும்	-13842
▁பத்தினி	-13843
▁பறித்து	-13844
▁பற்றியோ	-13845
▁பற்றுக்	-13846
▁பழக்கவழ	-13847
▁பழங்கள்	-13848
▁பழையாறை	-13849
▁பாய்ச்ச	-13850
▁பிரதமர்	-13851
▁பூபாலன்	-13852
▁பெயரைக்	-13853
▁மனோஹரன்	-13854
▁மறையும்	-13855
▁மாறுவேட	-13856
▁மாஸ்டர்	-13857
▁முட்டாள	-13858
▁யானைகள்	-13859
▁யாப்பிய	-13860
▁யூனியன்	-13861
▁ரீதியான	-13862
▁வந்தவள்	-13863
▁வலையில்	-13864
▁வானியல்	-13865
▁விலாசம்	-13866
▁வேண்டாம	-13867
த்தின்படி	-13868
ப்பாடுகள்	-13869
மாயிருந்த	-13870
ர்த்தியாக	-13871
ல்களையும்	-13872
ீட்டளவில்	-13873
ூருக்குப்	-13874
▁அதிகமாய்	-13875
▁அமைக்கப்	-13876
▁அரண்மனைய	-13877
▁அவைகளின்	-13878
▁இதற்கும்	-13879
▁இயக்கும்	-13880
▁இருப்பவை	-13881
▁இறக்கும்	-13882
▁இறங்கும்	-13883
▁ஈர்த்தது	-13884
▁உதவினார்	-13885
▁உயிருடன்	-13886
▁உரிமைகள்	-13887
▁உலகளாவிய	-13888
▁எங்களைப்	-13889
▁எதையாவது	-13890
▁என்னதான்	-13891
▁என்றதும்	-13892
▁ஏற்கெனவே	-13893
▁ஏலக்காய்	-13894
▁கணக்கில்	-13895
▁கண்காட்ச	-13896
▁கனவிலும்	-13897
▁கருவுற்ற	-13898
▁கலியாணம்	-13899
▁கிட்டார்	-13900
▁கொல்லும்	-13901
▁சாம்ராஜ்	-13902
▁சிக்கிக்	-13903
▁சின்னையா	-13904
▁சிலவற்றை	-13905
▁சீமாட்டி	-13906
▁செவ்வாய்	-13907
▁டென்னிஸ்	-13908
▁தகவல்கள்	-13909
▁தங்களின்	-13910
▁தங்களைத்	-13911
▁தன்னுடன்	-13912
▁தருகின்ற	-13913
▁தலைப்பாக	-13914
▁தியாகராஜ	-13915
▁துயரத்தை	-13916
▁தூங்கும்	-13917
▁தெரிந்தன	-13918
▁நடிப்பது	-13919
▁நன்றாகக்	-13920
▁நமக்குச்	-13921
▁நாடகமாடு	-13922
▁நான்காம்	-13923
▁நீங்கும்	-13924
▁நுழையும்	-13925
▁பணத்தின்	-13926
▁பணத்தைக்	-13927
▁பத்தொன்ப	-13928
▁பாட்டின்	-13929
▁பாண்டவர்	-13930
▁பாதையின்	-13931
▁பிரச்சார	-13932
▁புதைத்து	-13933
▁புத்தசரி	-13934
▁புயல்கள்	-13935
▁பெண்ணைக்	-13936
▁பெயர்த்த	-13937
▁பெற்றேன்	-13938
▁போகிறாள்	-13939
▁போதுதான்	-13940
▁மனத்தைக்	-13941
▁மாட்டோம்	-13942
▁முடியுமோ	-13943
▁முணுமுணு	-13944
▁முதல்வர்	-13945
▁முன்னும்	-13946
▁முன்னூறு	-13947
▁மூன்றில்	-13948
▁மேற்கண்ட	-13949
▁வணங்கும்	-13950
▁வனத்தில்	-13951
▁வருவதும்	-13952
▁வளர்ப்பு	-13953
▁வாழ்த்தி	-13954
▁விடுவாள்	-13955
▁விடுவேன்	-13956
▁விடுவோம்	-13957
▁விட்டானே	-13958
▁வியத்தகு	-13959
▁வைத்துத்	-13960
▁வைத்தேன்	-13961
▁ஸ்வீடிஷ்	-13962
த்துள்ளார்	-13963
த்தைத்தான்	-13964
ப்பார்த்து	-13965
மாட்டியின்	-13966
லிலிருந்து	-13967
ிகளெல்லாம்	-13968
ிடத்திலும்	-13969
▁அச்சிட்டு	-13970
▁அடித்தளம்	-13971
▁அதன்பிறகு	-13972
▁அன்பினால்	-13973
▁அப்பொழுதே	-13974
▁அமைத்துத்	-13975
▁ஆட்டுக்கு	-13976
▁ஆதாரங்கள்	-13977
▁இம்மாதிரி	-13978
▁இயக்குனர்	-13979
▁உச்சரிக்க	-13980
▁உயிர்ப்பு	-13981
▁எங்களுடன்	-13982
▁எடுத்தார்	-13983
▁எண்ணினார்	-13984
▁ஒன்பதாவது	-13985
▁ஒருவனுடைய	-13986
▁கடிதங்கள்	-13987
▁கழகத்தின்	-13988
▁காட்டாமல்	-13989
▁காந்திமதி	-13990
▁கிடைப்பது	-13991
▁குடும்பப்	-13992
▁குறைகிறது	-13993
▁குறைவாகவே	-13994
▁குற்றத்தை	-13995
▁கூட்டத்தை	-13996
▁கூறியுள்ள	-13997
▁கூவுகிறது	-13998
▁கைப்பற்றி	-13999
▁கொடுங்கள்	-14000
▁கொண்டாட்ட	-14001
▁கொலம்பியா	-14002
▁சங்கரதாஸ்	-14003
▁சட்டங்கள்	-14004
▁சண்டையில்	-14005
▁சந்தோஷமாக	-14006
▁சமஸ்கிருத	-14007
▁சிறப்பும்	-14008
▁சென்றபோது	-14009
▁செய்துவிட	-14010
▁செலுத்திய	-14011
▁சொல்வதைக்	-14012
▁தந்தைக்கு	-14013
▁தமிழிலும்	-14014
▁தமிழுக்கு	-14015
▁தருகிறார்	-14016
▁தலைசிறந்த	-14017
▁திருவாங்க	-14018
▁துணையாகக்	-14019
▁துண்டுகள்	-14020
▁தூண்டியது	-14021
▁தோன்றலாம்	-14022
▁தோன்றுவது	-14023
▁நம்மிடையே	-14024
▁நாட்டியம்	-14025
▁நீங்கியது	-14026
▁படகுகளில்	-14027
▁பதுமையின்	-14028
▁பாராட்டப்	-14029
▁பார்க்கத்	-14030
▁பார்க்கவே	-14031
▁பாலசுந்தர	-14032
▁பின்பற்று	-14033
▁பிறவியில்	-14034
▁மலையடிவார	-14035
▁மல்லாந்து	-14036
▁மாடத்தில்	-14037
▁மாறுபடும்	-14038
▁மாற்றியது	-14039
▁முக்கியப்	-14040
▁முன்னமேயே	-14041
▁முறைப்படி	-14042
▁மென்மையான	-14043
▁வகையிலும்	-14044
▁வயிற்றின்	-14045
▁வரலாறுகள்	-14046
▁வருகிறோம்	-14047
▁வருடங்கள்	-14048
▁வருஷங்கள்	-14049
▁வாயில்கள்	-14050
▁வாழ்கின்ற	-14051
▁வெளியீட்ட	-14052
▁வெளிவந்து	-14053
▁வேடத்தில்	-14054
தாயிருந்தது	-14055
த்தினார்கள்	-14056
ந்துவிட்டது	-14057
ப்புக்குரிய	-14058
மாகிவிட்டது	-14059
ிக்கப்படும்	-14060
ிக்கொள்ளும்	-14061
▁அக்குழந்தை	-14062
▁அறிந்ததும்	-14063
▁அழுதுகொண்ட	-14064
▁ஆகியோருடன்	-14065
▁ஆல்பத்தின்	-14066
▁இடம்பெற்று	-14067
▁இன்பத்தில்	-14068
▁இன்ஸ்பெக்ட	-14069
▁இருப்பிடம்	-14070
▁இவர்களிடம்	-14071
▁உணர்த்தும்	-14072
▁உதயணனுக்கு	-14073
▁உதவுகின்றன	-14074
▁உயர்ந்தவன்	-14075
▁எப்போதாவது	-14076
▁எம்பெருமான	-14077
▁எவருக்கும்	-14078
▁கன்னத்தில்	-14079
▁கலாச்சாரம்	-14080
▁கவனித்தான்	-14081
▁கவனித்தார்	-14082
▁குடிமக்கள்	-14083
▁கூட்டாட்சி	-14084
▁கொடுத்தனர்	-14085
▁கொடுத்தேன்	-14086
▁கொள்கைக்கு	-14087
▁சாந்தப்பன்	-14088
▁சான்றாண்மை	-14089
▁சாப்பாட்டு	-14090
▁சிரித்தான்	-14091
▁செயல்களில்	-14092
▁செயல்களைச்	-14093
▁செய்தியைக்	-14094
▁செய்தியைச்	-14095
▁செல்கிறான்	-14096
▁ஞானாம்பாள்	-14097
▁ஞாபகமில்லை	-14098
▁தத்துவத்தை	-14099
▁தீர்த்துக்	-14100
▁துடைத்துக்	-14101
▁தொண்டைமான்	-14102
▁தொழில்முறை	-14103
▁நடக்கின்றன	-14104
▁படைக்கோட்ட	-14105
▁பழக்கங்கள்	-14106
▁பார்த்தனர்	-14107
▁பார்த்தும்	-14108
▁பார்வையில்	-14109
▁பிடிக்காது	-14110
▁பிடித்தார்	-14111
▁பெருமக்கள்	-14112
▁பேசுவதற்கு	-14113
▁மாறிவிடும்	-14114
▁முடித்தார்	-14115
▁வருவதில்லை	-14116
▁வருஷத்தில்	-14117
▁வளர்ச்சியை	-14118
▁வழக்கறிஞர்	-14119
▁வாழ்க்கைத்	-14120
ாயிருக்கிறது	-14121
▁அங்கீகரிக்க	-14122
▁அட்லாண்டிக்	-14123
▁அறிவித்தார்	-14124
▁இருப்பதாகத்	-14125
▁இளஞ்சிவப்பு	-14126
▁உருவாக்கிக்	-14127
▁எதுவுமில்லை	-14128
▁கஷ்டப்பட்டு	-14129
▁காணப்பட்டது	-14130
▁கிடக்கின்றன	-14131
▁குடியேறினர்	-14132
▁குறிப்பிடத்	-14133
▁கூடியிருந்த	-14134
▁கூறவேண்டும்	-14135
▁கெட்டிக்கார	-14136
▁கொட்டகைக்கு	-14137
▁கொள்வதற்காக	-14138
▁சித்தார்த்த	-14139
▁சிந்தனையில்	-14140
▁சிலப்பதிகார	-14141
▁செய்யும்படி	-14142
▁திட்டத்தில்	-14143
▁தொலைவிலுள்ள	-14144
▁தோட்டத்தில்	-14145
▁நகரத்திற்கு	-14146
▁நண்பர்களில்	-14147
▁நம்பிக்கையை	-14148
▁நாட்டிலுள்ள	-14149
▁நீலகிரியில்	-14150
▁பகுப்பாய்வு	-14151
▁புகழ்ந்தனர்	-14152
▁பெறவேண்டும்	-14153
▁பெற்றுள்ளது	-14154
▁பெற்றெடுத்த	-14155
▁மனிதர்களின்	-14156
▁மனிதர்களும்	-14157
▁மரக்கலங்கள்	-14158
▁முடிந்தபின்	-14159
▁முன்னோர்கள்	-14160
▁மேற்பார்வைய	-14161
▁யிருக்கிறது	-14162
▁வருந்தினான்	-14163
▁வாரத்திற்கு	-14164
▁வாழவேண்டும்	-14165
▁வேடிக்கையான	-14166
▁வேண்டியவனாய	-14167
▁ஆரம்பித்தால்	-14168
▁இருபத்தெட்டு	-14169
▁உறுப்புக்கள்	-14170
▁எங்களுக்குத்	-14171
▁எங்களுக்குப்	-14172
▁ஒதுக்கப்பட்ட	-14173
▁ஒருங்கிணைந்த	-14174
▁ஒருவருக்கும்	-14175
▁குடியிருப்பு	-14176
▁சமாச்சாரத்தை	-14177
▁செய்யும்போது	-14178
▁சொல்லுகிறேன்	-14179
▁ஜாக்கிரதையாக	-14180
▁தங்கியிருந்த	-14181
▁திருக்கோயில்	-14182
▁திரும்பினான்	-14183
▁நிறுவனத்தில்	-14184
▁பத்திரிகைகள்	-14185
▁பேசிக்கொண்டே	-14186
▁முக்கியமானது	-14187
▁முடிந்தவுடன்	-14188
▁முன்கூட்டியே	-14189
▁மேடையின்மீது	-14190
▁விசித்திரமான	-14191
ிக்கப்படுகிறது	-14192
▁இப்போதெல்லாம்	-14193
▁உரிமையாளர்கள்	-14194
▁ஒப்பீட்டளவில்	-14195
▁ஒருங்கிணைப்பு	-14196
▁ஒருவரையொருவர்	-14197
▁கட்டிக்கொண்டு	-14198
▁கேட்டுக்கொண்ட	-14199
▁கொடுக்கப்பட்ட	-14200
▁கொடுக்கவில்லை	-14201
▁கோடைக்கானலின்	-14202
▁செல்கிறார்கள்	-14203
▁சொல்லவேண்டும்	-14204
▁நம்பிக்கையும்	-14205
▁நாடகங்களிலும்	-14206
▁நிற்கிறார்கள்	-14207
▁வந்திருக்கும்	-14208
▁வாழ்கிறார்கள்	-14209
▁விளக்குகிறார்	-14210
▁வைக்கப்பட்டது	-14211
ங்களுக்கெல்லாம்	-14212
▁அழைக்கப்பட்டது	-14213
▁எடுக்கப்பட்டது	-14214
▁கருதுகிறார்கள்	-14215
▁பயன்படுத்துவது	-14216
▁பார்வையாளர்கள்	-14217
▁பெற்றிருக்கும்	-14218
▁மகிழ்ச்சியுடன்	-14219
▁ஞாபகமிருக்கிறது	-14220
▁நடத்தப்படுகிறது	-14221
▁நண்பர்களுக்குத்	-14222
▁பார்த்துக்கொண்ட	-14223
▁பார்த்துக்கொள்ள	-14224
▁பிடித்துக்கொண்ட	-14225
ie	-14226
op	-14227
to	-14228
கன	-14229
தட	-14230
ஸா	-14231
ஹே	-14232
ீல	-14233
ேன	-14234
▁c	-14235
art	-14236
ast	-14237
ern	-14238
ham	-14239
igh	-14240
ock	-14241
உன்	-14242
ஓர்	-14243
[...]
